<pad>	0
<s>	0
</s>	0
<unk>	0
▁.	-0
▁사	-1
▁좋	-2
세요	-3
▁?	-4
▁이	-5
▁있	-6
하는	-7
▁거	-8
▁나	-9
▁그	-10
▁아	-11
▁좋아	-12
▁사람	-13
▁마	-14
보세요	-15
▁같	-16
▁어	-17
▁안	-18
예요	-19
▁다	-20
▁생	-21
▁사랑	-22
▁하	-23
어요	-24
▁연	-25
▁가	-26
▁해	-27
▁없	-28
친구	-29
▁수	-30
▁여	-31
니다	-32
▁너	-33
▁싶	-34
▁거예요	-35
▁남	-36
는데	-37
▁힘	-38
▁생각	-39
▁자	-40
▁만	-41
▁너무	-42
▁잘	-43
▁내	-44
▁좋아하는	-45
▁말	-46
▁것	-47
네요	-48
▁보	-49
▁많	-50
▁시	-51
▁오	-52
▁마음	-53
▁않	-54
▁이별	-55
▁기	-56
▁같아	-57
봐요	-58
▁헤	-59
▁지	-60
▁정	-61
▁헤어	-62
▁짝	-63
▁바	-64
▁연락	-65
▁여자	-66
▁남자	-67
▁썸	-68
▁더	-69
하고	-70
▁일	-71
▁고	-72
으면	-73
▁힘들	-74
▁되	-75
▁알	-76
▁한	-77
▁모	-78
해보세요	-79
한테	-80
▁있을	-81
하지	-82
▁사람이	-83
▁전	-84
▁못	-85
에서	-86
▁시간	-87
▁싶어	-88
▁결	-89
▁상	-90
▁좀	-91
▁무	-92
▁많이	-93
▁먹	-94
으로	-95
▁친구	-96
▁때	-97
▁좋은	-98
▁게	-99
까요	-100
▁뭐	-101
나봐요	-102
▁건	-103
▁중	-104
▁좋겠	-105
▁부	-106
▁오늘	-107
▁주	-108
하면	-109
▁살	-110
▁받	-111
▁후	-112
▁선	-113
▁할	-114
▁대	-115
▁인	-116
▁끝	-117
해요	-118
▁만나	-119
▁같아요	-120
▁당	-121
▁저	-122
▁이제	-123
▁될	-124
에요	-125
습니다	-126
▁진	-127
▁미	-128
▁걸	-129
▁괜	-130
▁제	-131
하게	-132
▁!	-133
▁연애	-134
친구가	-135
▁있어요	-136
에게	-137
▁잊	-138
는게	-139
▁내가	-140
▁왜	-141
아요	-142
▁어떻	-143
▁하는	-144
▁조	-145
겠지	-146
▁소	-147
▁괜찮	-148
▁좋을	-149
▁어떻게	-150
▁들	-151
▁짝남	-152
▁헤어진	-153
▁비	-154
라고	-155
▁싶다	-156
▁마음이	-157
▁타	-158
▁필	-159
▁없어	-160
▁모르	-161
▁아니	-162
▁날	-163
▁집	-164
▁차	-165
겠어요	-166
사랑	-167
▁있는	-168
▁감	-169
▁자신	-170
▁애	-171
인데	-172
이에요	-173
▁다시	-174
주세요	-175
▁행	-176
▁혼	-177
▁했	-178
▁필요	-179
▁또	-180
▁방	-181
▁스	-182
▁결혼	-183
▁있어	-184
▁공	-185
다면	-186
▁다른	-187
▁정말	-188
▁돼	-189
게요	-190
▁서	-191
▁우	-192
해도	-193
▁예	-194
다고	-195
야지	-196
할까	-197
▁관	-198
▁당신	-199
▁물	-200
인가	-201
▁시간이	-202
▁싫	-203
▁계	-204
▁눈	-205
하세요	-206
▁드	-207
▁정리	-208
들이	-209
은데	-210
▁도	-211
▁신	-212
▁맞	-213
▁재	-214
▁참	-215
▁새	-216
▁짝사랑	-217
▁마세요	-218
▁편	-219
▁하고	-220
▁노	-221
렇게	-222
▁잠	-223
겠죠	-224
▁데	-225
▁언	-226
겠어	-227
▁혼자	-228
볼까	-229
▁자꾸	-230
▁짝녀	-231
▁기다	-232
▁추	-233
▁선물	-234
▁행복	-235
▁반	-236
▁카	-237
▁고백	-238
▁보고	-239
▁수도	-240
겠네요	-241
을까	-242
▁아직	-243
▁힘든	-244
▁느	-245
이야	-246
▁그런	-247
▁지금	-248
▁진짜	-249
▁헤어진지	-250
▁두	-251
지만	-252
▁같이	-253
▁누	-254
▁술	-255
▁준	-256
▁찾	-257
▁먼	-258
이라	-259
▁헤어지	-260
▁해보세요	-261
▁꿈	-262
▁얼	-263
▁의	-264
지도	-265
해야	-266
▁없는	-267
▁있을까	-268
▁달	-269
▁고민	-270
▁그녀	-271
▁방법	-272
▁따	-273
▁변	-274
▁아무	-275
▁놀	-276
▁배	-277
▁사귀	-278
▁확	-279
▁것도	-280
▁사랑이	-281
▁성	-282
▁화	-283
▁후회	-284
▁1	-285
▁답	-286
▁위	-287
▁될까	-288
▁중요	-289
▁여자친구가	-290
▁왔	-291
▁계속	-292
▁준비	-293
▁남자친구가	-294
▁문	-295
▁불	-296
보다	-297
니까요	-298
봅니다	-299
▁동	-300
합니다	-301
▁피	-302
▁나를	-303
▁먼저	-304
▁해야	-305
▁여자친구	-306
했어	-307
▁돌	-308
▁시작	-309
▁찾아	-310
▁몰	-311
▁들어	-312
▁바랄	-313
▁조금	-314
▁힘드	-315
▁쉬	-316
이트	-317
▁서로	-318
▁없어요	-319
▁귀	-320
▁심	-321
까지	-322
▁바랄게요	-323
라요	-324
▁운	-325
▁줄	-326
기가	-327
자고	-328
▁올	-329
해서	-330
▁물어	-331
▁받아	-332
이네요	-333
▁떨	-334
▁매	-335
▁버	-336
▁감정	-337
▁아닌	-338
▁하나	-339
▁머	-340
▁그럴	-341
▁돼요	-342
▁먹고	-343
▁마음을	-344
▁떠	-345
▁이상	-346
다는	-347
▁가능	-348
▁싫어	-349
▁하루	-350
니까	-351
▁기분	-352
거예요	-353
▁남자친구	-354
▁표	-355
가봐요	-356
▁돈	-357
려고	-358
친이	-359
▁속	-360
▁적	-361
▁이야	-362
▁짝남이	-363
▁힘들어	-364
▁사랑하는	-365
▁쓰	-366
▁영	-367
▁충	-368
보는	-369
이죠	-370
지는	-371
▁기억	-372
▁이야기	-373
▁간	-374
▁믿	-375
▁직	-376
에는	-377
▁세	-378
▁실	-379
나요	-380
하기	-381
▁카톡	-382
▁할까	-383
▁입	-384
▁취	-385
▁함	-386
면서	-387
▁공부	-388
▁데이트	-389
▁원	-390
다가	-391
▁관심	-392
▁언제	-393
하는게	-394
대로	-395
로운	-396
▁나만	-397
▁저도	-398
▁하지	-399
▁뭘	-400
▁앞	-401
▁일이	-402
▁제가	-403
▁힘드네	-404
▁엄	-405
▁장	-406
하네	-407
▁만들	-408
▁머리	-409
▁이렇게	-410
▁헤어졌	-411
▁,	-412
▁2	-413
▁걱	-414
텐데	-415
▁걱정	-416
▁그냥	-417
▁어떨	-418
▁분	-419
▁커	-420
었어	-421
▁상처	-422
▁알아	-423
▁어떤	-424
▁해요	-425
▁좋아요	-426
▁생각해요	-427
▁3	-428
▁맘	-429
▁쉽	-430
▁외	-431
랍니다	-432
▁표현	-433
인지	-434
적인	-435
▁많아	-436
▁상대	-437
▁썸남	-438
▁안돼	-439
입니다	-440
▁발	-441
▁싸	-442
▁무슨	-443
▁오래	-444
▁있는데	-445
▁됐	-446
▁학	-447
▁회	-448
리는	-449
▁신경	-450
▁안되	-451
▁한달	-452
▁사람은	-453
▁않아요	-454
▁친구가	-455
해주세요	-456
▁점	-457
▁현	-458
▁미련	-459
▁여행	-460
▁이해	-461
▁보세요	-462
▁길	-463
▁약	-464
스러	-465
▁그래	-466
▁아프	-467
▁전화	-468
▁타는	-469
▁사랑은	-470
▁구	-471
▁놓	-472
▁듯	-473
가는	-474
개월	-475
기도	-476
▁그리	-477
▁누구	-478
▁많은	-479
▁않을	-480
▁어디	-481
▁함께	-482
▁새로운	-483
▁연락이	-484
▁잡	-485
▁죽	-486
▁최	-487
▁내일	-488
▁바랍니다	-489
▁설	-490
▁요	-491
▁돌아	-492
았는데	-493
▁좋겠어요	-494
▁과	-495
▁단	-496
▁맛	-497
▁별	-498
▁첫	-499
겠다	-500
나봐	-501
하죠	-502
했던	-503
▁대화	-504
▁생겼	-505
▁않는	-506
▁해도	-507
▁나한테	-508
▁어떡	-509
▁있었	-510
▁생각나	-511
▁어떨까요	-512
▁그만	-513
▁같은데	-514
▁사람을	-515
▁궁	-516
▁와	-517
▁가고	-518
▁부담	-519
▁깨	-520
▁용	-521
해주	-522
▁보내	-523
▁갑	-524
▁막	-525
▁슬	-526
이었	-527
▁궁금	-528
▁때문	-529
▁만큼	-530
▁이유	-531
▁이젠	-532
▁좋겠다	-533
▁곳	-534
▁유	-535
부터	-536
▁않아	-537
▁좋죠	-538
했는데	-539
▁몰라요	-540
▁처	-541
라도	-542
▁결정	-543
▁다가	-544
▁있으면	-545
▁모르겠어	-546
▁질	-547
▁치	-548
▁충분	-549
▁하면	-550
▁벌	-551
▁호	-552
하다	-553
▁같은	-554
▁느낌	-555
▁소개	-556
▁운동	-557
▁생각이	-558
▁하세요	-559
어보세요	-560
▁늦	-561
▁복	-562
이나	-563
졌어	-564
▁만났	-565
▁우리	-566
▁잘못	-567
하는데	-568
▁이별을	-569
▁말해보세요	-570
▁갈	-571
▁순	-572
▁열	-573
▁허	-574
어도	-575
▁나는	-576
▁노래	-577
▁만날	-578
▁선택	-579
▁아파	-580
▁그렇게	-581
▁번	-582
▁붙	-583
▁축	-584
▁결국	-585
▁괜찮아	-586
▁기다리	-587
▁생각을	-588
▁넘	-589
▁완	-590
▁항	-591
▁어려	-592
▁항상	-593
▁사랑을	-594
▁이별은	-595
▁자신을	-596
▁좋겠어	-597
나봅니다	-598
▁난	-599
지막	-600
처럼	-601
해지	-602
▁따라	-603
▁말고	-604
▁지나	-605
▁여자애	-606
▁덜	-607
▁친	-608
▁휴	-609
거라	-610
걸까	-611
았어	-612
이네	-613
지요	-614
▁답답	-615
▁되는	-616
▁쉽지	-617
적으로	-618
▁마지막	-619
▁개	-620
▁경	-621
가요	-622
군요	-623
싶어	-624
▁나이	-625
▁노력	-626
▁말을	-627
▁않았	-628
▁어때	-629
▁사랑한	-630
▁좋을까	-631
▁생각해보세요	-632
▁봐	-633
만에	-634
움이	-635
▁문제	-636
▁싶은	-637
▁인생	-638
▁처음	-639
▁추억	-640
▁아직도	-641
▁꼭	-642
▁손	-643
▁즐	-644
▁챙	-645
스럽	-646
일까	-647
▁먹어	-648
▁사이	-649
▁영화	-650
▁마음에	-651
▁싶은데	-652
▁짝녀가	-653
▁헤어짐	-654
▁좋겠네요	-655
▁몸	-656
▁뭔	-657
거나	-658
어나	-659
▁맞는	-660
▁여친	-661
▁인연	-662
▁재회	-663
▁남자애	-664
▁때문에	-665
▁생각해	-666
▁주세요	-667
▁멋	-668
▁밥	-669
▁천	-670
자기	-671
▁귀찮	-672
▁달라	-673
▁어제	-674
▁요즘	-675
▁재미	-676
▁추천	-677
▁말아요	-678
▁오늘도	-679
▁헤어지고	-680
▁목	-681
▁웃	-682
▁크	-683
동안	-684
보고	-685
트레	-686
▁기대	-687
▁되었	-688
▁상황	-689
▁아침	-690
▁잊어	-691
겠지만	-692
▁남자가	-693
▁연락을	-694
▁해볼까	-695
인가봐요	-696
▁짜	-697
▁환	-698
더니	-699
▁가슴	-700
▁같애	-701
▁말해	-702
▁못하	-703
▁이런	-704
▁직접	-705
▁회사	-706
▁스트레	-707
▁몇	-708
▁큰	-709
▁포	-710
지고	-711
한지	-712
▁그러	-713
▁떨어	-714
▁세상	-715
▁언젠	-716
▁의미	-717
▁확실	-718
▁갑자기	-719
▁대화를	-720
▁빨	-721
▁솔	-722
▁울	-723
▁종	-724
것도	-725
기를	-726
사람	-727
▁관계	-728
▁모든	-729
▁변화	-730
▁사진	-731
▁살고	-732
▁완전	-733
▁잊혀	-734
▁집에	-735
▁현실	-736
▁했는데	-737
▁아니에요	-738
▁알았는데	-739
▁긴	-740
▁볼	-741
▁절	-742
▁졸	-743
▁키	-744
▁태	-745
▁통	-746
▁티	-747
▁프	-748
리가	-749
있는	-750
하나	-751
▁거라	-752
▁않은	-753
▁왔어	-754
▁주말	-755
▁화장	-756
▁여자가	-757
으니까요	-758
▁된	-759
▁빠	-760
▁착	-761
▁만남	-762
▁부모	-763
▁없을	-764
▁진심	-765
으세요	-766
▁기다려	-767
▁마음의	-768
▁사랑의	-769
▁시간을	-770
▁짝남한테	-771
▁5	-772
▁식	-773
▁잔	-774
▁존	-775
감이	-776
이랑	-777
▁그게	-778
▁얼마	-779
▁엄마	-780
▁엄청	-781
▁없네	-782
▁정신	-783
▁챙겨	-784
었는데	-785
▁이별이	-786
▁사람이랑	-787
▁스트레스	-788
▁4	-789
▁딱	-790
▁초	-791
▁평	-792
▁핸	-793
폭풍	-794
▁가는	-795
▁나가	-796
▁나쁜	-797
▁남친	-798
▁남편	-799
▁눈물	-800
▁어느	-801
▁저는	-802
▁제일	-803
▁커피	-804
하면서	-805
▁만나고	-806
▁부모님	-807
▁신경쓰	-808
▁어떡해	-809
▁충분히	-810
▁망	-811
▁작	-812
▁탈	-813
건가	-814
습관	-815
왔어	-816
지지	-817
▁나와	-818
▁날씨	-819
▁되나	-820
▁때가	-821
▁매일	-822
▁뭘까	-823
▁바람	-824
▁알려	-825
▁핸드	-826
이라도	-827
▁도움이	-828
▁중요한	-829
▁사람한테	-830
▁글	-831
▁끊	-832
▁면	-833
▁뿐	-834
▁청	-835
기로	-836
수록	-837
▁걸까	-838
▁무서	-839
▁뭐가	-840
▁보이	-841
▁붙잡	-842
▁살아	-843
▁아닐	-844
▁짜증	-845
▁확인	-846
▁당신의	-847
▁소개팅	-848
▁합니다	-849
▁갖	-850
▁온	-851
▁풀	-852
같아	-853
거야	-854
들은	-855
라면	-856
일째	-857
해줘	-858
▁끝났	-859
▁떠나	-860
▁보는	-861
▁순간	-862
▁아픈	-863
▁알바	-864
▁위로	-865
▁인정	-866
▁재밌	-867
▁정도	-868
▁바라요	-869
▁핸드폰	-870
▁6	-871
▁극	-872
▁듣	-873
▁밤	-874
▁욕	-875
▁짧	-876
▁흐	-877
▁흔	-878
가고	-879
는지	-880
▁다음	-881
▁대한	-882
▁별로	-883
▁아픔	-884
▁드세요	-885
▁상대방	-886
▁연락해	-887
▁친구랑	-888
▁하는데	-889
▁후폭풍	-890
▁괜찮아요	-891
▁갔	-892
▁강	-893
▁꽃	-894
▁똑	-895
▁야	-896
▁월	-897
▁코	-898
같은	-899
러워	-900
보면	-901
심히	-902
없이	-903
▁그렇	-904
▁다르	-905
▁도와	-906
▁마시	-907
▁벌써	-908
▁빨리	-909
▁습관	-910
▁실수	-911
▁얼굴	-912
▁자주	-913
▁학교	-914
▁괜찮은	-915
▁기분이	-916
▁모르는	-917
▁필요한	-918
▁행복해	-919
▁견	-920
▁담	-921
▁본	-922
▁봄	-923
▁익	-924
▁줘	-925
▁출	-926
▁흘	-927
거리	-928
내고	-929
시간	-930
이면	-931
지가	-932
▁건강	-933
▁끝나	-934
▁마주	-935
▁만난	-936
▁설레	-937
▁솔직	-938
▁차단	-939
▁한번	-940
▁행동	-941
▁그래도	-942
▁당신이	-943
▁여친이	-944
▁열심히	-945
▁첫사랑	-946
하겠어요	-947
▁연락해보세요	-948
▁교	-949
▁금	-950
▁둘	-951
▁파	-952
는거	-953
스로	-954
이별	-955
▁가장	-956
▁극복	-957
▁나서	-958
▁모두	-959
▁상관	-960
▁얼른	-961
▁운명	-962
▁자기	-963
▁점점	-964
▁하죠	-965
▁힘이	-966
리세요	-967
스러워	-968
▁아닌데	-969
▁오늘은	-970
▁정리가	-971
▁좋아할	-972
▁받아들이	-973
▁찾아보세요	-974
▁괴	-975
▁멀	-976
▁옷	-977
▁음	-978
▁찍	-979
감을	-980
다니	-981
쁘게	-982
에도	-983
▁가져	-984
▁가족	-985
▁그분	-986
▁나도	-987
▁쉬운	-988
▁예뻐	-989
▁익숙	-990
▁전여	-991
▁집착	-992
▁힘내	-993
▁조금씩	-994
▁꾸	-995
▁뒤	-996
▁맨	-997
▁베	-998
▁양	-999
▁얘	-1000
기는	-1001
라는	-1002
로워	-1003
만큼	-1004
어가	-1005
천히	-1006
▁가끔	-1007
▁것이	-1008
▁내려	-1009
▁두려	-1010
▁모습	-1011
▁보여	-1012
▁복잡	-1013
▁전남	-1014
▁환승	-1015
릴게요	-1016
▁다가가	-1017
▁사람도	-1018
▁스스로	-1019
▁좋아해	-1020
▁천천히	-1021
▁힘들다	-1022
▁못하겠어	-1023
▁사람들이	-1024
▁연락하고	-1025
▁이별한지	-1026
▁봤	-1027
▁척	-1028
신이	-1029
▁게임	-1030
▁날이	-1031
▁놀러	-1032
▁놓아	-1033
▁느껴	-1034
▁무시	-1035
▁뭐야	-1036
▁받고	-1037
▁성공	-1038
▁아이	-1039
▁오랜	-1040
▁우울	-1041
▁있나	-1042
▁포기	-1043
▁피곤	-1044
▁했어	-1045
겠지요	-1046
스러운	-1047
야겠다	-1048
하네요	-1049
▁귀찮아	-1050
▁만나는	-1051
▁믿어요	-1052
▁사귀고	-1053
▁어려워	-1054
▁언젠간	-1055
▁이별후	-1056
▁자신이	-1057
▁조금만	-1058
했나봐요	-1059
▁먹어야지	-1060
▁있나봐요	-1061
▁메	-1062
▁법	-1063
▁은	-1064
▁책	-1065
버렸	-1066
한데	-1067
▁끝이	-1068
▁나아	-1069
▁나오	-1070
▁생일	-1071
▁썸타	-1072
▁없이	-1073
▁있죠	-1074
▁자연	-1075
▁자존	-1076
▁만들어	-1077
▁사랑에	-1078
▁가보세요	-1079
▁서로에게	-1080
▁좋아하게	-1081
▁물어보세요	-1082
▁ᅲ	-1083
▁로	-1084
▁명	-1085
력이	-1086
리고	-1087
이는	-1088
주는	-1089
해질	-1090
▁꿈에	-1091
▁맛있	-1092
▁맨날	-1093
▁미안	-1094
▁성격	-1095
▁애가	-1096
▁죽을	-1097
달라고	-1098
마세요	-1099
했으면	-1100
▁당신을	-1101
▁만났어	-1102
▁보고싶	-1103
▁생각할	-1104
▁이상형	-1105
▁있다면	-1106
▁자신의	-1107
▁잘하고	-1108
▁좋아하	-1109
▁힘들었	-1110
▁괜찮을까	-1111
▁사랑했던	-1112
▁생각보다	-1113
▁좋아하면	-1114
▁짝녀한테	-1115
▁모르겠어요	-1116
▁헤어졌습니다	-1117
▁까	-1118
▁에	-1119
리지	-1120
마다	-1121
▁거짓	-1122
▁말씀	-1123
▁보통	-1124
▁스타	-1125
▁시험	-1126
▁알게	-1127
▁약속	-1128
▁연인	-1129
▁축하	-1130
▁카페	-1131
▁후련	-1132
해야지	-1133
해주는	-1134
▁남편이	-1135
▁사람들	-1136
▁이별의	-1137
▁잘하는	-1138
▁필요해	-1139
▁힘들게	-1140
려보세요	-1141
▁고민이야	-1142
▁남자애가	-1143
▁군	-1144
▁깊	-1145
▁낫	-1146
▁빌	-1147
▁접	-1148
건지	-1149
더라	-1150
르고	-1151
여행	-1152
장이	-1153
정이	-1154
▁다녀	-1155
▁말이	-1156
▁사는	-1157
▁위해	-1158
▁전에	-1159
▁진정	-1160
▁편이	-1161
▁거짓말	-1162
▁그녀를	-1163
▁남친이	-1164
▁싶어요	-1165
▁이유가	-1166
었나봐요	-1167
▁아무것도	-1168
▁짝남이랑	-1169
▁좋아하는데	-1170
▁빼	-1171
▁숨	-1172
▁헷	-1173
들어	-1174
디어	-1175
생활	-1176
적이	-1177
하려	-1178
▁가서	-1179
▁눈이	-1180
▁됐어	-1181
▁많았	-1182
▁받는	-1183
▁보면	-1184
▁봐요	-1185
▁부분	-1186
▁비싸	-1187
▁살펴	-1188
▁스킨	-1189
▁아는	-1190
▁안나	-1191
▁앞에	-1192
▁어렵	-1193
▁어쩌	-1194
▁연습	-1195
▁예의	-1196
▁잊지	-1197
▁장난	-1198
▁조심	-1199
▁지났	-1200
▁지켜	-1201
▁타고	-1202
▁헷갈	-1203
스럽게	-1204
이었을	-1205
줬으면	-1206
▁궁금해	-1207
▁그리고	-1208
▁드디어	-1209
▁사귀는	-1210
▁이제는	-1211
▁일어나	-1212
▁중인데	-1213
▁필요하	-1214
▁여자애가	-1215
▁중요해요	-1216
▁네	-1217
▁벗	-1218
▁병	-1219
▁폰	-1220
들을	-1221
래도	-1222
밖에	-1223
으니	-1224
이가	-1225
주일	-1226
▁간다	-1227
▁거죠	-1228
▁눈을	-1229
▁동거	-1230
▁먹을	-1231
▁무엇	-1232
▁문자	-1233
▁배우	-1234
▁소중	-1235
▁슬픈	-1236
▁안녕	-1237
▁안해	-1238
▁않죠	-1239
▁여기	-1240
▁월급	-1241
▁작은	-1242
▁잘할	-1243
▁잠이	-1244
▁주변	-1245
▁중에	-1246
▁직장	-1247
보는게	-1248
▁미련이	-1249
▁않아도	-1250
▁알려줘	-1251
▁오세요	-1252
▁전여친	-1253
▁좋은데	-1254
▁짜증나	-1255
▁힘들죠	-1256
한가봐요	-1257
▁뿐이에요	-1258
▁연락해도	-1259
▁있습니다	-1260
▁친구들이	-1261
▁있었나봐요	-1262
▁삶	-1263
▁써	-1264
▁응	-1265
▁읽	-1266
▁향	-1267
줄까	-1268
퇴근	-1269
하길	-1270
해져	-1271
▁10	-1272
▁나을	-1273
▁돈이	-1274
▁되네	-1275
▁두달	-1276
▁따뜻	-1277
▁떨려	-1278
▁마셔	-1279
▁미치	-1280
▁바보	-1281
▁보지	-1282
▁비밀	-1283
▁쉬고	-1284
▁싫다	-1285
▁싸우	-1286
▁썸녀	-1287
▁여러	-1288
▁이러	-1289
▁일찍	-1290
▁잊고	-1291
▁잠시	-1292
▁종교	-1293
▁즐거	-1294
▁최고	-1295
이라는	-1296
해지는	-1297
▁관심이	-1298
▁못하는	-1299
▁무서워	-1300
▁뭐라고	-1301
▁받아들	-1302
▁사랑할	-1303
▁사랑해	-1304
▁안되는	-1305
▁원하는	-1306
▁지금은	-1307
▁헤어져	-1308
▁확신이	-1309
▁확실한	-1310
드릴게요	-1311
▁같습니다	-1312
▁사랑하고	-1313
▁아무래도	-1314
▁좋아하는게	-1315
▁곧	-1316
▁근	-1317
▁냉	-1318
▁능	-1319
▁산	-1320
▁삼	-1321
▁쓸	-1322
▁증	-1323
겠네	-1324
년이	-1325
아서	-1326
야죠	-1327
연애	-1328
음이	-1329
이지	-1330
자리	-1331
져요	-1332
했다	-1333
▁가면	-1334
▁건지	-1335
▁경우	-1336
▁까먹	-1337
▁나랑	-1338
▁데려	-1339
▁되고	-1340
▁되길	-1341
▁되어	-1342
▁드라	-1343
▁마련	-1344
▁맞춰	-1345
▁뭔가	-1346
▁뭔지	-1347
▁방학	-1348
▁볼까	-1349
▁부족	-1350
▁소리	-1351
▁안경	-1352
▁알고	-1353
▁예쁜	-1354
▁용기	-1355
▁이겨	-1356
▁이번	-1357
▁일을	-1358
▁잊는	-1359
▁조언	-1360
▁존중	-1361
▁프사	-1362
답니다	-1363
이라면	-1364
▁당신은	-1365
▁두려워	-1366
▁부러워	-1367
▁사람에	-1368
▁썸남이	-1369
▁인연이	-1370
▁사랑하면	-1371
▁친구한테	-1372
▁필요해요	-1373
▁힘들어요	-1374
▁부담스러워	-1375
▁꿨	-1376
▁독	-1377
▁샀	-1378
▁쌓	-1379
▁클	-1380
▁택	-1381
냄새	-1382
니가	-1383
덤덤	-1384
받고	-1385
쇼핑	-1386
심해	-1387
오네	-1388
자는	-1389
하니	-1390
한게	-1391
한다	-1392
▁가기	-1393
▁가야	-1394
▁가지	-1395
▁갖고	-1396
▁다를	-1397
▁대로	-1398
▁대학	-1399
▁도전	-1400
▁마요	-1401
▁못해	-1402
▁미워	-1403
▁바쁘	-1404
▁분위	-1405
▁시켜	-1406
▁어색	-1407
▁여유	-1408
▁오빠	-1409
▁응원	-1410
▁자체	-1411
▁잠수	-1412
▁지내	-1413
▁취직	-1414
▁커플	-1415
▁하늘	-1416
▁해서	-1417
▁해주	-1418
▁허전	-1419
▁흔들	-1420
했어요	-1421
▁가야지	-1422
▁그녀가	-1423
▁그사람	-1424
▁누구나	-1425
▁먹으면	-1426
▁받았어	-1427
▁변화가	-1428
▁봅니다	-1429
▁스킨십	-1430
▁예쁘게	-1431
▁이상한	-1432
▁있나요	-1433
▁전남친	-1434
▁하나씩	-1435
▁하는게	-1436
▁중요하지	-1437
▁해주세요	-1438
▁골	-1439
▁밀	-1440
▁역	-1441
▁옆	-1442
▁톡	-1443
기만	-1444
년째	-1445
리스	-1446
마스	-1447
어야	-1448
인거	-1449
한거	-1450
▁것을	-1451
▁관리	-1452
▁나온	-1453
▁되지	-1454
▁드는	-1455
▁무뎌	-1456
▁바로	-1457
▁번호	-1458
▁보러	-1459
▁본인	-1460
▁서운	-1461
▁아름	-1462
▁않고	-1463
▁애랑	-1464
▁어울	-1465
▁예민	-1466
▁우산	-1467
▁원래	-1468
▁이성	-1469
▁인사	-1470
▁자격	-1471
▁적극	-1472
▁졸업	-1473
▁좋다	-1474
▁질투	-1475
▁집중	-1476
▁차분	-1477
▁출근	-1478
▁취미	-1479
▁편지	-1480
▁하기	-1481
▁하셨	-1482
▁해결	-1483
더라고	-1484
인가봐	-1485
하려고	-1486
▁감정을	-1487
▁감정이	-1488
▁마음은	-1489
▁많아요	-1490
▁머리가	-1491
▁스타일	-1492
▁아니라	-1493
▁언제나	-1494
▁일주일	-1495
▁좋아한	-1496
▁친구들	-1497
▁하나도	-1498
가봅니다	-1499
▁보고싶어	-1500
▁않았으면	-1501
▁후회하지	-1502
▁높	-1503
▁뜻	-1504
▁특	-1505
▁팔	-1506
▁희	-1507
가를	-1508
대요	-1509
려면	-1510
보여	-1511
었네	-1512
움을	-1513
지네	-1514
질까	-1515
함이	-1516
해졌	-1517
▁감기	-1518
▁같네	-1519
▁군대	-1520
▁귀여	-1521
▁꿈을	-1522
▁끝내	-1523
▁끝은	-1524
▁남았	-1525
▁다행	-1526
▁담배	-1527
▁동생	-1528
▁때도	-1529
▁멋진	-1530
▁몰랐	-1531
▁바라	-1532
▁받을	-1533
▁발표	-1534
▁배려	-1535
▁배워	-1536
▁버려	-1537
▁보냈	-1538
▁새벽	-1539
▁쇼핑	-1540
▁얘기	-1541
▁어쩔	-1542
▁없죠	-1543
▁연예	-1544
▁오는	-1545
▁이사	-1546
▁이어	-1547
▁일은	-1548
▁잠깐	-1549
▁저랑	-1550
▁점심	-1551
▁집안	-1552
▁착각	-1553
다보면	-1554
사친이	-1555
▁가슴이	-1556
▁같네요	-1557
▁그대로	-1558
▁그리워	-1559
▁눈물이	-1560
▁돌아오	-1561
▁때까지	-1562
▁마음도	-1563
▁사람과	-1564
▁사세요	-1565
▁상처받	-1566
▁아닌지	-1567
▁아무리	-1568
▁안하고	-1569
▁어느덧	-1570
▁준비가	-1571
▁행복한	-1572
▁헷갈리	-1573
더라고요	-1574
했습니다	-1575
▁기다리고	-1576
▁만나자고	-1577
▁않는다면	-1578
▁있겠어요	-1579
▁헤어졌어	-1580
▁살펴보세요	-1581
▁사랑해주세요	-1582
▁7	-1583
▁권	-1584
▁등	-1585
▁멍	-1586
▁셀	-1587
▁칭	-1588
▁터	-1589
▁투	-1590
가지	-1591
까워	-1592
됐어	-1593
려요	-1594
만의	-1595
만이	-1596
야할	-1597
었다	-1598
이다	-1599
이밍	-1600
중에	-1601
줬어	-1602
▁가치	-1603
▁기회	-1604
▁나눠	-1605
▁누가	-1606
▁눈치	-1607
▁떠난	-1608
▁몸이	-1609
▁무너	-1610
▁미리	-1611
▁사실	-1612
▁살까	-1613
▁생길	-1614
▁속이	-1615
▁쓰레	-1616
▁않길	-1617
▁없나	-1618
▁없다	-1619
▁이기	-1620
▁일상	-1621
▁일어	-1622
▁있고	-1623
▁잊을	-1624
▁자유	-1625
▁잠을	-1626
▁저녁	-1627
▁저를	-1628
▁절대	-1629
▁주는	-1630
▁지우	-1631
▁충전	-1632
▁칭찬	-1633
▁퇴근	-1634
▁해줘	-1635
▁했던	-1636
▁헤아	-1637
다가도	-1638
▁가지고	-1639
▁관심을	-1640
▁그래요	-1641
▁되는데	-1642
▁만나서	-1643
▁방법이	-1644
▁사람의	-1645
▁싶네요	-1646
▁아는데	-1647
▁안들어	-1648
▁없다면	-1649
▁연예인	-1650
▁완전히	-1651
▁이상해	-1652
▁있는지	-1653
▁좋겠죠	-1654
▁즐거운	-1655
▁지금도	-1656
▁친구를	-1657
▁타이밍	-1658
▁해봐요	-1659
아보세요	-1660
▁물어보는	-1661
▁사람에게	-1662
▁아닐까요	-1663
▁않을까요	-1664
▁좋을텐데	-1665
▁진심으로	-1666
▁후폭풍이	-1667
▁사랑하는데	-1668
▁여자친구와	-1669
▁확인해보세요	-1670
▁8	-1671
▁걷	-1672
▁겨	-1673
▁리	-1674
▁멈	-1675
▁삭	-1676
▁채	-1677
▁철	-1678
▁페	-1679
때는	-1680
르는	-1681
생님	-1682
시켜	-1683
식을	-1684
식이	-1685
없는	-1686
었을	-1687
였어	-1688
요일	-1689
있어	-1690
장을	-1691
▁거절	-1692
▁건가	-1693
▁고마	-1694
▁괜히	-1695
▁괴롭	-1696
▁금방	-1697
▁기본	-1698
▁끝을	-1699
▁냄새	-1700
▁당연	-1701
▁대해	-1702
▁바꿔	-1703
▁반복	-1704
▁버스	-1705
▁비가	-1706
▁사과	-1707
▁사라	-1708
▁삭제	-1709
▁상담	-1710
▁상사	-1711
▁생기	-1712
▁속상	-1713
▁쉽게	-1714
▁싫은	-1715
▁싶지	-1716
▁썸이	-1717
▁안됐	-1718
▁안와	-1719
▁안좋	-1720
▁영원	-1721
▁자고	-1722
▁존재	-1723
▁좋았	-1724
▁주무	-1725
▁지쳐	-1726
▁차이	-1727
▁최선	-1728
됩니다	-1729
인가요	-1730
▁가자고	-1731
▁것보다	-1732
▁고민이	-1733
▁괜찮을	-1734
▁나중에	-1735
▁남자를	-1736
▁마주치	-1737
▁뭐하지	-1738
▁붙잡고	-1739
▁사랑하	-1740
▁선생님	-1741
▁시간은	-1742
▁앞에서	-1743
▁어려운	-1744
▁어쩌지	-1745
▁없으면	-1746
▁잊혀지	-1747
▁저에게	-1748
▁집안일	-1749
▁후회할	-1750
▁힘들지	-1751
리스마스	-1752
여보세요	-1753
▁만났는데	-1754
▁사람마다	-1755
▁생각하는	-1756
▁일이에요	-1757
▁좋아할까	-1758
▁받아들이는	-1759
▁자연스럽게	-1760
▁좋아하는지	-1761
▁짝사랑하는	-1762
▁힘들겠어요	-1763
▁힘들겠지만	-1764
▁각	-1765
▁꺼	-1766
▁났	-1767
▁됨	-1768
▁억	-1769
▁체	-1770
▁트	-1771
구나	-1772
냐고	-1773
당히	-1774
봐도	-1775
웨딩	-1776
이어	-1777
인듯	-1778
했을	-1779
▁갈까	-1780
▁거야	-1781
▁견디	-1782
▁그건	-1783
▁그럼	-1784
▁꾸준	-1785
▁꿈이	-1786
▁놀이	-1787
▁누군	-1788
▁눈에	-1789
▁늦지	-1790
▁듣고	-1791
▁로맨	-1792
▁먹는	-1793
▁면접	-1794
▁못한	-1795
▁뭐든	-1796
▁미친	-1797
▁배고	-1798
▁불안	-1799
▁불편	-1800
▁생긴	-1801
▁시원	-1802
▁심해	-1803
▁오해	-1804
▁왔다	-1805
▁우연	-1806
▁위한	-1807
▁이거	-1808
▁이혼	-1809
▁인형	-1810
▁일도	-1811
▁자책	-1812
▁잡고	-1813
▁적응	-1814
▁졸려	-1815
▁주고	-1816
▁주면	-1817
▁지워	-1818
▁추워	-1819
▁키우	-1820
▁태어	-1821
▁프로	-1822
▁한잔	-1823
▁흘렀	-1824
하겠죠	-1825
▁걱정돼	-1826
▁결혼식	-1827
▁곳으로	-1828
▁그녀의	-1829
▁꿈에서	-1830
▁데려다	-1831
▁될까요	-1832
▁만나면	-1833
▁만나지	-1834
▁말하는	-1835
▁생각만	-1836
▁쓰레기	-1837
▁앞으로	-1838
▁얼마나	-1839
▁없네요	-1840
▁없는데	-1841
▁연애는	-1842
▁왔는데	-1843
▁있어도	-1844
▁장거리	-1845
▁제대로	-1846
▁추억이	-1847
▁충분한	-1848
▁타는데	-1849
▁해보는	-1850
▁했으면	-1851
겠습니다	-1852
▁괜찮아질	-1853
▁사랑해서	-1854
▁생각나네	-1855
▁생각나는	-1856
▁썸남한테	-1857
▁연락하면	-1858
▁연락하지	-1859
▁오랜만에	-1860
▁자신에게	-1861
▁주무세요	-1862
▁했습니다	-1863
▁헤어져야	-1864
▁남자친구의	-1865
▁사랑한다고	-1866
▁여자친구의	-1867
▁크리스마스	-1868
▁끄	-1869
▁농	-1870
▁뒷	-1871
▁든	-1872
▁뜨	-1873
▁뻔	-1874
▁썼	-1875
▁업	-1876
▁잤	-1877
▁창	-1878
▁침	-1879
▁판	-1880
간이	-1881
거려	-1882
념일	-1883
될까	-1884
상이	-1885
서관	-1886
성이	-1887
세먼	-1888
시는	-1889
시다	-1890
심이	-1891
싶다	-1892
어진	-1893
오는	-1894
이고	-1895
전히	-1896
준비	-1897
할지	-1898
해줄	-1899
▁ᅲᅲ	-1900
▁거지	-1901
▁고생	-1902
▁곳이	-1903
▁과정	-1904
▁권태	-1905
▁기운	-1906
▁깨달	-1907
▁꿨어	-1908
▁나의	-1909
▁느끼	-1910
▁느려	-1911
▁당황	-1912
▁되면	-1913
▁두근	-1914
▁못할	-1915
▁문득	-1916
▁바뀌	-1917
▁바쁜	-1918
▁부탁	-1919
▁불러	-1920
▁비슷	-1921
▁사고	-1922
▁사귄	-1923
▁사야	-1924
▁샀어	-1925
▁슬프	-1926
▁신혼	-1927
▁안타	-1928
▁않네	-1929
▁알았	-1930
▁올려	-1931
▁위험	-1932
▁의지	-1933
▁이루	-1934
▁좋지	-1935
▁지쳤	-1936
▁취업	-1937
▁친한	-1938
▁피부	-1939
▁피해	-1940
듭니다	-1941
면서도	-1942
시군요	-1943
으려고	-1944
하다고	-1945
해볼까	-1946
▁가능할	-1947
▁그동안	-1948
▁기념일	-1949
▁나이가	-1950
▁날씨가	-1951
▁능력이	-1952
▁도서관	-1953
▁먹을까	-1954
▁못하고	-1955
▁분위기	-1956
▁생겼어	-1957
▁성격이	-1958
▁소중한	-1959
▁썸인지	-1960
▁썸타는	-1961
▁아름다	-1962
▁어디서	-1963
▁엄마가	-1964
▁연애를	-1965
▁외로워	-1966
▁용기를	-1967
▁있네요	-1968
▁있지만	-1969
▁잊어버	-1970
▁잊어야	-1971
▁짝녀랑	-1972
▁해야지	-1973
▁호감을	-1974
▁후회가	-1975
▁남자들은	-1976
▁많았어요	-1977
▁받아들여	-1978
▁생각하지	-1979
▁신경쓰지	-1980
▁어떡하지	-1981
▁연락하는	-1982
▁그런가봐요	-1983
▁모르겠네요	-1984
▁생각하세요	-1985
▁않으니까요	-1986
▁여자친구랑	-1987
▁헤어졌는데	-1988
ᄒᄒ	-1989
ᅲᅲ	-1990
▁걔	-1991
▁꼬	-1992
▁딸	-1993
▁죄	-1994
▁짐	-1995
▁찌	-1996
▁춥	-1997
▁패	-1998
▁형	-1999
가네	-2000
가워	-2001
나는	-2002
내서	-2003
느라	-2004
되는	-2005
렸어	-2006
리를	-2007
릴까	-2008
스크	-2009
스타	-2010
어두	-2011
어머	-2012
어서	-2013
주지	-2014
지면	-2015
치고	-2016
할때	-2017
했네	-2018
▁갑작	-2019
▁걸로	-2020
▁경험	-2021
▁고통	-2022
▁귀엽	-2023
▁길이	-2024
▁끝난	-2025
▁다니	-2026
▁당당	-2027
▁동물	-2028
▁때는	-2029
▁때론	-2030
▁라면	-2031
▁막말	-2032
▁말도	-2033
▁말투	-2034
▁말할	-2035
▁매력	-2036
▁무섭	-2037
▁바빠	-2038
▁발전	-2039
▁비교	-2040
▁사귈	-2041
▁선톡	-2042
▁수가	-2043
▁슬퍼	-2044
▁실망	-2045
▁않게	-2046
▁애매	-2047
▁야근	-2048
▁어장	-2049
▁역시	-2050
▁외로	-2051
▁우선	-2052
▁원망	-2053
▁정확	-2054
▁조급	-2055
▁즐기	-2056
▁짧은	-2057
▁차별	-2058
▁청소	-2059
▁취향	-2060
▁클럽	-2061
▁택시	-2062
▁학원	-2063
▁호감	-2064
▁화가	-2065
버렸어	-2066
었으면	-2067
으니까	-2068
이어트	-2069
일까요	-2070
한다면	-2071
해봐요	-2072
▁가세요	-2073
▁거겠죠	-2074
▁그녀는	-2075
▁그러면	-2076
▁기다릴	-2077
▁꾸준히	-2078
▁느낌이	-2079
▁달라고	-2080
▁당신도	-2081
▁됐으면	-2082
▁만난지	-2083
▁맛있는	-2084
▁무덤덤	-2085
▁무서운	-2086
▁문제가	-2087
▁미세먼	-2088
▁상처가	-2089
▁상처를	-2090
▁서로를	-2091
▁시작이	-2092
▁아침에	-2093
▁아프네	-2094
▁애한테	-2095
▁언제쯤	-2096
▁없어서	-2097
▁예의가	-2098
▁있겠죠	-2099
▁있겠지	-2100
▁잘해줘	-2101
▁친구로	-2102
▁편하게	-2103
▁필요할	-2104
▁한달이	-2105
▁할텐데	-2106
▁혼자가	-2107
신가봐요	-2108
▁괜찮아졌	-2109
▁다이어트	-2110
▁되겠네요	-2111
▁생겼는데	-2112
▁안됐는데	-2113
▁자책하지	-2114
▁좋아하던	-2115
▁좋아해도	-2116
▁힘들어서	-2117
▁놓아주세요	-2118
▁사랑한다면	-2119
▁여자애한테	-2120
▁있으니까요	-2121
▁전해보세요	-2122
▁헤어지자고	-2123
▁시작해보세요	-2124
▁깔	-2125
▁넌	-2126
▁뛰	-2127
▁센	-2128
▁염	-2129
▁잃	-2130
▁짓	-2131
▁헛	-2132
▁헬	-2133
가봐	-2134
간의	-2135
갈까	-2136
같이	-2137
겼어	-2138
남자	-2139
놓고	-2140
두고	-2141
러가	-2142
리면	-2143
말고	-2144
머리	-2145
배가	-2146
사를	-2147
상을	-2148
소한	-2149
시길	-2150
아야	-2151
아지	-2152
없어	-2153
울까	-2154
웠어	-2155
음을	-2156
전에	-2157
주가	-2158
주고	-2159
지로	-2160
통보	-2161
하루	-2162
▁가벼	-2163
▁갔다	-2164
▁개인	-2165
▁거의	-2166
▁걸릴	-2167
▁견뎌	-2168
▁결과	-2169
▁고쳐	-2170
▁공허	-2171
▁과거	-2172
▁교회	-2173
▁그랬	-2174
▁글을	-2175
▁나왔	-2176
▁나타	-2177
▁남을	-2178
▁놀고	-2179
▁늦게	-2180
▁다들	-2181
▁더워	-2182
▁두번	-2183
▁드네	-2184
▁떨리	-2185
▁마무	-2186
▁말까	-2187
▁몰라	-2188
▁미래	-2189
▁밖에	-2190
▁받았	-2191
▁상태	-2192
▁수록	-2193
▁스키	-2194
▁싶네	-2195
▁아예	-2196
▁어린	-2197
▁어플	-2198
▁올라	-2199
▁왜이	-2200
▁외국	-2201
▁이건	-2202
▁이게	-2203
▁이름	-2204
▁있네	-2205
▁잘해	-2206
▁전부	-2207
▁제발	-2208
▁중국	-2209
▁줘도	-2210
▁진급	-2211
▁최악	-2212
▁축구	-2213
▁텐데	-2214
▁통보	-2215
▁페북	-2216
▁편할	-2217
▁하네	-2218
▁희망	-2219
립니다	-2220
싶은데	-2221
어가네	-2222
으면서	-2223
▁가치관	-2224
▁결정을	-2225
▁귀여워	-2226
▁나왔어	-2227
▁남자는	-2228
▁내일은	-2229
▁드라마	-2230
▁떨어져	-2231
▁로맨틱	-2232
▁많은데	-2233
▁모르고	-2234
▁뭐하고	-2235
▁미안해	-2236
▁상황이	-2237
▁생각에	-2238
▁썸인데	-2239
▁아니야	-2240
▁여자를	-2241
▁연락은	-2242
▁있는게	-2243
▁적당히	-2244
▁정리할	-2245
▁좋겠지	-2246
▁지났네	-2247
▁진심을	-2248
▁진정한	-2249
▁집들이	-2250
▁한동안	-2251
▁고백해도	-2252
▁떨어졌어	-2253
▁만나는게	-2254
▁부모님이	-2255
▁상대방이	-2256
▁생각하고	-2257
▁썸남이랑	-2258
▁알면서도	-2259
▁이별통보	-2260
▁좋아하고	-2261
▁짝사랑이	-2262
▁하루하루	-2263
▁환승이별	-2264
▁힘들겠지	-2265
▁가져보세요	-2266
▁남자친구와	-2267
▁다행이에요	-2268
▁만나보세요	-2269
▁사람이네요	-2270
▁알아보세요	-2271
▁적극적으로	-2272
▁조심하세요	-2273
▁9	-2274
▁긍	-2275
▁김	-2276
▁꿀	-2277
▁놈	-2278
▁늘	-2279
▁딴	-2280
▁맥	-2281
▁뿌	-2282
▁싱	-2283
▁악	-2284
▁으	-2285
▁째	-2286
▁컴	-2287
▁틀	-2288
갔어	-2289
규직	-2290
냐에	-2291
달째	-2292
대폰	-2293
도가	-2294
듯이	-2295
리기	-2296
먹고	-2297
무원	-2298
시락	-2299
었길	-2300
었던	-2301
올까	-2302
하러	-2303
하셨	-2304
▁간절	-2305
▁것은	-2306
▁결심	-2307
▁계획	-2308
▁교양	-2309
▁긍정	-2310
▁기울	-2311
▁나은	-2312
▁남아	-2313
▁남의	-2314
▁내는	-2315
▁놀아	-2316
▁다되	-2317
▁다양	-2318
▁됐네	-2319
▁두고	-2320
▁둘이	-2321
▁따로	-2322
▁마실	-2323
▁많죠	-2324
▁맘에	-2325
▁맘이	-2326
▁맥주	-2327
▁머릿	-2328
▁밀당	-2329
▁바꾸	-2330
▁바꿀	-2331
▁반지	-2332
▁변덕	-2333
▁병원	-2334
▁분명	-2335
▁불행	-2336
▁생활	-2337
▁설렘	-2338
▁소문	-2339
▁소화	-2340
▁쉬는	-2341
▁시계	-2342
▁심심	-2343
▁쓰는	-2344
▁아빠	-2345
▁아쉬	-2346
▁없애	-2347
▁옆에	-2348
▁예쁘	-2349
▁오네	-2350
▁오랫	-2351
▁완벽	-2352
▁용돈	-2353
▁울적	-2354
▁은근	-2355
▁음악	-2356
▁이럴	-2357
▁이용	-2358
▁인기	-2359
▁있게	-2360
▁있길	-2361
▁있지	-2362
▁잘생	-2363
▁전공	-2364
▁주지	-2365
▁죽고	-2366
▁지난	-2367
▁집이	-2368
▁채워	-2369
▁청첩	-2370
▁초대	-2371
▁카드	-2372
▁크게	-2373
▁파혼	-2374
▁편안	-2375
▁편한	-2376
▁평생	-2377
▁하게	-2378
▁한다	-2379
▁헬스	-2380
거같아	-2381
더라도	-2382
에서도	-2383
오세요	-2384
을텐데	-2385
이라니	-2386
일지도	-2387
장에서	-2388
하니까	-2389
하자고	-2390
하지만	-2391
▁공무원	-2392
▁남자랑	-2393
▁노래방	-2394
▁도시락	-2395
▁됐는데	-2396
▁되기도	-2397
▁됩니다	-2398
▁들어와	-2399
▁따뜻한	-2400
▁똑같은	-2401
▁무엇이	-2402
▁믿음이	-2403
▁벗어나	-2404
▁보이고	-2405
▁사귀기	-2406
▁새벽에	-2407
▁생각은	-2408
▁서로의	-2409
▁선물이	-2410
▁시어머	-2411
▁실감이	-2412
▁아무도	-2413
▁아프다	-2414
▁안하는	-2415
▁안해도	-2416
▁않는데	-2417
▁여자랑	-2418
▁여행을	-2419
▁용기가	-2420
▁인생은	-2421
▁제자리	-2422
▁지나갔	-2423
▁지내고	-2424
▁친구의	-2425
▁표현해	-2426
▁피곤해	-2427
▁화장실	-2428
▁휴대폰	-2429
하겠네요	-2430
해야할까	-2431
▁다음에는	-2432
▁만나기로	-2433
▁만나세요	-2434
▁맞는걸까	-2435
▁보고싶다	-2436
▁부담스럽	-2437
▁사람으로	-2438
▁사랑으로	-2439
▁사랑하지	-2440
▁아니라면	-2441
▁여기까지	-2442
▁여자들은	-2443
▁여자한테	-2444
▁익숙해지	-2445
▁자존감이	-2446
▁점심시간	-2447
▁했나봐요	-2448
▁힘내세요	-2449
▁결정이었을	-2450
▁고백했는데	-2451
▁방법이에요	-2452
▁사람이에요	-2453
▁정리하는게	-2454
▁좋아해주는	-2455
▁친구들이랑	-2456
▁이해해주세요	-2457
▁이야기해보세요	-2458
ᅮᅮ	-2459
▁갚	-2460
▁겁	-2461
▁깎	-2462
▁끈	-2463
▁낮	-2464
▁놔	-2465
▁닮	-2466
▁백	-2467
▁벚	-2468
▁블	-2469
▁숙	-2470
▁씻	-2471
▁움	-2472
▁찔	-2473
▁찬	-2474
▁쳐	-2475
▁케	-2476
▁콩	-2477
▁털	-2478
▁푹	-2479
▁혹	-2480
가락	-2481
가면	-2482
까봐	-2483
나고	-2484
나면	-2485
나서	-2486
내는	-2487
냈어	-2488
년의	-2489
다발	-2490
데이	-2491
따라	-2492
라리	-2493
렌타	-2494
려구	-2495
려나	-2496
려도	-2497
방법	-2498
보내	-2499
보니	-2500
부로	-2501
빼로	-2502
사친	-2503
생숭	-2504
샤워	-2505
수도	-2506
시면	-2507
여자	-2508
오면	-2509
우면	-2510
유증	-2511
이길	-2512
이래	-2513
이요	-2514
인이	-2515
정도	-2516
지마	-2517
치는	-2518
하던	-2519
혼자	-2520
▁가도	-2521
▁가사	-2522
▁각자	-2523
▁감사	-2524
▁개강	-2525
▁거기	-2526
▁계절	-2527
▁고맙	-2528
▁공시	-2529
▁과일	-2530
▁그것	-2531
▁그는	-2532
▁깔끔	-2533
▁나면	-2534
▁남겨	-2535
▁너를	-2536
▁놓고	-2537
▁답장	-2538
▁대출	-2539
▁되죠	-2540
▁떠오	-2541
▁만드	-2542
▁만든	-2543
▁만족	-2544
▁매달	-2545
▁먹었	-2546
▁메뉴	-2547
▁면도	-2548
▁명절	-2549
▁목소	-2550
▁못잊	-2551
▁물리	-2552
▁반대	-2553
▁버텨	-2554
▁벚꽃	-2555
▁변명	-2556
▁보니	-2557
▁보일	-2558
▁분이	-2559
▁사회	-2560
▁살짝	-2561
▁셀프	-2562
▁소식	-2563
▁소원	-2564
▁속에	-2565
▁술마	-2566
▁싱숭	-2567
▁썸은	-2568
▁썸을	-2569
▁알면	-2570
▁애들	-2571
▁어찌	-2572
▁오면	-2573
▁왔네	-2574
▁외모	-2575
▁유부	-2576
▁이뤄	-2577
▁이불	-2578
▁인간	-2579
▁자리	-2580
▁잘되	-2581
▁전환	-2582
▁중독	-2583
▁판단	-2584
▁하다	-2585
▁해보	-2586
▁현금	-2587
▁혹시	-2588
▁회식	-2589
가세요	-2590
왔는데	-2591
을거라	-2592
졌으면	-2593
줬는데	-2594
하기도	-2595
하는지	-2596
할게요	-2597
▁가끔은	-2598
▁가는데	-2599
▁감정에	-2600
▁고마워	-2601
▁고민임	-2602
▁관계를	-2603
▁꽃다발	-2604
▁끝까지	-2605
▁나보다	-2606
▁남자들	-2607
▁내려놓	-2608
▁너에게	-2609
▁달라지	-2610
▁답답해	-2611
▁도와줘	-2612
▁마무리	-2613
▁말하지	-2614
▁모습이	-2615
▁물어보	-2616
▁물어봐	-2617
▁바쁘게	-2618
▁발렌타	-2619
▁배고파	-2620
▁보내고	-2621
▁보내는	-2622
▁보이지	-2623
▁본인의	-2624
▁빼빼로	-2625
▁사소한	-2626
▁사이가	-2627
▁사진을	-2628
▁상황을	-2629
▁생각하	-2630
▁생겼네	-2631
▁선물을	-2632
▁솔직한	-2633
▁아까워	-2634
▁아니면	-2635
▁아무렇	-2636
▁않으면	-2637
▁억지로	-2638
▁언젠가	-2639
▁없다고	-2640
▁연락처	-2641
▁연애가	-2642
▁왔으면	-2643
▁위로가	-2644
▁이별도	-2645
▁이별에	-2646
▁이유를	-2647
▁이제야	-2648
▁이해가	-2649
▁인기가	-2650
▁있지요	-2651
▁재미있	-2652
▁저한테	-2653
▁전화를	-2654
▁주말에	-2655
▁주말이	-2656
▁차라리	-2657
▁차분히	-2658
▁찾아가	-2659
▁표현을	-2660
▁표현이	-2661
▁필요는	-2662
▁하면서	-2663
▁헤어질	-2664
▁호감이	-2665
▁확실히	-2666
시겠어요	-2667
▁거기까지	-2668
▁걱정하지	-2669
▁결혼하면	-2670
▁고백하는	-2671
▁그녀에게	-2672
▁기다리는	-2673
▁남사친이	-2674
▁누군가를	-2675
▁마음대로	-2676
▁말하세요	-2677
▁버리세요	-2678
▁생각하면	-2679
▁싱숭생숭	-2680
▁싶습니다	-2681
▁아름다운	-2682
▁아프네요	-2683
▁알다가도	-2684
▁오랫동안	-2685
▁이성으로	-2686
▁이야기를	-2687
▁있을까요	-2688
▁있을지도	-2689
▁좋겠지만	-2690
▁직장에서	-2691
▁축하해요	-2692
▁필요하죠	-2693
▁해야할까	-2694
▁행복하게	-2695
▁헤어지면	-2696
▁헷갈리게	-2697
▁회사에서	-2698
▁흔들리지	-2699
▁남자친구랑	-2700
▁되었습니다	-2701
▁마지막으로	-2702
▁기다려보세요	-2703
▁노력해보세요	-2704
▁만들어보세요	-2705
▁여자친구에게	-2706
▁필요하겠네요	-2707
▁힘들었겠어요	-2708
▁낭	-2709
▁널	-2710
▁년	-2711
▁땡	-2712
▁뽑	-2713
▁쓴	-2714
▁옴	-2715
▁왕	-2716
▁왤	-2717
▁짱	-2718
▁푸	-2719
▁핑	-2720
▁합	-2721
겹살	-2722
까운	-2723
난다	-2724
났어	-2725
도록	-2726
되지	-2727
디션	-2728
린다	-2729
받아	-2730
번호	-2731
부를	-2732
분들	-2733
시고	-2734
점을	-2735
지게	-2736
지를	-2737
쳤어	-2738
터리	-2739
테리	-2740
하대	-2741
한가	-2742
해진	-2743
▁가요	-2744
▁감성	-2745
▁같지	-2746
▁거울	-2747
▁겨울	-2748
▁공통	-2749
▁그대	-2750
▁그립	-2751
▁기술	-2752
▁기준	-2753
▁긴장	-2754
▁깊은	-2755
▁나올	-2756
▁남기	-2757
▁남은	-2758
▁낫죠	-2759
▁너도	-2760
▁늦은	-2761
▁다정	-2762
▁단계	-2763
▁단단	-2764
▁달달	-2765
▁답이	-2766
▁당장	-2767
▁대단	-2768
▁돈을	-2769
▁동안	-2770
▁마다	-2771
▁많을	-2772
▁말은	-2773
▁맛집	-2774
▁멀리	-2775
▁멀어	-2776
▁멈추	-2777
▁멋있	-2778
▁모른	-2779
▁몰래	-2780
▁무거	-2781
▁무리	-2782
▁무색	-2783
▁뭐라	-2784
▁바뀔	-2785
▁받은	-2786
▁받지	-2787
▁별거	-2788
▁보기	-2789
▁보낼	-2790
▁보다	-2791
▁봄이	-2792
▁봐도	-2793
▁봤어	-2794
▁부자	-2795
▁비정	-2796
▁비참	-2797
▁빠르	-2798
▁사겨	-2799
▁사업	-2800
▁생겨	-2801
▁샤워	-2802
▁성장	-2803
▁솔로	-2804
▁신뢰	-2805
▁신청	-2806
▁심리	-2807
▁싸워	-2808
▁쓰고	-2809
▁쓸데	-2810
▁아플	-2811
▁악몽	-2812
▁애교	-2813
▁야경	-2814
▁어서	-2815
▁어이	-2816
▁없지	-2817
▁여름	-2818
▁연속	-2819
▁왤케	-2820
▁외롭	-2821
▁움직	-2822
▁유지	-2823
▁의사	-2824
▁의심	-2825
▁이미	-2826
▁인턴	-2827
▁일만	-2828
▁입어	-2829
▁장소	-2830
▁정상	-2831
▁좋으	-2832
▁중간	-2833
▁지갑	-2834
▁지는	-2835
▁진실	-2836
▁참견	-2837
▁체육	-2838
▁쳐다	-2839
▁치과	-2840
▁콩깍	-2841
▁통화	-2842
▁투자	-2843
▁평소	-2844
▁풀어	-2845
▁하던	-2846
▁한거	-2847
▁한숨	-2848
▁해봤	-2849
▁해외	-2850
▁향수	-2851
▁허무	-2852
▁화를	-2853
▁휴가	-2854
▁흐르	-2855
가는데	-2856
개월이	-2857
개월째	-2858
다는건	-2859
된다고	-2860
두세요	-2861
드려요	-2862
만으로	-2863
버렸네	-2864
야할까	-2865
였는데	-2866
을지도	-2867
친이랑	-2868
하나봐	-2869
하다가	-2870
해야할	-2871
해주고	-2872
해지면	-2873
▁강아지	-2874
▁같아서	-2875
▁고백을	-2876
▁고백할	-2877
▁과정이	-2878
▁관계가	-2879
▁그래서	-2880
▁그리운	-2881
▁그만큼	-2882
▁기억이	-2883
▁끝났어	-2884
▁나아졌	-2885
▁나에게	-2886
▁나을까	-2887
▁나혼자	-2888
▁달라진	-2889
▁답답한	-2890
▁당했어	-2891
▁두달이	-2892
▁드라이	-2893
▁들어가	-2894
▁들었어	-2895
▁때네요	-2896
▁마스크	-2897
▁마시고	-2898
▁만나도	-2899
▁맛있게	-2900
▁머릿속	-2901
▁모든걸	-2902
▁모습을	-2903
▁뭐할까	-2904
▁부분이	-2905
▁사랑도	-2906
▁사랑했	-2907
▁사야지	-2908
▁삼겹살	-2909
▁상대를	-2910
▁생기면	-2911
▁선물은	-2912
▁선택을	-2913
▁선택일	-2914
▁시간도	-2915
▁시기가	-2916
▁아이돌	-2917
▁안되네	-2918
▁안타깝	-2919
▁않아서	-2920
▁않을까	-2921
▁앞머리	-2922
▁어떨까	-2923
▁없을까	-2924
▁여유를	-2925
▁여전히	-2926
▁연애로	-2927
▁예뻐요	-2928
▁외로운	-2929
▁우연히	-2930
▁운동을	-2931
▁운명이	-2932
▁이겨낼	-2933
▁이루어	-2934
▁일하는	-2935
▁있다고	-2936
▁있다는	-2937
▁있으니	-2938
▁자격이	-2939
▁자신만	-2940
▁정리를	-2941
▁정신차	-2942
▁좋지만	-2943
▁집에서	-2944
▁차가워	-2945
▁찾아올	-2946
▁청첩장	-2947
▁최선의	-2948
▁행복할	-2949
▁흐르고	-2950
이었으면	-2951
해야겠지	-2952
했겠어요	-2953
▁가능성이	-2954
▁결혼해도	-2955
▁고백하면	-2956
▁까먹었다	-2957
▁놀러가고	-2958
▁느낌이야	-2959
▁당당하게	-2960
▁마셔야지	-2961
▁마음으로	-2962
▁만들어요	-2963
▁말해볼까	-2964
▁미세먼지	-2965
▁부러워요	-2966
▁사람들은	-2967
▁상대에게	-2968
▁생겼으면	-2969
▁세상에서	-2970
▁솔직하게	-2971
▁싫어하는	-2972
▁않나봐요	-2973
▁어디까지	-2974
▁없겠네요	-2975
▁여사친이	-2976
▁오늘따라	-2977
▁왔습니다	-2978
▁용기내서	-2979
▁이별에는	-2980
▁잊으세요	-2981
▁잠수이별	-2982
▁좋아하나	-2983
▁좋아했던	-2984
▁좋았는데	-2985
▁중요하죠	-2986
▁짝녀에게	-2987
▁짝사랑은	-2988
▁하나봐요	-2989
▁하셨네요	-2990
▁해야겠다	-2991
▁해야할지	-2992
▁헤어졌네	-2993
▁헤어지자	-2994
▁힘듭니다	-2995
인가봅니다	-2996
▁걸어보세요	-2997
▁나눠보세요	-2998
▁물어보는게	-2999
▁생각했는데	-3000
▁시어머니가	-3001
▁알려주세요	-3002
▁있나봅니다	-3003
▁있을거예요	-3004
▁조금이라도	-3005
▁좋아하는거	-3006
▁다가가보세요	-3007
▁말씀해보세요	-3008
▁표현해보세요	-3009
▁격	-3010
▁곁	-3011
▁급	-3012
▁깜	-3013
▁늙	-3014
▁디	-3015
▁땀	-3016
▁띄	-3017
▁며	-3018
▁봉	-3019
▁브	-3020
▁빈	-3021
▁쌩	-3022
▁쐬	-3023
▁씁	-3024
▁얻	-3025
▁젖	-3026
▁컨	-3027
▁탄	-3028
▁탔	-3029
▁폭	-3030
▁효	-3031
▁휘	-3032
각이	-3033
간다	-3034
같지	-3035
거를	-3036
거죠	-3037
고생	-3038
공평	-3039
기간	-3040
기력	-3041
나나	-3042
난거	-3043
너무	-3044
년간	-3045
년을	-3046
는건	-3047
대한	-3048
데요	-3049
드름	-3050
라우	-3051
려서	-3052
력을	-3053
렸을	-3054
리게	-3055
리네	-3056
리러	-3057
만은	-3058
모습	-3059
부여	-3060
분이	-3061
숙사	-3062
순간	-3063
스피	-3064
시원	-3065
시키	-3066
았던	-3067
이스	-3068
인다	-3069
일이	-3070
일차	-3071
장면	-3072
장에	-3073
제가	-3074
제를	-3075
종일	-3076
주도	-3077
주려	-3078
주면	-3079
침표	-3080
콤한	-3081
포즈	-3082
하긴	-3083
하철	-3084
함을	-3085
호회	-3086
활동	-3087
▁15	-3088
▁거니	-3089
▁건조	-3090
▁걸어	-3091
▁겨우	-3092
▁골라	-3093
▁과식	-3094
▁구멍	-3095
▁그를	-3096
▁그저	-3097
▁기간	-3098
▁길어	-3099
▁깨끗	-3100
▁끝에	-3101
▁나네	-3102
▁나쁘	-3103
▁남지	-3104
▁내리	-3105
▁냉정	-3106
▁너는	-3107
▁노는	-3108
▁노후	-3109
▁니가	-3110
▁다닐	-3111
▁다리	-3112
▁단둘	-3113
▁대리	-3114
▁덤덤	-3115
▁데는	-3116
▁동성	-3117
▁되돌	-3118
▁들이	-3119
▁때로	-3120
▁때를	-3121
▁똑똑	-3122
▁뛰어	-3123
▁라고	-3124
▁마셨	-3125
▁막혀	-3126
▁맞추	-3127
▁매주	-3128
▁멍청	-3129
▁문신	-3130
▁바다	-3131
▁받으	-3132
▁버릴	-3133
▁버티	-3134
▁보게	-3135
▁봉사	-3136
▁부딪	-3137
▁부럽	-3138
▁비싼	-3139
▁빠를	-3140
▁사내	-3141
▁산책	-3142
▁살기	-3143
▁살지	-3144
▁상상	-3145
▁새로	-3146
▁새해	-3147
▁성숙	-3148
▁성향	-3149
▁셀카	-3150
▁수는	-3151
▁순수	-3152
▁술을	-3153
▁시기	-3154
▁심경	-3155
▁썸의	-3156
▁아쉽	-3157
▁언니	-3158
▁업무	-3159
▁에휴	-3160
▁염색	-3161
▁유학	-3162
▁유효	-3163
▁은퇴	-3164
▁의욕	-3165
▁이직	-3166
▁일년	-3167
▁입고	-3168
▁입지	-3169
▁있다	-3170
▁자괴	-3171
▁자세	-3172
▁잘지	-3173
▁잡아	-3174
▁잤어	-3175
▁적금	-3176
▁전혀	-3177
▁정류	-3178
▁정의	-3179
▁제게	-3180
▁조건	-3181
▁종일	-3182
▁줄까	-3183
▁중인	-3184
▁지치	-3185
▁지칠	-3186
▁착한	-3187
▁참고	-3188
▁참지	-3189
▁천재	-3190
▁철벽	-3191
▁최근	-3192
▁충격	-3193
▁키가	-3194
▁태도	-3195
▁통해	-3196
▁패턴	-3197
▁핑계	-3198
▁학생	-3199
▁회복	-3200
▁후에	-3201
▁흔적	-3202
갑니다	-3203
거겠죠	-3204
겼는데	-3205
더라구	-3206
라우마	-3207
야하나	-3208
없어요	-3209
었나봐	-3210
인데이	-3211
인인데	-3212
잖아요	-3213
적이야	-3214
줄게요	-3215
지네요	-3216
하거나	-3217
하는거	-3218
했더니	-3219
했지만	-3220
▁감정의	-3221
▁걱정되	-3222
▁결혼은	-3223
▁곳에서	-3224
▁공부는	-3225
▁괴로워	-3226
▁그녀와	-3227
▁그럴까	-3228
▁극복할	-3229
▁기숙사	-3230
▁기억을	-3231
▁기회가	-3232
▁끝나고	-3233
▁끝났네	-3234
▁나이는	-3235
▁누구든	-3236
▁눈치가	-3237
▁느껴져	-3238
▁느끼는	-3239
▁답장이	-3240
▁동호회	-3241
▁되는지	-3242
▁뒤에서	-3243
▁떠나고	-3244
▁마침표	-3245
▁만들고	-3246
▁많아서	-3247
▁말라고	-3248
▁말투가	-3249
▁말해도	-3250
▁맘고생	-3251
▁맞는지	-3252
▁맞을까	-3253
▁모든게	-3254
▁모르게	-3255
▁못해요	-3256
▁무기력	-3257
▁미련은	-3258
▁변하는	-3259
▁변화를	-3260
▁보는게	-3261
▁불편해	-3262
▁사랑과	-3263
▁사이에	-3264
▁사정이	-3265
▁살아야	-3266
▁생각날	-3267
▁생각한	-3268
▁선물로	-3269
▁세상에	-3270
▁소리가	-3271
▁순간이	-3272
▁쉬세요	-3273
▁시작해	-3274
▁신경이	-3275
▁실수를	-3276
▁썸인가	-3277
▁아닐까	-3278
▁아빠가	-3279
▁아프지	-3280
▁아픔을	-3281
▁앞두고	-3282
▁어때요	-3283
▁어렵네	-3284
▁언제든	-3285
▁없어도	-3286
▁여드름	-3287
▁여자는	-3288
▁여자와	-3289
▁여행가	-3290
▁연습을	-3291
▁영화관	-3292
▁영화보	-3293
▁오늘이	-3294
▁우리는	-3295
▁우세요	-3296
▁우울해	-3297
▁위로해	-3298
▁이러지	-3299
▁이어나	-3300
▁인스타	-3301
▁일어났	-3302
▁있어서	-3303
▁잊혀질	-3304
▁자격증	-3305
▁자신감	-3306
▁자체가	-3307
▁잘못된	-3308
▁정도는	-3309
▁정말로	-3310
▁제주도	-3311
▁종교가	-3312
▁좋으면	-3313
▁주변에	-3314
▁지하철	-3315
▁하루도	-3316
▁하자고	-3317
▁해주는	-3318
▁행복을	-3319
▁현실을	-3320
▁혼자서	-3321
▁힘내지	-3322
개월만에	-3323
셨나봐요	-3324
어주세요	-3325
하고싶어	-3326
▁궁금해요	-3327
▁긍정적인	-3328
▁남자한테	-3329
▁달라지는	-3330
▁답답하네	-3331
▁듯합니다	-3332
▁로맨틱한	-3333
▁모르는게	-3334
▁무시하는	-3335
▁미친듯이	-3336
▁사람인데	-3337
▁사랑에는	-3338
▁상대방을	-3339
▁생각할까	-3340
▁아니라고	-3341
▁안되겠지	-3342
▁안되는데	-3343
▁언제까지	-3344
▁없나봐요	-3345
▁여자들이	-3346
▁연애하고	-3347
▁의미부여	-3348
▁이별하고	-3349
▁있었으면	-3350
▁전화하는	-3351
▁정리하는	-3352
▁좋아하지	-3353
▁준비하는	-3354
▁지금처럼	-3355
▁추천해요	-3356
▁친구들과	-3357
▁트라우마	-3358
▁표현하는	-3359
▁하루에도	-3360
▁헤어지지	-3361
▁헤어짐을	-3362
▁혼자만의	-3363
▁힘들지요	-3364
▁궁금하네요	-3365
▁들어보세요	-3366
▁마련이에요	-3367
▁받아들이기	-3368
▁부담스럽지	-3369
▁스스로에게	-3370
▁아무렇지도	-3371
▁자연스러운	-3372
▁지금이라도	-3373
▁고백해보세요	-3374
▁들어드릴게요	-3375
▁발렌타인데이	-3376
▁여자친구한테	-3377
▁잊어버리세요	-3378
▁필요하겠어요	-3379
▁힘든가봅니다	-3380
00	-3381
▁끌	-3382
▁끓	-3383
▁낚	-3384
▁낼	-3385
▁넣	-3386
▁녹	-3387
▁니	-3388
▁땐	-3389
▁레	-3390
▁롱	-3391
▁를	-3392
▁묻	-3393
▁섬	-3394
▁앉	-3395
▁액	-3396
▁엉	-3397
▁옳	-3398
▁웬	-3399
▁육	-3400
▁잇	-3401
▁쟁	-3402
▁칼	-3403
▁황	-3404
▁흑	-3405
거같	-3406
거지	-3407
건데	-3408
걸로	-3409
겨워	-3410
고가	-3411
관계	-3412
기업	-3413
길이	-3414
나게	-3415
나네	-3416
대체	-3417
대회	-3418
되면	-3419
들지	-3420
라서	-3421
라이	-3422
란게	-3423
래요	-3424
만나	-3425
만한	-3426
면증	-3427
바이	-3428
벤트	-3429
복이	-3430
비가	-3431
상담	-3432
선물	-3433
선을	-3434
셔요	-3435
소음	-3436
순위	-3437
스는	-3438
였던	-3439
였을	-3440
우스	-3441
이크	-3442
자를	-3443
잖아	-3444
저리	-3445
전환	-3446
절한	-3447
정을	-3448
젯밤	-3449
졌네	-3450
지기	-3451
지길	-3452
치가	-3453
치기	-3454
치지	-3455
콜릿	-3456
크닉	-3457
터디	-3458
트북	-3459
트콘	-3460
하자	-3461
한잔	-3462
화가	-3463
히려	-3464
▁30	-3465
▁ᄒᄒ	-3466
▁가늠	-3467
▁가득	-3468
▁가만	-3469
▁간사	-3470
▁감당	-3471
▁강렬	-3472
▁거면	-3473
▁경쟁	-3474
▁고고	-3475
▁곳에	-3476
▁공감	-3477
▁공개	-3478
▁글로	-3479
▁기프	-3480
▁길러	-3481
▁끝인	-3482
▁나누	-3483
▁나빠	-3484
▁나지	-3485
▁냉장	-3486
▁넘어	-3487
▁누굴	-3488
▁늦어	-3489
▁단순	-3490
▁단호	-3491
▁달려	-3492
▁대체	-3493
▁덜할	-3494
▁든든	-3495
▁들고	-3496
▁들을	-3497
▁딸기	-3498
▁때려	-3499
▁떠났	-3500
▁로또	-3501
▁막차	-3502
▁많네	-3503
▁많다	-3504
▁말한	-3505
▁맞았	-3506
▁맞춤	-3507
▁매너	-3508
▁매번	-3509
▁먹지	-3510
▁메모	-3511
▁며칠	-3512
▁몇일	-3513
▁모자	-3514
▁목표	-3515
▁뭐하	-3516
▁반응	-3517
▁발목	-3518
▁밤에	-3519
▁변해	-3520
▁보름	-3521
▁보험	-3522
▁봐서	-3523
▁분노	-3524
▁비난	-3525
▁빠져	-3526
▁빼고	-3527
▁사수	-3528
▁살이	-3529
▁삶을	-3530
▁상의	-3531
▁생리	-3532
▁서류	-3533
▁서툴	-3534
▁성적	-3535
▁성형	-3536
▁센스	-3537
▁소주	-3538
▁속은	-3539
▁수다	-3540
▁수면	-3541
▁수염	-3542
▁수영	-3543
▁수학	-3544
▁술만	-3545
▁술이	-3546
▁쉽진	-3547
▁스테	-3548
▁스팸	-3549
▁시키	-3550
▁신고	-3551
▁신기	-3552
▁신중	-3553
▁싸움	-3554
▁쌩얼	-3555
▁썸만	-3556
▁썸일	-3557
▁썼어	-3558
▁아껴	-3559
▁아님	-3560
▁아련	-3561
▁아물	-3562
▁아주	-3563
▁안가	-3564
▁알기	-3565
▁애를	-3566
▁애정	-3567
▁약이	-3568
▁여우	-3569
▁연휴	-3570
▁예전	-3571
▁오지	-3572
▁오토	-3573
▁온다	-3574
▁올까	-3575
▁와서	-3576
▁왕따	-3577
▁우린	-3578
▁웃을	-3579
▁웬수	-3580
▁은연	-3581
▁의견	-3582
▁의외	-3583
▁이것	-3584
▁일에	-3585
▁잃어	-3586
▁입을	-3587
▁입이	-3588
▁있기	-3589
▁자취	-3590
▁잡는	-3591
▁조카	-3592
▁주름	-3593
▁증오	-3594
▁지냈	-3595
▁지진	-3596
▁진지	-3597
▁찌질	-3598
▁참아	-3599
▁창업	-3600
▁추석	-3601
▁축복	-3602
▁치고	-3603
▁치유	-3604
▁침대	-3605
▁코스	-3606
▁타던	-3607
▁탈퇴	-3608
▁택배	-3609
▁특별	-3610
▁평가	-3611
▁표시	-3612
▁필름	-3613
▁하든	-3614
▁한강	-3615
▁행운	-3616
▁헛헛	-3617
▁현재	-3618
▁혼란	-3619
▁혼술	-3620
▁확신	-3621
것같아	-3622
년만에	-3623
년이란	-3624
되는데	-3625
드세요	-3626
들에게	-3627
봐야지	-3628
스피싱	-3629
시간이	-3630
시네요	-3631
었네요	-3632
에게나	-3633
였으면	-3634
유증이	-3635
으려면	-3636
이라고	-3637
이예요	-3638
인건가	-3639
점에서	-3640
졌는데	-3641
하느라	-3642
하더니	-3643
할거야	-3644
할까봐	-3645
해야죠	-3646
해주면	-3647
해하지	-3648
했나봐	-3649
▁가능해	-3650
▁가벼운	-3651
▁가사가	-3652
▁갔는데	-3653
▁같다고	-3654
▁거리를	-3655
▁걱정이	-3656
▁걸까요	-3657
▁결혼할	-3658
▁경우도	-3659
▁고맙다	-3660
▁권태기	-3661
▁그러는	-3662
▁그럴만	-3663
▁그럼요	-3664
▁그분이	-3665
▁기간이	-3666
▁기다렸	-3667
▁길에서	-3668
▁나가기	-3669
▁나만의	-3670
▁나아질	-3671
▁낫겠지	-3672
▁내세요	-3673
▁넘었네	-3674
▁노트북	-3675
▁놀아요	-3676
▁단단히	-3677
▁달콤한	-3678
▁대화가	-3679
▁더러워	-3680
▁도대체	-3681
▁돌아가	-3682
▁되겠지	-3683
▁두번째	-3684
▁듣는데	-3685
▁떠보는	-3686
▁마시면	-3687
▁만남과	-3688
▁말하고	-3689
▁말해줘	-3690
▁망했어	-3691
▁먹었어	-3692
▁모른척	-3693
▁무거워	-3694
▁무엇을	-3695
▁문제로	-3696
▁뭐라도	-3697
▁받으면	-3698
▁배우는	-3699
▁버려야	-3700
▁번호를	-3701
▁별로야	-3702
▁복잡한	-3703
▁불공평	-3704
▁불면증	-3705
▁사귀면	-3706
▁사는게	-3707
▁사람만	-3708
▁살면서	-3709
▁살아요	-3710
▁상대가	-3711
▁선배가	-3712
▁성공할	-3713
▁세상은	-3714
▁소심해	-3715
▁속상해	-3716
▁속에서	-3717
▁술먹고	-3718
▁스터디	-3719
▁습관을	-3720
▁시간에	-3721
▁시간표	-3722
▁시원한	-3723
▁신경을	-3724
▁싶다고	-3725
▁싸우면	-3726
▁썸에서	-3727
▁아니고	-3728
▁아니죠	-3729
▁아직은	-3730
▁아침이	-3731
▁아프고	-3732
▁안돼요	-3733
▁않지만	-3734
▁알았어	-3735
▁약속을	-3736
▁얘기를	-3737
▁어디로	-3738
▁어젯밤	-3739
▁없겠지	-3740
▁여유가	-3741
▁연애에	-3742
▁영원한	-3743
▁오히려	-3744
▁완벽한	-3745
▁울어도	-3746
▁월요일	-3747
▁음식을	-3748
▁이벤트	-3749
▁이유는	-3750
▁이해할	-3751
▁이해해	-3752
▁인생을	-3753
▁인생이	-3754
▁일들이	-3755
▁자존감	-3756
▁재미가	-3757
▁재회를	-3758
▁접어두	-3759
▁정규직	-3760
▁정리되	-3761
▁준비중	-3762
▁중국어	-3763
▁지겨워	-3764
▁진심이	-3765
▁집중이	-3766
▁집착해	-3767
▁차이가	-3768
▁찾아오	-3769
▁처음에	-3770
▁초콜릿	-3771
▁최고죠	-3772
▁최근에	-3773
▁친구도	-3774
▁키우고	-3775
▁타다가	-3776
▁태어났	-3777
▁퇴근길	-3778
▁피부가	-3779
▁피크닉	-3780
▁하네요	-3781
▁하지만	-3782
▁해주고	-3783
▁행동이	-3784
▁혼자만	-3785
▁화이트	-3786
▁회사에	-3787
▁힘든데	-3788
▁힘들고	-3789
상이에요	-3790
셔보세요	-3791
시겠네요	-3792
았습니다	-3793
었습니다	-3794
왔습니다	-3795
▁가능할까	-3796
▁가능해요	-3797
▁가지세요	-3798
▁고민하고	-3799
▁고백하고	-3800
▁공부하기	-3801
▁관심사를	-3802
▁그렇다면	-3803
▁그만하고	-3804
▁기대세요	-3805
▁기분전환	-3806
▁기프트콘	-3807
▁끝났으면	-3808
▁나가세요	-3809
▁내보세요	-3810
▁다가가는	-3811
▁다르겠죠	-3812
▁당신에게	-3813
▁데이트를	-3814
▁돌아가고	-3815
▁드릴게요	-3816
▁따뜻하게	-3817
▁마련이죠	-3818
▁말이에요	-3819
▁먹었는데	-3820
▁물어봐요	-3821
▁바쁘거나	-3822
▁별로라고	-3823
▁봉사활동	-3824
▁비교하지	-3825
▁사귀어도	-3826
▁사랑하기	-3827
▁사이에서	-3828
▁사이인데	-3829
▁상처받지	-3830
▁생각나고	-3831
▁선생님이	-3832
▁실수하지	-3833
▁써보세요	-3834
▁아니지만	-3835
▁않겠지만	-3836
▁어려워요	-3837
▁어울리는	-3838
▁엄마한테	-3839
▁오토바이	-3840
▁이기적인	-3841
▁이제라도	-3842
▁있겠네요	-3843
▁자신감을	-3844
▁잘했어요	-3845
▁전남친이	-3846
▁좋습니다	-3847
▁좋아해요	-3848
▁좋을까요	-3849
▁진정으로	-3850
▁집착하는	-3851
▁차분하게	-3852
▁첫사랑이	-3853
▁체육대회	-3854
▁추천해줘	-3855
▁취미생활	-3856
▁친구라고	-3857
▁카페에서	-3858
▁타이밍이	-3859
▁포기하는	-3860
▁프로포즈	-3861
▁필요했을	-3862
▁하다보면	-3863
▁하루종일	-3864
▁학교에서	-3865
▁한동안은	-3866
▁행복할까	-3867
▁행복해지	-3868
▁헤아리지	-3869
▁후유증이	-3870
하지마세요	-3871
▁가능합니다	-3872
▁고생했어요	-3873
▁다르겠지요	-3874
▁말해주세요	-3875
▁무시하세요	-3876
▁믿어보세요	-3877
▁보내주세요	-3878
▁보이스피싱	-3879
▁부담스러운	-3880
▁사람들에게	-3881
▁사랑한다는	-3882
▁생각해봐요	-3883
▁습관이에요	-3884
▁아니니까요	-3885
▁않았나봐요	-3886
▁억지로라도	-3887
▁응원합니다	-3888
▁있더라고요	-3889
▁정류장에서	-3890
▁좋아한다고	-3891
▁좋아했는데	-3892
▁헤어지는게	-3893
▁화이트데이	-3894
▁힘들거예요	-3895
▁힘들겠네요	-3896
▁남자친구한테	-3897
▁사람인가봐요	-3898
▁이별했습니다	-3899
▁결정이었을텐데	-3900
ᄏᄏ	-3901
▁검	-3902
▁곱	-3903
▁광	-3904
▁긁	-3905
▁꼼	-3906
▁꽤	-3907
▁꾹	-3908
▁낙	-3909
▁넓	-3910
▁덕	-3911
▁땅	-3912
▁떡	-3913
▁랜	-3914
▁밖	-3915
▁빵	-3916
▁삐	-3917
▁색	-3918
▁승	-3919
▁씨	-3920
▁왠	-3921
▁임	-3922
▁쪼	-3923
▁쫌	-3924
▁찜	-3925
▁찼	-3926
▁층	-3927
▁쿨	-3928
▁헌	-3929
▁훈	-3930
갔네	-3931
겁게	-3932
게임	-3933
겠음	-3934
고있	-3935
근한	-3936
끄러	-3937
끼리	-3938
나가	-3939
난히	-3940
노래	-3941
다른	-3942
다리	-3943
담을	-3944
담화	-3945
답을	-3946
답이	-3947
도는	-3948
돌아	-3949
드가	-3950
럽게	-3951
레스	-3952
롭게	-3953
르네	-3954
무게	-3955
문이	-3956
버려	-3957
봤어	-3958
분간	-3959
사에	-3960
서야	-3961
세포	-3962
수있	-3963
수증	-3964
숭숭	-3965
시지	-3966
식에	-3967
심을	-3968
쏟아	-3969
양이	-3970
역사	-3971
였나	-3972
와서	-3973
와요	-3974
왔네	-3975
우는	-3976
워질	-3977
웠을	-3978
으려	-3979
은거	-3980
의금	-3981
이니	-3982
이팅	-3983
인상	-3984
인줄	-3985
있나	-3986
자가	-3987
작정	-3988
적령	-3989
조차	-3990
주째	-3991
줘야	-3992
진다	-3993
질방	-3994
참고	-3995
청소	-3996
출발	-3997
카락	-3998
터가	-3999
토닥	-4000
통수	-4001
트업	-4002
학기	-4003
행기	-4004
형이	-4005
호흡	-4006
히네	-4007
힌다	-4008
▁가라	-4009
▁가스	-4010
▁간단	-4011
▁감고	-4012
▁감히	-4013
▁갔어	-4014
▁갖지	-4015
▁거랑	-4016
▁걸려	-4017
▁걸리	-4018
▁걸린	-4019
▁검색	-4020
▁것들	-4021
▁곁에	-4022
▁고칠	-4023
▁관련	-4024
▁괜한	-4025
▁구속	-4026
▁귀가	-4027
▁귀를	-4028
▁그가	-4029
▁근처	-4030
▁기도	-4031
▁기원	-4032
▁길게	-4033
▁김치	-4034
▁꿈같	-4035
▁끄는	-4036
▁끝일	-4037
▁나날	-4038
▁나약	-4039
▁낚시	-4040
▁난방	-4041
▁남길	-4042
▁남는	-4043
▁내게	-4044
▁놀랐	-4045
▁눈썹	-4046
▁느낀	-4047
▁늦잠	-4048
▁다툼	-4049
▁단톡	-4050
▁담긴	-4051
▁대우	-4052
▁더욱	-4053
▁도망	-4054
▁되기	-4055
▁들까	-4056
▁랜선	-4057
▁리폼	-4058
▁만에	-4059
▁많지	-4060
▁말로	-4061
▁말아	-4062
▁맘을	-4063
▁맛이	-4064
▁맞나	-4065
▁맞지	-4066
▁먹으	-4067
▁먼지	-4068
▁면허	-4069
▁명품	-4070
▁모쏠	-4071
▁모으	-4072
▁모임	-4073
▁목이	-4074
▁못했	-4075
▁무릎	-4076
▁무의	-4077
▁무한	-4078
▁물건	-4079
▁뭐임	-4080
▁미용	-4081
▁미칠	-4082
▁바지	-4083
▁버리	-4084
▁번씩	-4085
▁보단	-4086
▁복전	-4087
▁부디	-4088
▁부부	-4089
▁불금	-4090
▁불타	-4091
▁빌려	-4092
▁사냐	-4093
▁사면	-4094
▁사용	-4095
▁살면	-4096
▁살찐	-4097
▁상메	-4098
▁선이	-4099
▁설렜	-4100
▁섬유	-4101
▁성별	-4102
▁세워	-4103
▁세월	-4104
▁손톱	-4105
▁수상	-4106
▁숨막	-4107
▁쉬어	-4108
▁슬픔	-4109
▁신발	-4110
▁실내	-4111
▁심어	-4112
▁썸인	-4113
▁쐬고	-4114
▁쓰지	-4115
▁쓸쓸	-4116
▁씁쓸	-4117
▁아기	-4118
▁아깝	-4119
▁안전	-4120
▁알뜰	-4121
▁알지	-4122
▁애기	-4123
▁애석	-4124
▁애틋	-4125
▁약을	-4126
▁양말	-4127
▁어둠	-4128
▁어떠	-4129
▁어른	-4130
▁어리	-4131
▁어머	-4132
▁어필	-4133
▁오락	-4134
▁올랐	-4135
▁올해	-4136
▁와닿	-4137
▁왜그	-4138
▁요구	-4139
▁용서	-4140
▁위기	-4141
▁육아	-4142
▁이쁜	-4143
▁이틀	-4144
▁인내	-4145
▁일단	-4146
▁읽씹	-4147
▁잇몸	-4148
▁있으	-4149
▁있음	-4150
▁자는	-4151
▁자면	-4152
▁작아	-4153
▁잔인	-4154
▁잘살	-4155
▁쟁취	-4156
▁적어	-4157
▁전기	-4158
▁전세	-4159
▁전역	-4160
▁절약	-4161
▁점이	-4162
▁조용	-4163
▁조절	-4164
▁좋게	-4165
▁주기	-4166
▁주식	-4167
▁주택	-4168
▁중고	-4169
▁즐겨	-4170
▁지낼	-4171
▁지도	-4172
▁지옥	-4173
▁지울	-4174
▁지키	-4175
▁집앞	-4176
▁짧지	-4177
▁찍고	-4178
▁차갑	-4179
▁차례	-4180
▁참는	-4181
▁찾는	-4182
▁첫눈	-4183
▁초기	-4184
▁추스	-4185
▁층간	-4186
▁치매	-4187
▁치맥	-4188
▁큰일	-4189
▁키워	-4190
▁타기	-4191
▁타다	-4192
▁탈출	-4193
▁털어	-4194
▁특징	-4195
▁티가	-4196
▁티내	-4197
▁편의	-4198
▁편하	-4199
▁평온	-4200
▁표정	-4201
▁풀렸	-4202
▁피자	-4203
▁하러	-4204
▁한켠	-4205
▁할줄	-4206
▁해줄	-4207
▁허리	-4208
▁호칭	-4209
▁희생	-4210
겠는데	-4211
끄러워	-4212
납니다	-4213
내세요	-4214
년연애	-4215
느냐에	-4216
데이트	-4217
드리고	-4218
라는게	-4219
릅니다	-4220
받았어	-4221
보아요	-4222
봅시다	-4223
부터는	-4224
생인데	-4225
셨군요	-4226
셨네요	-4227
스러울	-4228
었나요	-4229
었어요	-4230
영수증	-4231
이겠죠	-4232
이라서	-4233
이야기	-4234
인걸까	-4235
적이죠	-4236
테리어	-4237
하기는	-4238
하려는	-4239
한건가	-4240
할거라	-4241
해졌어	-4242
했네요	-4243
▁가만히	-4244
▁가족이	-4245
▁각자의	-4246
▁감정은	-4247
▁강렬한	-4248
▁거절의	-4249
▁건가요	-4250
▁건강에	-4251
▁건강이	-4252
▁것들이	-4253
▁것처럼	-4254
▁게임을	-4255
▁결정은	-4256
▁경우가	-4257
▁계절이	-4258
▁고백은	-4259
▁괴롭게	-4260
▁구멍이	-4261
▁그렇죠	-4262
▁그렇지	-4263
▁그리울	-4264
▁그리움	-4265
▁그분의	-4266
▁긁었어	-4267
▁기다림	-4268
▁기대가	-4269
▁기대를	-4270
▁기분은	-4271
▁끝내고	-4272
▁끝인가	-4273
▁나갔어	-4274
▁나쁘지	-4275
▁남들이	-4276
▁내일도	-4277
▁냉장고	-4278
▁너무나	-4279
▁너한테	-4280
▁놀아줘	-4281
▁누구도	-4282
▁눈에서	-4283
▁다가오	-4284
▁다음에	-4285
▁단둘이	-4286
▁달달한	-4287
▁당분간	-4288
▁도와주	-4289
▁도움을	-4290
▁돌아올	-4291
▁됐어요	-4292
▁될지도	-4293
▁두근거	-4294
▁뒤숭숭	-4295
▁뒷담화	-4296
▁똑같아	-4297
▁마실까	-4298
▁만나러	-4299
▁만나자	-4300
▁만남이	-4301
▁많으면	-4302
▁말했어	-4303
▁망했다	-4304
▁맞춤법	-4305
▁머리는	-4306
▁먹자고	-4307
▁먼지가	-4308
▁멀어진	-4309
▁목소리	-4310
▁몸무게	-4311
▁못참고	-4312
▁못해서	-4313
▁무작정	-4314
▁뭐하는	-4315
▁미련도	-4316
▁바꿀까	-4317
▁바라는	-4318
▁바쁘면	-4319
▁받아야	-4320
▁방법을	-4321
▁방학이	-4322
▁변하지	-4323
▁병원에	-4324
▁보냈어	-4325
▁보여요	-4326
▁보자고	-4327
▁봤는데	-4328
▁부족한	-4329
▁부탁드	-4330
▁비행기	-4331
▁뻔했어	-4332
▁사겨도	-4333
▁사귀던	-4334
▁사라질	-4335
▁살아가	-4336
▁상사가	-4337
▁새출발	-4338
▁새학기	-4339
▁생리통	-4340
▁세상이	-4341
▁쉬어가	-4342
▁습관이	-4343
▁신나는	-4344
▁심경의	-4345
▁심장이	-4346
▁심호흡	-4347
▁아닌거	-4348
▁아름답	-4349
▁아픔은	-4350
▁아픔의	-4351
▁아픔이	-4352
▁안경테	-4353
▁안하지	-4354
▁않는게	-4355
▁어렸을	-4356
▁없는거	-4357
▁없는게	-4358
▁없지만	-4359
▁여사친	-4360
▁여자도	-4361
▁연락오	-4362
▁연애의	-4363
▁옆에서	-4364
▁예민한	-4365
▁오래된	-4366
▁오빠가	-4367
▁온전히	-4368
▁우리가	-4369
▁우리집	-4370
▁월급이	-4371
▁유난히	-4372
▁유부남	-4373
▁의욕이	-4374
▁인연은	-4375
▁일요일	-4376
▁일이죠	-4377
▁있는거	-4378
▁있어야	-4379
▁있을지	-4380
▁자괴감	-4381
▁잘못을	-4382
▁잘못이	-4383
▁재밌는	-4384
▁재밌다	-4385
▁재밌어	-4386
▁재회는	-4387
▁전화가	-4388
▁정도로	-4389
▁좋아질	-4390
▁좋지요	-4391
▁준비를	-4392
▁중요하	-4393
▁지나가	-4394
▁지나간	-4395
▁지나갈	-4396
▁지나면	-4397
▁지우고	-4398
▁찜질방	-4399
▁차별해	-4400
▁차이는	-4401
▁찾아온	-4402
▁첫인상	-4403
▁최대한	-4404
▁최선을	-4405
▁추억은	-4406
▁축의금	-4407
▁출퇴근	-4408
▁친구네	-4409
▁친해질	-4410
▁카톡을	-4411
▁카톡이	-4412
▁태어나	-4413
▁태어난	-4414
▁택시비	-4415
▁특별한	-4416
▁파이팅	-4417
▁프로필	-4418
▁하는지	-4419
▁하늘을	-4420
▁하다가	-4421
▁하려고	-4422
▁하루가	-4423
▁한숨만	-4424
▁함께한	-4425
▁함께할	-4426
▁함부로	-4427
▁해야돼	-4428
▁해야할	-4429
▁했어요	-4430
▁행복은	-4431
▁현실과	-4432
▁혼자인	-4433
▁화장품	-4434
▁후회는	-4435
▁흑역사	-4436
▁힘든거	-4437
였나봐요	-4438
적이네요	-4439
테니까요	-4440
해야겠다	-4441
해야하는	-4442
▁가치관이	-4443
▁결혼적령	-4444
▁괜찮다면	-4445
▁권태기가	-4446
▁그러게요	-4447
▁기다리면	-4448
▁기다리지	-4449
▁깨끗하게	-4450
▁나가볼까	-4451
▁나아졌길	-4452
▁노력하는	-4453
▁노력하면	-4454
▁달라진게	-4455
▁될거예요	-4456
▁드라이브	-4457
▁들어왔어	-4458
▁떠오르는	-4459
▁마주치는	-4460
▁만나는데	-4461
▁말이네요	-4462
▁말해봐요	-4463
▁머리카락	-4464
▁모르겠네	-4465
▁무엇이든	-4466
▁물어보면	-4467
▁미치겠어	-4468
▁보고싶네	-4469
▁부럽네요	-4470
▁비밀번호	-4471
▁빠를수록	-4472
▁사랑받고	-4473
▁생각으로	-4474
▁생일이네	-4475
▁서류에서	-4476
▁성공하고	-4477
▁센스있는	-4478
▁셀프웨딩	-4479
▁수학여행	-4480
▁스타트업	-4481
▁스트레칭	-4482
▁시작하기	-4483
▁시작해도	-4484
▁신경쓰여	-4485
▁신혼여행	-4486
▁쓰레기야	-4487
▁아는데도	-4488
▁아니라는	-4489
▁아니었을	-4490
▁않았어요	-4491
▁어떻게해	-4492
▁연락해서	-4493
▁연애하는	-4494
▁연애하면	-4495
▁오락가락	-4496
▁우선순위	-4497
▁운명적인	-4498
▁이번에는	-4499
▁이별준비	-4500
▁이상형이	-4501
▁익숙해질	-4502
▁인정받고	-4503
▁일이네요	-4504
▁있었는데	-4505
▁잊으려고	-4506
▁잊혀지지	-4507
▁자존감을	-4508
▁재미없어	-4509
▁정리하고	-4510
▁준비하고	-4511
▁중입니다	-4512
▁줘보세요	-4513
▁즐기세요	-4514
▁집안일을	-4515
▁짝남에게	-4516
▁짝사랑을	-4517
▁처음에는	-4518
▁충분해요	-4519
▁층간소음	-4520
▁카톡으로	-4521
▁퇴근하고	-4522
▁한달하고	-4523
▁해외여행	-4524
▁행복해질	-4525
▁헤어지기	-4526
▁헤어지는	-4527
▁헤어짐이	-4528
▁현실적인	-4529
▁힘들었을	-4530
했나봅니다	-4531
▁결혼하는데	-4532
▁골라보세요	-4533
▁기다리는게	-4534
▁남자애한테	-4535
▁남자친구를	-4536
▁누구에게나	-4537
▁다르겠지만	-4538
▁달라지는게	-4539
▁돌려보세요	-4540
▁되었나봐요	-4541
▁드셔보세요	-4542
▁먹어보세요	-4543
▁먹어야겠다	-4544
▁못했나봐요	-4545
▁벗어나세요	-4546
▁보여주세요	-4547
▁사랑이네요	-4548
▁사랑할수록	-4549
▁상관없어요	-4550
▁생각만해도	-4551
▁시작하세요	-4552
▁아니랍니다	-4553
▁안타깝네요	-4554
▁않을거예요	-4555
▁여자친구를	-4556
▁연락해볼까	-4557
▁연락했는데	-4558
▁연애하는데	-4559
▁외국인인데	-4560
▁잃어버렸어	-4561
▁잊혀지기도	-4562
▁좋아한다는	-4563
▁좋아했으면	-4564
▁좋을텐데요	-4565
▁지쳤나봐요	-4566
▁지켜보세요	-4567
▁참아보세요	-4568
▁축하드려요	-4569
▁하지마세요	-4570
▁행복해보여	-4571
▁현금영수증	-4572
▁기다려주세요	-4573
▁남자친구에게	-4574
▁부탁해보세요	-4575
▁사용해보세요	-4576
▁좋아해줬으면	-4577
▁준비해보세요	-4578
▁객	-4579
▁갠	-4580
▁겪	-4581
▁국	-4582
▁굳	-4583
▁굴	-4584
▁끼	-4585
▁뉴	-4586
▁닫	-4587
▁둔	-4588
▁렌	-4589
▁맡	-4590
▁맴	-4591
▁맺	-4592
▁멘	-4593
▁민	-4594
▁밉	-4595
▁밑	-4596
▁밝	-4597
▁밟	-4598
▁뱃	-4599
▁북	-4600
▁빚	-4601
▁뻑	-4602
▁쉴	-4603
▁슈	-4604
▁씌	-4605
▁씹	-4606
▁엇	-4607
▁엠	-4608
▁엮	-4609
▁옥	-4610
▁짠	-4611
▁쪽	-4612
▁쫄	-4613
▁찢	-4614
▁컸	-4615
▁켜	-4616
▁탓	-4617
▁팀	-4618
▁퍼	-4619
▁핫	-4620
▁햇	-4621
▁험	-4622
▁활	-4623
가기	-4624
가능	-4625
가서	-4626
가운	-4627
같애	-4628
걸요	-4629
걸음	-4630
게되	-4631
겠대	-4632
공원	-4633
관리	-4634
기에	-4635
긴다	-4636
김에	-4637
꺼야	-4638
났네	-4639
냐구	-4640
네여	-4641
달이	-4642
달콩	-4643
대는	-4644
도를	-4645
독한	-4646
동산	-4647
되기	-4648
드네	-4649
듬어	-4650
듯한	-4651
라네	-4652
라니	-4653
랑이	-4654
랬다	-4655
런지	-4656
력서	-4657
련만	-4658
로그	-4659
료가	-4660
르지	-4661
리필	-4662
린라	-4663
림을	-4664
마요	-4665
마자	-4666
만해	-4667
매일	-4668
먹기	-4669
모가	-4670
문을	-4671
받는	-4672
버리	-4673
버린	-4674
보네	-4675
뻑해	-4676
살이	-4677
생각	-4678
설여	-4679
센터	-4680
셔야	-4681
셨나	-4682
속에	-4683
수업	-4684
수저	-4685
신발	-4686
심한	-4687
았네	-4688
야해	-4689
양제	-4690
없네	-4691
역이	-4692
연제	-4693
였네	-4694
영상	-4695
오를	-4696
온다	-4697
올라	-4698
와의	-4699
왔다	-4700
운데	-4701
으며	-4702
은것	-4703
을때	-4704
있지	-4705
정녀	-4706
져서	-4707
조건	-4708
조심	-4709
조절	-4710
지못	-4711
지부	-4712
지우	-4713
지죠	-4714
질뻔	-4715
총회	-4716
촬영	-4717
카드	-4718
콜록	-4719
테니	-4720
트가	-4721
트남	-4722
트롤	-4723
프터	-4724
플라	-4725
하며	-4726
하진	-4727
학금	-4728
한번	-4729
함에	-4730
해가	-4731
해를	-4732
했길	-4733
했나	-4734
혔어	-4735
히는	-4736
▁12	-4737
▁20	-4738
▁가까	-4739
▁가려	-4740
▁가볍	-4741
▁가을	-4742
▁간대	-4743
▁간식	-4744
▁간접	-4745
▁간직	-4746
▁감수	-4747
▁감싸	-4748
▁감출	-4749
▁강요	-4750
▁같다	-4751
▁같음	-4752
▁개념	-4753
▁객관	-4754
▁갠톡	-4755
▁걔는	-4756
▁거는	-4757
▁거요	-4758
▁걷고	-4759
▁것만	-4760
▁격려	-4761
▁경제	-4762
▁고기	-4763
▁고장	-4764
▁고치	-4765
▁골프	-4766
▁과연	-4767
▁괴로	-4768
▁구분	-4769
▁구워	-4770
▁군인	-4771
▁그때	-4772
▁그땐	-4773
▁근데	-4774
▁금연	-4775
▁기댈	-4776
▁기침	-4777
▁깊게	-4778
▁깎아	-4779
▁깜빡	-4780
▁깨닫	-4781
▁꺼내	-4782
▁꼼꼼	-4783
▁꿈은	-4784
▁끈을	-4785
▁끊기	-4786
▁끓여	-4787
▁끝날	-4788
▁끝냈	-4789
▁끝도	-4790
▁나갈	-4791
▁나나	-4792
▁나니	-4793
▁나야	-4794
▁내요	-4795
▁냉면	-4796
▁너가	-4797
▁너의	-4798
▁놀까	-4799
▁농구	-4800
▁농담	-4801
▁높아	-4802
▁누락	-4803
▁늦는	-4804
▁다짐	-4805
▁다칠	-4806
▁단체	-4807
▁닮은	-4808
▁답은	-4809
▁당첨	-4810
▁당한	-4811
▁대수	-4812
▁대충	-4813
▁데가	-4814
▁독이	-4815
▁돌려	-4816
▁듣기	-4817
▁들려	-4818
▁들면	-4819
▁때매	-4820
▁때요	-4821
▁떠날	-4822
▁떨쳐	-4823
▁또한	-4824
▁띄는	-4825
▁롱디	-4826
▁마른	-4827
▁마중	-4828
▁말걸	-4829
▁맛난	-4830
▁망함	-4831
▁맞아	-4832
▁먹먹	-4833
▁멈춰	-4834
▁모를	-4835
▁모아	-4836
▁목적	-4837
▁못자	-4838
▁무관	-4839
▁무언	-4840
▁문화	-4841
▁물이	-4842
▁뭐로	-4843
▁뭐지	-4844
▁뭐해	-4845
▁뭘로	-4846
▁미팅	-4847
▁미화	-4848
▁믿어	-4849
▁밀려	-4850
▁바디	-4851
▁반에	-4852
▁반장	-4853
▁받기	-4854
▁발견	-4855
▁밥을	-4856
▁방금	-4857
▁배신	-4858
▁버릇	-4859
▁벌고	-4860
▁베풀	-4861
▁베프	-4862
▁변한	-4863
▁병신	-4864
▁보란	-4865
▁봄은	-4866
▁봤네	-4867
▁부드	-4868
▁부여	-4869
▁부질	-4870
▁분들	-4871
▁불만	-4872
▁불효	-4873
▁브랜	-4874
▁비워	-4875
▁빌어	-4876
▁빠른	-4877
▁빨래	-4878
▁뽑기	-4879
▁사줘	-4880
▁사탕	-4881
▁생생	-4882
▁서점	-4883
▁설명	-4884
▁성덕	-4885
▁소비	-4886
▁소액	-4887
▁속박	-4888
▁손편	-4889
▁손해	-4890
▁수능	-4891
▁수업	-4892
▁수준	-4893
▁슈퍼	-4894
▁슬쩍	-4895
▁승진	-4896
▁시골	-4897
▁시려	-4898
▁시선	-4899
▁실례	-4900
▁싸운	-4901
▁싸웠	-4902
▁쌓여	-4903
▁썸도	-4904
▁쓰일	-4905
▁씻고	-4906
▁아마	-4907
▁아부	-4908
▁아팠	-4909
▁안고	-4910
▁안될	-4911
▁안맞	-4912
▁안부	-4913
▁안주	-4914
▁알까	-4915
▁알콩	-4916
▁애인	-4917
▁액정	-4918
▁없었	-4919
▁엇갈	-4920
▁에너	-4921
▁엠티	-4922
▁열흘	-4923
▁염탐	-4924
▁영어	-4925
▁오바	-4926
▁옳은	-4927
▁옷을	-4928
▁옷이	-4929
▁와인	-4930
▁와플	-4931
▁왠지	-4932
▁요리	-4933
▁욕심	-4934
▁운이	-4935
▁운전	-4936
▁울고	-4937
▁웃겨	-4938
▁웃는	-4939
▁웃어	-4940
▁월세	-4941
▁웨딩	-4942
▁은행	-4943
▁음식	-4944
▁이모	-4945
▁이뻐	-4946
▁인상	-4947
▁일반	-4948
▁일부	-4949
▁읽어	-4950
▁입학	-4951
▁있대	-4952
▁잊기	-4953
▁자도	-4954
▁자야	-4955
▁자장	-4956
▁잘라	-4957
▁잘자	-4958
▁잠들	-4959
▁잡념	-4960
▁전과	-4961
▁전학	-4962
▁정장	-4963
▁제안	-4964
▁제정	-4965
▁조차	-4966
▁좋긴	-4967
▁좋음	-4968
▁죄가	-4969
▁주차	-4970
▁줄어	-4971
▁지각	-4972
▁지루	-4973
▁지속	-4974
▁지적	-4975
▁지친	-4976
▁질려	-4977
▁질린	-4978
▁질문	-4979
▁질질	-4980
▁짐을	-4981
▁짧게	-4982
▁찍는	-4983
▁찍어	-4984
▁찢어	-4985
▁차인	-4986
▁착잡	-4987
▁참다	-4988
▁참을	-4989
▁책임	-4990
▁챙기	-4991
▁축제	-4992
▁출발	-4993
▁춥네	-4994
▁치료	-4995
▁치열	-4996
▁치워	-4997
▁친절	-4998
▁친척	-4999
▁컴퓨	-5000
▁코가	-5001
▁타러	-5002
▁태연	-5003
▁터지	-5004
▁터질	-5005
▁톡이	-5006
▁티를	-5007
▁파도	-5008
▁폭식	-5009
▁푸는	-5010
▁필기	-5011
▁하아	-5012
▁학벌	-5013
▁한계	-5014
▁한약	-5015
▁할지	-5016
▁합격	-5017
▁해준	-5018
▁했다	-5019
▁허락	-5020
▁현타	-5021
▁호의	-5022
▁혼수	-5023
▁화내	-5024
▁확률	-5025
▁황당	-5026
▁회의	-5027
▁휴식	-5028
▁휴학	-5029
▁흘러	-5030
개월차	-5031
냈어요	-5032
다는걸	-5033
다는게	-5034
다는데	-5035
들이랑	-5036
렵니다	-5037
르세요	-5038
보다는	-5039
보려고	-5040
봤는데	-5041
생활이	-5042
셨나요	-5043
스크림	-5044
시키는	-5045
신가요	-5046
았으면	-5047
였나요	-5048
왔으면	-5049
우니까	-5050
유연제	-5051
을까요	-5052
이세요	-5053
인데요	-5054
있는거	-5055
자친구	-5056
줬더니	-5057
지말고	-5058
집니다	-5059
터리가	-5060
하기가	-5061
하기로	-5062
하다면	-5063
하라고	-5064
하려면	-5065
하지는	-5066
할까요	-5067
해주지	-5068
해줘서	-5069
해지고	-5070
해지길	-5071
해지네	-5072
했다고	-5073
했던거	-5074
했을까	-5075
▁가기로	-5076
▁가까운	-5077
▁가까워	-5078
▁가는게	-5079
▁가려고	-5080
▁가봐요	-5081
▁가야돼	-5082
▁간만에	-5083
▁갈수록	-5084
▁감정기	-5085
▁갑니다	-5086
▁거겠지	-5087
▁거라고	-5088
▁걱정은	-5089
▁건들지	-5090
▁것들을	-5091
▁견디고	-5092
▁결국엔	-5093
▁결정할	-5094
▁결혼을	-5095
▁경험이	-5096
▁계기가	-5097
▁계획을	-5098
▁고시원	-5099
▁고치고	-5100
▁공부할	-5101
▁괜찮다	-5102
▁궁금할	-5103
▁귀엽게	-5104
▁그녀도	-5105
▁그런가	-5106
▁그런지	-5107
▁그린라	-5108
▁그만둬	-5109
▁금수저	-5110
▁기본이	-5111
▁기억에	-5112
▁기억은	-5113
▁기억의	-5114
▁기준이	-5115
▁기회를	-5116
▁깨달음	-5117
▁끊겼어	-5118
▁나가야	-5119
▁나는데	-5120
▁나오네	-5121
▁나왔네	-5122
▁나이에	-5123
▁나타날	-5124
▁남사친	-5125
▁남에게	-5126
▁남자도	-5127
▁남자의	-5128
▁내일이	-5129
▁노래는	-5130
▁노래를	-5131
▁누구랑	-5132
▁누군가	-5133
▁다르죠	-5134
▁다르지	-5135
▁다리가	-5136
▁달려있	-5137
▁답정녀	-5138
▁당연한	-5139
▁당연히	-5140
▁대기업	-5141
▁대화로	-5142
▁더워서	-5143
▁돌리는	-5144
▁돌아서	-5145
▁동료가	-5146
▁동영상	-5147
▁되는거	-5148
▁되는게	-5149
▁되려면	-5150
▁되었길	-5151
▁되었네	-5152
▁되었을	-5153
▁들어줄	-5154
▁들이대	-5155
▁때로는	-5156
▁때문일	-5157
▁떠나간	-5158
▁떨린다	-5159
▁똑같애	-5160
▁뛰어넘	-5161
▁마셔도	-5162
▁마음과	-5163
▁마음만	-5164
▁막힌다	-5165
▁만나요	-5166
▁만남은	-5167
▁만났던	-5168
▁만드는	-5169
▁만들기	-5170
▁말아야	-5171
▁맘처럼	-5172
▁맛있다	-5173
▁맛있어	-5174
▁망설여	-5175
▁맞아요	-5176
▁먹는데	-5177
▁멋져요	-5178
▁멋지게	-5179
▁면도기	-5180
▁면역이	-5181
▁못했던	-5182
▁무시해	-5183
▁무의식	-5184
▁무조건	-5185
▁문제는	-5186
▁문제죠	-5187
▁묻어두	-5188
▁물리적	-5189
▁뭐하나	-5190
▁미끄러	-5191
▁미래에	-5192
▁미련을	-5193
▁미용실	-5194
▁믿음을	-5195
▁바라지	-5196
▁바르고	-5197
▁밖에서	-5198
▁반가워	-5199
▁배고프	-5200
▁배울까	-5201
▁버티고	-5202
▁베터리	-5203
▁베트남	-5204
▁변해요	-5205
▁보기로	-5206
▁보내지	-5207
▁보냈네	-5208
▁보름달	-5209
▁보이는	-5210
▁부족해	-5211
▁불안해	-5212
▁붙잡아	-5213
▁뻑뻑해	-5214
▁사람인	-5215
▁사랑니	-5216
▁사이로	-5217
▁상담을	-5218
▁상처는	-5219
▁새신발	-5220
▁생각도	-5221
▁서로가	-5222
▁서운해	-5223
▁서툴러	-5224
▁선에서	-5225
▁선택이	-5226
▁선택할	-5227
▁선톡을	-5228
▁설레는	-5229
▁설렘이	-5230
▁성적이	-5231
▁소문이	-5232
▁소식이	-5233
▁소화제	-5234
▁손가락	-5235
▁술한잔	-5236
▁쉬어도	-5237
▁쉽지가	-5238
▁스키장	-5239
▁시작할	-5240
▁신경써	-5241
▁싶다는	-5242
▁싶으면	-5243
▁싸우고	-5244
▁싸우는	-5245
▁싸웠어	-5246
▁썸녀가	-5247
▁썸타고	-5248
▁쓰이는	-5249
▁아니네	-5250
▁아무말	-5251
▁아쉬운	-5252
▁아프게	-5253
▁아픔도	-5254
▁안좋아	-5255
▁안좋은	-5256
▁않았길	-5257
▁않았을	-5258
▁않지요	-5259
▁알뜰폰	-5260
▁알바생	-5261
▁앞에선	-5262
▁애매한	-5263
▁애프터	-5264
▁양해를	-5265
▁어느새	-5266
▁어디든	-5267
▁어떡함	-5268
▁어려울	-5269
▁어렵다	-5270
▁어렵죠	-5271
▁어리석	-5272
▁어쩌면	-5273
▁어쩔수	-5274
▁어플로	-5275
▁언니랑	-5276
▁얼굴이	-5277
▁엄마랑	-5278
▁없애는	-5279
▁없지요	-5280
▁여러명	-5281
▁여자로	-5282
▁연락도	-5283
▁연락할	-5284
▁연애중	-5285
▁연인과	-5286
▁영양제	-5287
▁예민해	-5288
▁오니까	-5289
▁오디션	-5290
▁오라고	-5291
▁오해가	-5292
▁월급은	-5293
▁위해서	-5294
▁위험해	-5295
▁유부녀	-5296
▁의미가	-5297
▁의미를	-5298
▁의심해	-5299
▁이러는	-5300
▁이력서	-5301
▁이름이	-5302
▁이별중	-5303
▁이별할	-5304
▁이어가	-5305
▁이어폰	-5306
▁이유로	-5307
▁이해를	-5308
▁이해못	-5309
▁인상이	-5310
▁인생의	-5311
▁일부터	-5312
▁일어날	-5313
▁입냄새	-5314
▁입어도	-5315
▁있었어	-5316
▁잊지못	-5317
▁잊혀져	-5318
▁자기도	-5319
▁자다가	-5320
▁자세히	-5321
▁자신과	-5322
▁자신에	-5323
▁자신은	-5324
▁자야지	-5325
▁자체로	-5326
▁잘못인	-5327
▁잘해야	-5328
▁잡아도	-5329
▁장학금	-5330
▁저녁에	-5331
▁저도요	-5332
▁전하지	-5333
▁접는게	-5334
▁접어야	-5335
▁정리될	-5336
▁정해져	-5337
▁존재를	-5338
▁존중해	-5339
▁좋아서	-5340
▁주저리	-5341
▁주제를	-5342
▁준비할	-5343
▁증거를	-5344
▁지금의	-5345
▁지내는	-5346
▁지웠어	-5347
▁지쳐서	-5348
▁짜장면	-5349
▁짝녀를	-5350
▁찌질한	-5351
▁차갑게	-5352
▁참았어	-5353
▁최악의	-5354
▁추억에	-5355
▁커플링	-5356
▁커피가	-5357
▁커피향	-5358
▁컨디션	-5359
▁케이스	-5360
▁콩깍지	-5361
▁틀리는	-5362
▁파도가	-5363
▁편의점	-5364
▁편하고	-5365
▁포기가	-5366
▁피하는	-5367
▁피해를	-5368
▁하고싶	-5369
▁하기도	-5370
▁하는건	-5371
▁하루는	-5372
▁하루를	-5373
▁하루에	-5374
▁하우스	-5375
▁하지도	-5376
▁한심해	-5377
▁할까요	-5378
▁해야죠	-5379
▁행동은	-5380
▁허리가	-5381
▁헤아릴	-5382
▁화장이	-5383
▁환승은	-5384
▁후회만	-5385
▁후회해	-5386
▁희망이	-5387
▁힘들까	-5388
버리세요	-5389
셨겠어요	-5390
시나봐요	-5391
이니까요	-5392
있습니다	-5393
하나봐요	-5394
해야할지	-5395
해지는게	-5396
▁거짓말을	-5397
▁걱정이야	-5398
▁견뎌내고	-5399
▁결정이었	-5400
▁결혼준비	-5401
▁결혼하고	-5402
▁결혼하기	-5403
▁결혼해야	-5404
▁공허함이	-5405
▁관리하는	-5406
▁관심사에	-5407
▁괜찮겠지	-5408
▁괜찮아지	-5409
▁괜찮지만	-5410
▁교양수업	-5411
▁그럴지도	-5412
▁기다리던	-5413
▁기대하지	-5414
▁기억에서	-5415
▁나을지도	-5416
▁나한테만	-5417
▁남았네요	-5418
▁남자분들	-5419
▁남자에게	-5420
▁남친이랑	-5421
▁너무너무	-5422
▁넘어가네	-5423
▁넘었는데	-5424
▁노력하고	-5425
▁놀이공원	-5426
▁놀이동산	-5427
▁다녀왔어	-5428
▁다릅니다	-5429
▁다양하게	-5430
▁단체생활	-5431
▁단호하게	-5432
▁당분간은	-5433
▁당신만이	-5434
▁대화하는	-5435
▁동생한테	-5436
▁두근거리	-5437
▁마셨는데	-5438
▁마음이랑	-5439
▁만들어서	-5440
▁매일매일	-5441
▁먹었더니	-5442
▁멀어지면	-5443
▁무한리필	-5444
▁문제네요	-5445
▁물어보고	-5446
▁물어봐도	-5447
▁미안하다	-5448
▁미치겠네	-5449
▁믿으세요	-5450
▁받아들일	-5451
▁변화시켜	-5452
▁보이네요	-5453
▁불공평해	-5454
▁비밀연애	-5455
▁비정규직	-5456
▁사람이야	-5457
▁사랑이죠	-5458
▁사랑인지	-5459
▁사랑할까	-5460
▁사랑해요	-5461
▁사회생활	-5462
▁상대방도	-5463
▁상대방의	-5464
▁생각해도	-5465
▁생겼어요	-5466
▁선물하면	-5467
▁성공하길	-5468
▁세상에는	-5469
▁소개시켜	-5470
▁스타일이	-5471
▁스테이크	-5472
▁시원하게	-5473
▁시작이죠	-5474
▁신경쓰는	-5475
▁심어볼까	-5476
▁심해지는	-5477
▁썸녀한테	-5478
▁아니네요	-5479
▁아닌가요	-5480
▁아름다워	-5481
▁아쉬움이	-5482
▁아침부터	-5483
▁않겠어요	-5484
▁알아보고	-5485
▁알아보는	-5486
▁알콩달콩	-5487
▁어느정도	-5488
▁어떡하죠	-5489
▁어떻게든	-5490
▁어찌해야	-5491
▁언젠가는	-5492
▁없겠지요	-5493
▁없는걸까	-5494
▁없답니다	-5495
▁없어졌어	-5496
▁여자에게	-5497
▁여친에게	-5498
▁연락왔어	-5499
▁연락할까	-5500
▁연애세포	-5501
▁연인으로	-5502
▁오늘부터	-5503
▁왔나봐요	-5504
▁왜이렇게	-5505
▁외로움을	-5506
▁운동으로	-5507
▁원한다면	-5508
▁유지하는	-5509
▁유효기간	-5510
▁응원해요	-5511
▁이별이란	-5512
▁이별하는	-5513
▁이어나가	-5514
▁이제서야	-5515
▁익숙해져	-5516
▁인생에서	-5517
▁인정하고	-5518
▁인테리어	-5519
▁일어나면	-5520
▁일하면서	-5521
▁있는걸까	-5522
▁있었나요	-5523
▁있으니까	-5524
▁잊혀질까	-5525
▁자신으로	-5526
▁자유로워	-5527
▁잘지내고	-5528
▁잘하는게	-5529
▁잘해주는	-5530
▁잡으세요	-5531
▁재미있어	-5532
▁재밌는거	-5533
▁정확하게	-5534
▁좋아지고	-5535
▁좋아지는	-5536
▁좋았으면	-5537
▁좋으련만	-5538
▁주변에서	-5539
▁지하철에	-5540
▁짜증나네	-5541
▁차였는데	-5542
▁찾아오는	-5543
▁추억으로	-5544
▁취직하면	-5545
▁친구들을	-5546
▁친구인데	-5547
▁친해지는	-5548
▁콩깍지가	-5549
▁클럽에서	-5550
▁필요하지	-5551
▁하느냐에	-5552
▁하다보니	-5553
▁하셨군요	-5554
▁한답니다	-5555
▁해보려고	-5556
▁해봤는데	-5557
▁해야겠지	-5558
▁핸드폰이	-5559
▁행복하길	-5560
▁헤아리는	-5561
▁헤어짐은	-5562
▁헬스장에	-5563
▁헷갈리네	-5564
▁화장하는	-5565
▁확인하는	-5566
▁후련하네	-5567
▁후폭풍은	-5568
▁후회하는	-5569
▁후회할까	-5570
▁흘렀네요	-5571
▁힘들었죠	-5572
▁힘들지만	-5573
한가봅니다	-5574
▁가능하다고	-5575
▁가족들이랑	-5576
▁간직하세요	-5577
▁갑작스러운	-5578
▁걱정된다고	-5579
▁공부해야지	-5580
▁괜찮아졌길	-5581
▁그린라이트	-5582
▁끝났습니다	-5583
▁나눠보는게	-5584
▁남았나봐요	-5585
▁남자입니다	-5586
▁다가가세요	-5587
▁다녀오세요	-5588
▁다음부터는	-5589
▁대해보세요	-5590
▁덜어보세요	-5591
▁두근거림을	-5592
▁떠나보세요	-5593
▁만남이네요	-5594
▁많은가봐요	-5595
▁미세먼지가	-5596
▁바쁜가봐요	-5597
▁받아들여야	-5598
▁보냈습니다	-5599
▁사랑스러운	-5600
▁사랑이에요	-5601
▁사랑하니까	-5602
▁삭제하세요	-5603
▁상대방에게	-5604
▁상황이네요	-5605
▁생각이에요	-5606
▁생각할수록	-5607
▁선택이었을	-5608
▁섬유유연제	-5609
▁소개팅하고	-5610
▁스타트업에	-5611
▁스트레스야	-5612
▁아이스크림	-5613
▁없을거예요	-5614
▁연락하는게	-5615
▁웃어보세요	-5616
▁응원할게요	-5617
▁이야기네요	-5618
▁이야기해도	-5619
▁잘해주세요	-5620
▁잡아보세요	-5621
▁적어보세요	-5622
▁점심시간에	-5623
▁정리하세요	-5624
▁제자리걸음	-5625
▁졸업하는데	-5626
▁주기적으로	-5627
▁준비하느라	-5628
▁직접적으로	-5629
▁집중하세요	-5630
▁추천합니다	-5631
▁친구들한테	-5632
▁풀어보세요	-5633
▁필요하다면	-5634
▁하루하루가	-5635
▁헤어지세요	-5636
▁현상이에요	-5637
▁힘드니까요	-5638
▁힘든가봐요	-5639
▁힘들어하지	-5640
이었나봅니다	-5641
▁극복해보세요	-5642
▁말씀해주세요	-5643
▁미치겠습니다	-5644
▁복잡하겠어요	-5645
▁부탁드립니다	-5646
▁사람이니까요	-5647
▁사랑했나봐요	-5648
▁생각했나봐요	-5649
▁연습해보세요	-5650
▁이해해보세요	-5651
▁전화해보세요	-5652
▁정리해보세요	-5653
▁좋아하나봐요	-5654
▁필요한가봐요	-5655
▁부담스러워하지	-5656
▁부담스러워할까	-5657
▁갱	-5658
▁겉	-5659
▁곰	-5660
▁깰	-5661
▁껴	-5662
▁꽉	-5663
▁꽝	-5664
▁낳	-5665
▁낸	-5666
▁넋	-5667
▁눌	-5668
▁는	-5669
▁덥	-5670
▁뒹	-5671
▁득	-5672
▁떴	-5673
▁떼	-5674
▁똥	-5675
▁뚫	-5676
▁뜬	-5677
▁라	-5678
▁묘	-5679
▁벽	-5680
▁볶	-5681
▁뽀	-5682
▁샌	-5683
▁쌍	-5684
▁앱	-5685
▁엊	-5686
▁엿	-5687
▁워	-5688
▁웹	-5689
▁윗	-5690
▁젤	-5691
▁좌	-5692
▁쥐	-5693
▁짰	-5694
▁쪄	-5695
▁쭉	-5696
▁춘	-5697
▁콕	-5698
▁탁	-5699
▁턱	-5700
▁텀	-5701
▁텅	-5702
▁퇴	-5703
▁틈	-5704
▁팁	-5705
▁팍	-5706
▁팩	-5707
▁헐	-5708
▁홈	-5709
▁홧	-5710
▁훔	-5711
▁흥	-5712
가한	-5713
간대	-5714
갔다	-5715
거든	-5716
걸이	-5717
겁한	-5718
게해	-5719
경이	-5720
고의	-5721
곰히	-5722
구경	-5723
구로	-5724
구를	-5725
그런	-5726
그만	-5727
극이	-5728
근차	-5729
근해	-5730
기한	-5731
길래	-5732
꼈어	-5733
낭비	-5734
내길	-5735
너덜	-5736
년만	-5737
년반	-5738
년사	-5739
년전	-5740
는다	-5741
니깐	-5742
닥을	-5743
달래	-5744
더군	-5745
도라	-5746
독여	-5747
동거	-5748
동물	-5749
동차	-5750
돼서	-5751
됐네	-5752
된다	-5753
됬네	-5754
두리	-5755
드위	-5756
든지	-5757
들의	-5758
따로	-5759
때문	-5760
땜에	-5761
란다	-5762
렀어	-5763
려는	-5764
력은	-5765
렸다	-5766
로라	-5767
로리	-5768
르기	-5769
르몬	-5770
리죠	-5771
린데	-5772
마디	-5773
만남	-5774
맛이	-5775
망이	-5776
먹을	-5777
명한	-5778
문득	-5779
미고	-5780
바구	-5781
바퀴	-5782
밖은	-5783
받을	-5784
방비	-5785
버림	-5786
버시	-5787
번의	-5788
베리	-5789
보낼	-5790
보려	-5791
볶이	-5792
봐야	-5793
부르	-5794
뿐이	-5795
사이	-5796
사자	-5797
사진	-5798
상일	-5799
샜어	-5800
서요	-5801
서히	-5802
선배	-5803
섭섭	-5804
션은	-5805
셨어	-5806
소리	-5807
수가	-5808
수건	-5809
스레	-5810
스트	-5811
시도	-5812
시방	-5813
시에	-5814
시피	-5815
신가	-5816
신고	-5817
신청	-5818
싶네	-5819
싸움	-5820
썸남	-5821
쎄요	-5822
아리	-5823
아빠	-5824
아파	-5825
안나	-5826
안할	-5827
액션	-5828
약이	-5829
양말	-5830
었나	-5831
었지	-5832
에만	-5833
여주	-5834
오래	-5835
오지	-5836
올려	-5837
와도	-5838
욕탕	-5839
우고	-5840
우니	-5841
울렛	-5842
웠던	-5843
은지	-5844
이너	-5845
이상	-5846
이진	-5847
이집	-5848
인공	-5849
일은	-5850
임말	-5851
있네	-5852
있음	-5853
있죠	-5854
잔치	-5855
잡는	-5856
쟁이	-5857
저히	-5858
전이	-5859
점이	-5860
정리	-5861
좋아	-5862
주에	-5863
주의	-5864
준대	-5865
줘서	-5866
증을	-5867
지질	-5868
직이	-5869
질때	-5870
짼데	-5871
차게	-5872
찰랑	-5873
채기	-5874
체가	-5875
쳤다	-5876
치료	-5877
커플	-5878
코인	-5879
타는	-5880
탈까	-5881
탈이	-5882
탔어	-5883
터넷	-5884
통이	-5885
트로	-5886
트를	-5887
티콘	-5888
편이	-5889
폭발	-5890
표현	-5891
풀이	-5892
피해	-5893
하실	-5894
학원	-5895
한건	-5896
한대	-5897
한듯	-5898
할래	-5899
할수	-5900
향을	-5901
헤어	-5902
활용	-5903
효도	-5904
휴일	-5905
히나	-5906
▁11	-5907
▁ᅮᅮ	-5908
▁가본	-5909
▁가시	-5910
▁가입	-5911
▁가자	-5912
▁간섭	-5913
▁갈궈	-5914
▁갈등	-5915
▁감동	-5916
▁갔나	-5917
▁강습	-5918
▁강제	-5919
▁갚아	-5920
▁거도	-5921
▁거둬	-5922
▁거에	-5923
▁거였	-5924
▁걸요	-5925
▁겁나	-5926
▁것에	-5927
▁겠지	-5928
▁계산	-5929
▁계약	-5930
▁고집	-5931
▁골랐	-5932
▁곳을	-5933
▁공복	-5934
▁공유	-5935
▁공황	-5936
▁구남	-5937
▁구두	-5938
▁구별	-5939
▁굳이	-5940
▁귀로	-5941
▁그나	-5942
▁그도	-5943
▁그림	-5944
▁그의	-5945
▁그지	-5946
▁근교	-5947
▁글자	-5948
▁기네	-5949
▁기름	-5950
▁길면	-5951
▁길을	-5952
▁길지	-5953
▁깨요	-5954
▁깨진	-5955
▁깨짐	-5956
▁꾸며	-5957
▁꾹꾹	-5958
▁끊는	-5959
▁나게	-5960
▁나란	-5961
▁나름	-5962
▁날짜	-5963
▁남과	-5964
▁남녀	-5965
▁낭비	-5966
▁낮술	-5967
▁내내	-5968
▁내맘	-5969
▁내면	-5970
▁내서	-5971
▁너덜	-5972
▁너랑	-5973
▁너와	-5974
▁넘게	-5975
▁넘넘	-5976
▁넘은	-5977
▁노잼	-5978
▁놀자	-5979
▁놓지	-5980
▁누워	-5981
▁느꼈	-5982
▁느낄	-5983
▁늘어	-5984
▁늙어	-5985
▁능력	-5986
▁답을	-5987
▁대답	-5988
▁대상	-5989
▁대쉬	-5990
▁덥다	-5991
▁데도	-5992
▁데서	-5993
▁독서	-5994
▁돈은	-5995
▁돼서	-5996
▁돼지	-5997
▁되게	-5998
▁될지	-5999
▁두렵	-6000
▁둘다	-6001
▁뒤에	-6002
▁뒹굴	-6003
▁득템	-6004
▁들리	-6005
▁듯한	-6006
▁등산	-6007
▁등을	-6008
▁딱히	-6009
▁떨고	-6010
▁라는	-6011
▁리드	-6012
▁마라	-6013
▁막막	-6014
▁만한	-6015
▁말자	-6016
▁망가	-6017
▁망상	-6018
▁망한	-6019
▁맞출	-6020
▁매몰	-6021
▁매운	-6022
▁매정	-6023
▁먹기	-6024
▁먹나	-6025
▁먹은	-6026
▁멋져	-6027
▁몰려	-6028
▁몸살	-6029
▁몸에	-6030
▁못생	-6031
▁무모	-6032
▁무지	-6033
▁물가	-6034
▁미루	-6035
▁미운	-6036
▁믿고	-6037
▁믿는	-6038
▁믿음	-6039
▁믿지	-6040
▁밑바	-6041
▁바꿨	-6042
▁바늘	-6043
▁바란	-6044
▁바래	-6045
▁바쁠	-6046
▁반갑	-6047
▁반년	-6048
▁반영	-6049
▁받네	-6050
▁받음	-6051
▁발라	-6052
▁밤만	-6053
▁밤새	-6054
▁밥은	-6055
▁방문	-6056
▁배가	-6057
▁배달	-6058
▁배울	-6059
▁배정	-6060
▁백수	-6061
▁백업	-6062
▁뱃살	-6063
▁버는	-6064
▁버림	-6065
▁법을	-6066
▁벗겨	-6067
▁벗어	-6068
▁보며	-6069
▁보수	-6070
▁봐주	-6071
▁부러	-6072
▁부케	-6073
▁부팅	-6074
▁불순	-6075
▁불쑥	-6076
▁붙여	-6077
▁블랙	-6078
▁블록	-6079
▁비만	-6080
▁비쌈	-6081
▁비오	-6082
▁비와	-6083
▁비용	-6084
▁비트	-6085
▁비해	-6086
▁비혼	-6087
▁빠졌	-6088
▁사먹	-6089
▁사무	-6090
▁사표	-6091
▁살려	-6092
▁살았	-6093
▁살죠	-6094
▁삶은	-6095
▁삶의	-6096
▁샀다	-6097
▁서울	-6098
▁서툰	-6099
▁서핑	-6100
▁선배	-6101
▁선풍	-6102
▁설득	-6103
▁세달	-6104
▁세어	-6105
▁세탁	-6106
▁소름	-6107
▁소유	-6108
▁수건	-6109
▁수십	-6110
▁숙제	-6111
▁숙취	-6112
▁술은	-6113
▁스노	-6114
▁스케	-6115
▁슬플	-6116
▁시도	-6117
▁식단	-6118
▁식욕	-6119
▁식은	-6120
▁실패	-6121
▁실행	-6122
▁심난	-6123
▁심남	-6124
▁심쿵	-6125
▁싸울	-6126
▁쌓인	-6127
▁쏟아	-6128
▁쓰게	-6129
▁쓰면	-6130
▁쓰이	-6131
▁씹어	-6132
▁아끼	-6133
▁아날	-6134
▁아냐	-6135
▁아놔	-6136
▁아려	-6137
▁안할	-6138
▁않기	-6139
▁알긴	-6140
▁애완	-6141
▁애의	-6142
▁야구	-6143
▁야식	-6144
▁약점	-6145
▁어깨	-6146
▁어언	-6147
▁어째	-6148
▁억울	-6149
▁없고	-6150
▁없앨	-6151
▁엉엉	-6152
▁에이	-6153
▁역할	-6154
▁연상	-6155
▁연하	-6156
▁열받	-6157
▁열어	-6158
▁영통	-6159
▁예고	-6160
▁예능	-6161
▁예비	-6162
▁예상	-6163
▁예약	-6164
▁예정	-6165
▁오길	-6166
▁오셨	-6167
▁오죠	-6168
▁옥상	-6169
▁올게	-6170
▁왜케	-6171
▁외부	-6172
▁외출	-6173
▁요금	-6174
▁욕을	-6175
▁욕해	-6176
▁용량	-6177
▁우습	-6178
▁웃게	-6179
▁웃음	-6180
▁원동	-6181
▁원해	-6182
▁웹툰	-6183
▁유료	-6184
▁유통	-6185
▁유행	-6186
▁으아	-6187
▁으으	-6188
▁음료	-6189
▁이끌	-6190
▁이래	-6191
▁인지	-6192
▁일기	-6193
▁일방	-6194
▁일시	-6195
▁일인	-6196
▁임용	-6197
▁있던	-6198
▁잊자	-6199
▁자다	-6200
▁자제	-6201
▁잘됐	-6202
▁잘한	-6203
▁잠식	-6204
▁잠재	-6205
▁장점	-6206
▁저만	-6207
▁저장	-6208
▁저주	-6209
▁저편	-6210
▁적게	-6211
▁적당	-6212
▁적은	-6213
▁적을	-6214
▁전할	-6215
▁전해	-6216
▁절망	-6217
▁절친	-6218
▁점은	-6219
▁접은	-6220
▁정열	-6221
▁정이	-6222
▁조가	-6223
▁조별	-6224
▁종지	-6225
▁좋고	-6226
▁좋네	-6227
▁좌절	-6228
▁주량	-6229
▁주워	-6230
▁줄도	-6231
▁줘야	-6232
▁증거	-6233
▁지낸	-6234
▁지수	-6235
▁직업	-6236
▁직전	-6237
▁직후	-6238
▁진행	-6239
▁질긴	-6240
▁쪼금	-6241
▁찔려	-6242
▁참석	-6243
▁책을	-6244
▁처럼	-6245
▁처리	-6246
▁청춘	-6247
▁초라	-6248
▁총회	-6249
▁최신	-6250
▁최저	-6251
▁추운	-6252
▁춥고	-6253
▁충실	-6254
▁취소	-6255
▁치마	-6256
▁친군	-6257
▁침묵	-6258
▁케익	-6259
▁키울	-6260
▁타면	-6261
▁타인	-6262
▁탄다	-6263
▁탈모	-6264
▁태그	-6265
▁토닥	-6266
▁톡을	-6267
▁통장	-6268
▁투잡	-6269
▁팍팍	-6270
▁페메	-6271
▁편해	-6272
▁포근	-6273
▁풀리	-6274
▁풀릴	-6275
▁피할	-6276
▁필수	-6277
▁하객	-6278
▁하니	-6279
▁하필	-6280
▁한국	-6281
▁한데	-6282
▁한창	-6283
▁할게	-6284
▁할말	-6285
▁합리	-6286
▁핫한	-6287
▁해가	-6288
▁했나	-6289
▁했네	-6290
▁허기	-6291
▁허허	-6292
▁헌신	-6293
▁혼나	-6294
▁혼내	-6295
▁혼밥	-6296
▁혼인	-6297
▁화나	-6298
▁화해	-6299
▁환기	-6300
▁후가	-6301
▁훈훈	-6302
▁훔쳐	-6303
▁휘둘	-6304
▁흐려	-6305
▁흐른	-6306
▁흥미	-6307
▁힘껏	-6308
▁힘은	-6309
가기도	-6310
가보다	-6311
같네요	-6312
겁니다	-6313
게되네	-6314
겠다고	-6315
근차근	-6316
기간이	-6317
기한이	-6318
난다고	-6319
난다면	-6320
날인데	-6321
년간의	-6322
년동안	-6323
년하고	-6324
는데는	-6325
는지도	-6326
다는거	-6327
다는것	-6328
다니는	-6329
달라는	-6330
당했어	-6331
도라의	-6332
되어야	-6333
드리러	-6334
드위치	-6335
때문에	-6336
렸으면	-6337
만나고	-6338
방법을	-6339
버리네	-6340
보려구	-6341
보여요	-6342
보이나	-6343
빛으로	-6344
사진을	-6345
생각이	-6346
셔야죠	-6347
속에서	-6348
스럽네	-6349
스타일	-6350
식하는	-6351
심으로	-6352
았다고	-6353
았더니	-6354
았어요	-6355
야겠어	-6356
야겠지	-6357
어진다	-6358
었을까	-6359
었지만	-6360
여행이	-6361
였는지	-6362
였을까	-6363
오는날	-6364
옵니다	-6365
으라고	-6366
이나마	-6367
이니까	-6368
이지요	-6369
인거죠	-6370
인트가	-6371
일수록	-6372
있을까	-6373
자마자	-6374
적이고	-6375
적이면	-6376
적인데	-6377
정적인	-6378
졌어요	-6379
주일째	-6380
지부지	-6381
하겠어	-6382
하는건	-6383
한거니	-6384
한다고	-6385
해보는	-6386
해봐도	-6387
했다는	-6388
했다면	-6389
▁100	-6390
▁가끔씩	-6391
▁가네요	-6392
▁가능한	-6393
▁가라앉	-6394
▁가리는	-6395
▁가볍게	-6396
▁가스비	-6397
▁가슴은	-6398
▁가족들	-6399
▁간절히	-6400
▁감각이	-6401
▁갖자는	-6402
▁같다면	-6403
▁같으면	-6404
▁거라면	-6405
▁거리가	-6406
▁걱정을	-6407
▁걱정할	-6408
▁걸렸어	-6409
▁걸었어	-6410
▁것이죠	-6411
▁것일까	-6412
▁견디기	-6413
▁결과가	-6414
▁결국은	-6415
▁결혼에	-6416
▁결혼하	-6417
▁고독한	-6418
▁고마운	-6419
▁고민을	-6420
▁고백이	-6421
▁고백한	-6422
▁고양이	-6423
▁곰곰히	-6424
▁공감이	-6425
▁공휴일	-6426
▁관계는	-6427
▁관계에	-6428
▁관계의	-6429
▁괜찮길	-6430
▁괜찮지	-6431
▁괴롭다	-6432
▁구썸남	-6433
▁귀여울	-6434
▁귀찮다	-6435
▁그것도	-6436
▁그러고	-6437
▁그러지	-6438
▁그런거	-6439
▁그만두	-6440
▁그분도	-6441
▁그분에	-6442
▁그에게	-6443
▁글쎄요	-6444
▁기르고	-6445
▁기술이	-6446
▁기억만	-6447
▁기억해	-6448
▁기운이	-6449
▁기울여	-6450
▁길거리	-6451
▁깨달았	-6452
▁깨졌어	-6453
▁꿈에나	-6454
▁끊어야	-6455
▁끝나면	-6456
▁끝인거	-6457
▁끝일줄	-6458
▁나가지	-6459
▁나갈까	-6460
▁나니까	-6461
▁나쁜놈	-6462
▁나약한	-6463
▁나오고	-6464
▁나온다	-6465
▁나올거	-6466
▁나이들	-6467
▁날씨도	-6468
▁남겨서	-6469
▁남는게	-6470
▁낭만이	-6471
▁내버려	-6472
▁넋두리	-6473
▁노래가	-6474
▁노력하	-6475
▁놓아줄	-6476
▁놓치고	-6477
▁누구냐	-6478
▁누구야	-6479
▁누우면	-6480
▁느껴지	-6481
▁능력을	-6482
▁다갔어	-6483
▁다니는	-6484
▁다닐까	-6485
▁다독여	-6486
▁다른데	-6487
▁다시는	-6488
▁다양한	-6489
▁다정한	-6490
▁단순한	-6491
▁단톡방	-6492
▁달라요	-6493
▁담배를	-6494
▁답답할	-6495
▁답장을	-6496
▁당사자	-6497
▁당신만	-6498
▁대청소	-6499
▁대학원	-6500
▁더이상	-6501
▁데리러	-6502
▁도와드	-6503
▁도저히	-6504
▁독하게	-6505
▁돌아와	-6506
▁동생이	-6507
▁되겠죠	-6508
▁되네요	-6509
▁두려운	-6510
▁뒷통수	-6511
▁드레스	-6512
▁드리고	-6513
▁드시고	-6514
▁든든할	-6515
▁들어도	-6516
▁들어서	-6517
▁들어요	-6518
▁들으면	-6519
▁따라가	-6520
▁때예요	-6521
▁땡긴다	-6522
▁떡볶이	-6523
▁떨려서	-6524
▁떨어뜨	-6525
▁떨어짐	-6526
▁뜻대로	-6527
▁레시피	-6528
▁리액션	-6529
▁마시기	-6530
▁마시지	-6531
▁마음껏	-6532
▁마주쳐	-6533
▁마주쳤	-6534
▁만나길	-6535
▁만났든	-6536
▁만들죠	-6537
▁많겠지	-6538
▁말하면	-6539
▁말할까	-6540
▁말해주	-6541
▁맘같지	-6542
▁맛있을	-6543
▁맞는거	-6544
▁매력을	-6545
▁매력이	-6546
▁머리랑	-6547
▁머리로	-6548
▁먹기로	-6549
▁먹어야	-6550
▁먹으러	-6551
▁메뉴얼	-6552
▁멘탈이	-6553
▁면접만	-6554
▁모두를	-6555
▁모습도	-6556
▁모아서	-6557
▁모으는	-6558
▁모자라	-6559
▁목걸이	-6560
▁목욕탕	-6561
▁몰랐어	-6562
▁몸에서	-6563
▁못잊는	-6564
▁못할까	-6565
▁무너진	-6566
▁무뎌질	-6567
▁무섭네	-6568
▁무언가	-6569
▁문제에	-6570
▁뭐하냐	-6571
▁뭐하면	-6572
▁뭘까요	-6573
▁미래를	-6574
▁미련한	-6575
▁바꾸는	-6576
▁바꿔야	-6577
▁바뀌어	-6578
▁바나나	-6579
▁바람둥	-6580
▁바람피	-6581
▁바빠서	-6582
▁반대로	-6583
▁반응이	-6584
▁받았던	-6585
▁방법도	-6586
▁방법은	-6587
▁방식이	-6588
▁방학에	-6589
▁방해가	-6590
▁배우면	-6591
▁배우자	-6592
▁배터리	-6593
▁버리는	-6594
▁버스가	-6595
▁베란다	-6596
▁베풀고	-6597
▁변하고	-6598
▁별로임	-6599
▁보고파	-6600
▁보는건	-6601
▁보는데	-6602
▁보니까	-6603
▁보듬어	-6604
▁보면서	-6605
▁보아요	-6606
▁보이네	-6607
▁보인다	-6608
▁보일러	-6609
▁본인이	-6610
▁부분을	-6611
▁분명히	-6612
▁분에게	-6613
▁불가능	-6614
▁불편한	-6615
▁붙잡는	-6616
▁비겁한	-6617
▁비밀은	-6618
▁비정상	-6619
▁빈자리	-6620
▁빌릴까	-6621
▁빌어요	-6622
▁빠르게	-6623
▁빠르면	-6624
▁빠지면	-6625
▁사겼어	-6626
▁사과할	-6627
▁사귀긴	-6628
▁사귀다	-6629
▁사라진	-6630
▁사랑만	-6631
▁산책을	-6632
▁살거야	-6633
▁살아서	-6634
▁살아온	-6635
▁샀는데	-6636
▁상대는	-6637
▁상사병	-6638
▁상자를	-6639
▁상처도	-6640
▁상황에	-6641
▁생각지	-6642
▁생겨서	-6643
▁서서히	-6644
▁선물해	-6645
▁선택의	-6646
▁설레고	-6647
▁세월이	-6648
▁소액결	-6649
▁소화가	-6650
▁속시원	-6651
▁속이는	-6652
▁손수건	-6653
▁술자리	-6654
▁쉬어야	-6655
▁슬프게	-6656
▁슬프다	-6657
▁시간과	-6658
▁시작을	-6659
▁실수할	-6660
▁싫다고	-6661
▁싫어요	-6662
▁싫은데	-6663
▁심심해	-6664
▁싶다면	-6665
▁썸녀랑	-6666
▁썸일까	-6667
▁쓰면서	-6668
▁아까운	-6669
▁아는거	-6670
▁아니다	-6671
▁아니지	-6672
▁아무는	-6673
▁아무런	-6674
▁아무일	-6675
▁아울렛	-6676
▁아이고	-6677
▁아이디	-6678
▁아파요	-6679
▁안되나	-6680
▁안받아	-6681
▁안보여	-6682
▁안오지	-6683
▁안하면	-6684
▁안해줘	-6685
▁알아볼	-6686
▁알아야	-6687
▁알아차	-6688
▁애교가	-6689
▁애틋한	-6690
▁얘기해	-6691
▁어디가	-6692
▁어색한	-6693
▁어색해	-6694
▁어이가	-6695
▁얼굴에	-6696
▁없는지	-6697
▁없다는	-6698
▁여기서	-6699
▁여지를	-6700
▁여행은	-6701
▁여행지	-6702
▁역시나	-6703
▁연습이	-6704
▁연애도	-6705
▁연인이	-6706
▁영원히	-6707
▁예쁘다	-6708
▁예쁜데	-6709
▁예의일	-6710
▁오늘로	-6711
▁오르네	-6712
▁온다고	-6713
▁올랐어	-6714
▁와닿지	-6715
▁왜이리	-6716
▁외국어	-6717
▁외로움	-6718
▁요즘은	-6719
▁욕하고	-6720
▁용기내	-6721
▁우연이	-6722
▁우울증	-6723
▁우울한	-6724
▁우정이	-6725
▁운동화	-6726
▁울적한	-6727
▁웃는게	-6728
▁원망은	-6729
▁원하지	-6730
▁위로를	-6731
▁위로봇	-6732
▁위험한	-6733
▁유학을	-6734
▁의사를	-6735
▁의심이	-6736
▁의외로	-6737
▁이러다	-6738
▁이러면	-6739
▁이럴까	-6740
▁이번엔	-6741
▁이별하	-6742
▁이상의	-6743
▁이어질	-6744
▁이혼을	-6745
▁인고의	-6746
▁인터넷	-6747
▁일인지	-6748
▁입니다	-6749
▁입을까	-6750
▁입장을	-6751
▁있거나	-6752
▁있군요	-6753
▁있었던	-6754
▁있었을	-6755
▁잊기가	-6756
▁잊는게	-6757
▁잊혀진	-6758
▁자극이	-6759
▁자동차	-6760
▁자리가	-6761
▁자장면	-6762
▁자존심	-6763
▁작아지	-6764
▁잘되고	-6765
▁잘못은	-6766
▁잘생겨	-6767
▁잘생겼	-6768
▁잘지내	-6769
▁잘하니	-6770
▁잘하면	-6771
▁잡념을	-6772
▁잡았어	-6773
▁재밌을	-6774
▁재채기	-6775
▁적어도	-6776
▁적응이	-6777
▁전까지	-6778
▁전에는	-6779
▁전으로	-6780
▁전학가	-6781
▁정답이	-6782
▁정도에	-6783
▁정리에	-6784
▁정리해	-6785
▁정성이	-6786
▁정신과	-6787
▁정신병	-6788
▁정신이	-6789
▁정확히	-6790
▁조급해	-6791
▁조용히	-6792
▁종교를	-6793
▁좋네요	-6794
▁좋더라	-6795
▁좋아져	-6796
▁좋았던	-6797
▁좋으니	-6798
▁좋은거	-6799
▁좋을거	-6800
▁좋을지	-6801
▁주려고	-6802
▁주름살	-6803
▁주면서	-6804
▁주인공	-6805
▁죽겠다	-6806
▁죽겠어	-6807
▁죽어도	-6808
▁죽을거	-6809
▁줄임말	-6810
▁중고로	-6811
▁줬으면	-6812
▁즐거울	-6813
▁즐겁게	-6814
▁즐기는	-6815
▁지나고	-6816
▁지루해	-6817
▁지르고	-6818
▁지쳤어	-6819
▁지치네	-6820
▁직장인	-6821
▁진실된	-6822
▁질투가	-6823
▁질투를	-6824
▁집까지	-6825
▁짜증날	-6826
▁짜증남	-6827
▁짝남과	-6828
▁짝남은	-6829
▁짝녀와	-6830
▁찍었네	-6831
▁차단도	-6832
▁착각이	-6833
▁참겠어	-6834
▁참아야	-6835
▁창피해	-6836
▁찾아갔	-6837
▁채워질	-6838
▁처음엔	-6839
▁첫이별	-6840
▁초기화	-6841
▁최고의	-6842
▁추천해	-6843
▁축하해	-6844
▁취해서	-6845
▁치과에	-6846
▁친구와	-6847
▁친척들	-6848
▁클럽을	-6849
▁티나나	-6850
▁페북을	-6851
▁평소에	-6852
▁프라이	-6853
▁피시방	-6854
▁필요도	-6855
▁하거나	-6856
▁하나죠	-6857
▁하는거	-6858
▁하늘이	-6859
▁하다니	-6860
▁하라는	-6861
▁하려면	-6862
▁하루일	-6863
▁하지마	-6864
▁하지요	-6865
▁학교에	-6866
▁한다는	-6867
▁한달반	-6868
▁한달째	-6869
▁한번쯤	-6870
▁한순간	-6871
▁한켠에	-6872
▁해내고	-6873
▁해보고	-6874
▁해줄까	-6875
▁했나봐	-6876
▁했는지	-6877
▁했더니	-6878
▁행복이	-6879
▁행운을	-6880
▁허상일	-6881
▁허전하	-6882
▁허전할	-6883
▁헷갈려	-6884
▁현실의	-6885
▁현재를	-6886
▁호르몬	-6887
▁확률이	-6888
▁확인해	-6889
▁회사는	-6890
▁후배가	-6891
▁후회없	-6892
▁휴가가	-6893
▁휴유증	-6894
▁흔적이	-6895
▁흘러가	-6896
▁희망은	-6897
▁힘들면	-6898
겨보세요	-6899
기만해도	-6900
러보세요	-6901
려나봐요	-6902
렸나봐요	-6903
보이네요	-6904
사람에게	-6905
을거예요	-6906
이었네요	-6907
이었는데	-6908
적이에요	-6909
중입니다	-6910
지겠네요	-6911
질뻔했어	-6912
체적으로	-6913
하니까요	-6914
하면서도	-6915
하시군요	-6916
한다는데	-6917
해야하나	-6918
해졌어요	-6919
해지세요	-6920
▁가고싶다	-6921
▁가늠하지	-6922
▁가능하면	-6923
▁가능하죠	-6924
▁가능한가	-6925
▁가져왔다	-6926
▁가족한테	-6927
▁간사하죠	-6928
▁갑작스럽	-6929
▁거니까요	-6930
▁거짓말은	-6931
▁건강하게	-6932
▁것입니다	-6933
▁결혼한지	-6934
▁계산적인	-6935
▁고마움을	-6936
▁고마워요	-6937
▁고백해야	-6938
▁고백했다	-6939
▁공부하는	-6940
▁공부할까	-6941
▁궁금한게	-6942
▁그대로의	-6943
▁그렇지만	-6944
▁그리움이	-6945
▁그분에게	-6946
▁그사람이	-6947
▁금수저로	-6948
▁기다려도	-6949
▁기다려야	-6950
▁기다리게	-6951
▁기본으로	-6952
▁기본이죠	-6953
▁길러볼까	-6954
▁까먹었어	-6955
▁깎아야지	-6956
▁깨달음이	-6957
▁나누는게	-6958
▁나오라고	-6959
▁날이네요	-6960
▁남이에요	-6961
▁남자애랑	-6962
▁냉장고에	-6963
▁너덜너덜	-6964
▁너무나도	-6965
▁노력해도	-6966
▁누구보다	-6967
▁누구한테	-6968
▁다가가도	-6969
▁다가오고	-6970
▁다되가네	-6971
▁달라져요	-6972
▁달라지지	-6973
▁답답하다	-6974
▁답답해서	-6975
▁당연하죠	-6976
▁대리효도	-6977
▁데이트가	-6978
▁데이트할	-6979
▁도와줘야	-6980
▁도전하는	-6981
▁돌아오길	-6982
▁돌아오는	-6983
▁돌아오지	-6984
▁돌아올까	-6985
▁동생이랑	-6986
▁동생인데	-6987
▁됐습니다	-6988
▁되어가네	-6989
▁들어오면	-6990
▁떨어지는	-6991
▁마음가는	-6992
▁마음에서	-6993
▁마음정리	-6994
▁마주치면	-6995
▁마주치지	-6996
▁마지막을	-6997
▁마지막이	-6998
▁만나자는	-6999
▁만난다면	-7000
▁말하는게	-7001
▁말해야지	-7002
▁맛있어요	-7003
▁맞추세요	-7004
▁머릿속이	-7005
▁먹으면서	-7006
▁멈추세요	-7007
▁멋지네요	-7008
▁메모하는	-7009
▁모르겠다	-7010
▁못하는게	-7011
▁못하는데	-7012
▁무너졌어	-7013
▁무뎌지는	-7014
▁문득문득	-7015
▁물리적인	-7016
▁뭐하냐고	-7017
▁뭐하는지	-7018
▁미련없이	-7019
▁미안하대	-7020
▁미워하지	-7021
▁믿었는데	-7022
▁바꿔볼까	-7023
▁바꿔야지	-7024
▁바란다면	-7025
▁반가워요	-7026
▁반복되는	-7027
▁받으세요	-7028
▁배고파서	-7029
▁배워가는	-7030
▁배워볼까	-7031
▁베터리가	-7032
▁변해가는	-7033
▁별로네요	-7034
▁보내세요	-7035
▁복잡하게	-7036
▁봤습니다	-7037
▁부드럽게	-7038
▁부모님을	-7039
▁부족한가	-7040
▁분위기를	-7041
▁브랜드가	-7042
▁비난하지	-7043
▁비오는날	-7044
▁비트코인	-7045
▁비행기표	-7046
▁비혼주의	-7047
▁사귀는데	-7048
▁사귀자고	-7049
▁사람이다	-7050
▁사람하고	-7051
▁사랑받는	-7052
▁사랑보다	-7053
▁사랑해줄	-7054
▁사랑했어	-7055
▁사보세요	-7056
▁삭제하는	-7057
▁살고싶어	-7058
▁살다보면	-7059
▁살아가는	-7060
▁살았는데	-7061
▁상관없이	-7062
▁샌드위치	-7063
▁생각들을	-7064
▁생각없이	-7065
▁생각일까	-7066
▁생각처럼	-7067
▁생각하게	-7068
▁생각해서	-7069
▁생각했던	-7070
▁생긴다는	-7071
▁생일선물	-7072
▁선물해도	-7073
▁선택이길	-7074
▁속박에서	-7075
▁손가락이	-7076
▁쇼핑하고	-7077
▁수면양말	-7078
▁쉬어가는	-7079
▁쉬어가도	-7080
▁스스로를	-7081
▁슬프네요	-7082
▁시간낭비	-7083
▁시간인데	-7084
▁시끄러워	-7085
▁시작하는	-7086
▁신경쓰고	-7087
▁신경쓰면	-7088
▁신경쓰인	-7089
▁신중하게	-7090
▁실망하지	-7091
▁심심한데	-7092
▁썸인가요	-7093
▁쓸데없는	-7094
▁아날로그	-7095
▁아니겠지	-7096
▁아니었어	-7097
▁아팠으면	-7098
▁아프지만	-7099
▁안되겠죠	-7100
▁안타까워	-7101
▁않겠네요	-7102
▁않습니다	-7103
▁않았다면	-7104
▁알바생이	-7105
▁알아가는	-7106
▁애완동물	-7107
▁애정표현	-7108
▁얘기하지	-7109
▁어둠에서	-7110
▁어디가지	-7111
▁어떠세요	-7112
▁어린이집	-7113
▁어울릴까	-7114
▁어장인거	-7115
▁언제부터	-7116
▁얼굴보고	-7117
▁엄마아빠	-7118
▁없습니다	-7119
▁없으면서	-7120
▁여우같은	-7121
▁여유롭게	-7122
▁여자인데	-7123
▁여친이랑	-7124
▁여행가고	-7125
▁연락오네	-7126
▁연락처를	-7127
▁연애상담	-7128
▁연애할때	-7129
▁연예인도	-7130
▁염탐하지	-7131
▁영화보고	-7132
▁영화보러	-7133
▁오래오래	-7134
▁오랜연애	-7135
▁올거예요	-7136
▁외롭다고	-7137
▁원동력이	-7138
▁웬수네요	-7139
▁위로해줄	-7140
▁의미일까	-7141
▁의미있는	-7142
▁의심하지	-7143
▁의지해도	-7144
▁이뤄지지	-7145
▁이모티콘	-7146
▁이별하면	-7147
▁이불밖은	-7148
▁이사하는	-7149
▁이상적인	-7150
▁이상한가	-7151
▁이상형은	-7152
▁이상형을	-7153
▁이야기는	-7154
▁이용하는	-7155
▁이해하고	-7156
▁이해하기	-7157
▁이해해요	-7158
▁인기있는	-7159
▁인정하는	-7160
▁인지시켜	-7161
▁일상으로	-7162
▁일어나는	-7163
▁일어나서	-7164
▁일어나야	-7165
▁일요일에	-7166
▁일주일이	-7167
▁입으세요	-7168
▁있답니다	-7169
▁있잖아요	-7170
▁잊어가는	-7171
▁자야겠다	-7172
▁잘되니까	-7173
▁잘해주면	-7174
▁쟁취하는	-7175
▁적극적인	-7176
▁전화해도	-7177
▁정리되길	-7178
▁정신없이	-7179
▁제정신이	-7180
▁조급하게	-7181
▁존중하고	-7182
▁졸업식에	-7183
▁종지부를	-7184
▁좋아졌어	-7185
▁좋아한대	-7186
▁좋을지도	-7187
▁주말이네	-7188
▁주말인데	-7189
▁주식으로	-7190
▁지겨워진	-7191
▁지나가는	-7192
▁지나갔길	-7193
▁지났네요	-7194
▁지났는데	-7195
▁진지하게	-7196
▁집착하게	-7197
▁짝사랑만	-7198
▁차근차근	-7199
▁차단하고	-7200
▁찾아가는	-7201
▁찾아봐요	-7202
▁찾아오네	-7203
▁챙겨주면	-7204
▁척하는게	-7205
▁첫사랑을	-7206
▁친구들은	-7207
▁친구라면	-7208
▁친구에게	-7209
▁컴퓨터가	-7210
▁퇴근길에	-7211
▁판도라의	-7212
▁편안하게	-7213
▁편안해질	-7214
▁편하겠죠	-7215
▁편하다는	-7216
▁표현하지	-7217
▁피곤해서	-7218
▁피하세요	-7219
▁필요한게	-7220
▁하나라도	-7221
▁하니까요	-7222
▁한달만에	-7223
▁함께하고	-7224
▁합리적인	-7225
▁해달라고	-7226
▁해야하나	-7227
▁해주는게	-7228
▁해주면서	-7229
▁해줬으면	-7230
▁허무하네	-7231
▁헤어지네	-7232
▁헤어짐도	-7233
▁혼인신고	-7234
▁혼자서도	-7235
▁확실하게	-7236
▁확인하고	-7237
▁후회안할	-7238
▁흐지부지	-7239
▁힘들거라	-7240
▁힘들겠죠	-7241
▁힘들어도	-7242
▁힘이드네	-7243
담해보세요	-7244
드려보세요	-7245
버렸습니다	-7246
었나봅니다	-7247
었으니까요	-7248
하고싶은데	-7249
하셨겠어요	-7250
해졌나봐요	-7251
▁가능하겠죠	-7252
▁가능할까요	-7253
▁감사합니다	-7254
▁개강이라니	-7255
▁객관적으로	-7256
▁고민이네요	-7257
▁고백받았어	-7258
▁고백하는게	-7259
▁고백하세요	-7260
▁고백할까요	-7261
▁관리하세요	-7262
▁괜찮아지고	-7263
▁기다리세요	-7264
▁기대했는데	-7265
▁깊었나봐요	-7266
▁꾸며보세요	-7267
▁남사친이랑	-7268
▁놀랐겠어요	-7269
▁다되어가네	-7270
▁다행이네요	-7271
▁데이트하고	-7272
▁두려워하지	-7273
▁뒤숭숭하네	-7274
▁들려주세요	-7275
▁들여보세요	-7276
▁떨리겠어요	-7277
▁마음이네요	-7278
▁마음이에요	-7279
▁말씀하세요	-7280
▁맞았나봐요	-7281
▁모르겠지만	-7282
▁미안해하지	-7283
▁바꿔보세요	-7284
▁받아보세요	-7285
▁변덕스럽게	-7286
▁보내보세요	-7287
▁분인가봐요	-7288
▁빌려보세요	-7289
▁사람이라면	-7290
▁사랑이라고	-7291
▁사랑이라는	-7292
▁사랑하는지	-7293
▁사랑합니다	-7294
▁사랑해주는	-7295
▁삭제하는게	-7296
▁생각할게요	-7297
▁선택일거라	-7298
▁소개팅으로	-7299
▁순간이네요	-7300
▁순간이었을	-7301
▁스트레스가	-7302
▁스트레스를	-7303
▁습관이네요	-7304
▁시간이네요	-7305
▁시간이었을	-7306
▁심리일까요	-7307
▁안되나봐요	-7308
▁안좋아하는	-7309
▁애프터까지	-7310
▁없어졌으면	-7311
▁없으니까요	-7312
▁여사친이랑	-7313
▁연락해보는	-7314
▁연락해봐요	-7315
▁유통기한이	-7316
▁유효기간이	-7317
▁이별하려고	-7318
▁이야기하고	-7319
▁이야기하는	-7320
▁이어나가는	-7321
▁익숙해지지	-7322
▁인사드리러	-7323
▁인연이라면	-7324
▁일어나세요	-7325
▁일어났더니	-7326
▁일주일이네	-7327
▁읽어보세요	-7328
▁있었을지도	-7329
▁잊어버리는	-7330
▁잘못입니다	-7331
▁장난스러운	-7332
▁재미있어요	-7333
▁재회했는데	-7334
▁전여친이랑	-7335
▁전여친한테	-7336
▁정리하려고	-7337
▁정해보세요	-7338
▁조금이나마	-7339
▁존중합니다	-7340
▁좋겠습니다	-7341
▁좋아할까요	-7342
▁좋았을텐데	-7343
▁준비하는데	-7344
▁준비하세요	-7345
▁줄여보세요	-7346
▁중독인가봐	-7347
▁중요하겠죠	-7348
▁질투난다고	-7349
▁짝사랑에서	-7350
▁차단하세요	-7351
▁챙겨드세요	-7352
▁챙겨주세요	-7353
▁청해보세요	-7354
▁충전하세요	-7355
▁취해보세요	-7356
▁친해지는게	-7357
▁태어났을까	-7358
▁표현해보는	-7359
▁프라이버시	-7360
▁필요한가요	-7361
▁하우스웨딩	-7362
▁행복하세요	-7363
▁행복했으면	-7364
▁헤어지자는	-7365
▁헤어진지도	-7366
▁헬스장에서	-7367
▁혼란스러워	-7368
▁결혼적령기가	-7369
▁그리운가봐요	-7370
▁기울여보세요	-7371
▁다독여주세요	-7372
▁당황했겠어요	-7373
▁도와드릴게요	-7374
▁마음인가봐요	-7375
▁무덤덤해지는	-7376
▁받아들이세요	-7377
▁생각해봅니다	-7378
▁서운하겠어요	-7379
▁어필해보세요	-7380
▁연락해도될까	-7381
▁연락했습니다	-7382
▁예민한가봐요	-7383
▁이어나가는게	-7384
▁익숙해지지가	-7385
▁인정해주세요	-7386
▁있었나봅니다	-7387
▁있으신가봐요	-7388
▁정리했습니다	-7389
▁정신차리세요	-7390
▁존중해주세요	-7391
▁존중해줬으면	-7392
▁좋아하는데도	-7393
▁좋아할거예요	-7394
▁좋아했나봐요	-7395
▁표현해주세요	-7396
▁헤어지고나서	-7397
▁화이트데이에	-7398
▁힘드시겠어요	-7399
▁힘드신가봐요	-7400
▁그린라이트일까	-7401
▁사랑이었나봐요	-7402
▁40	-7403
▁각질	-7404
▁간질	-7405
▁갈구	-7406
▁개당	-7407
▁갱신	-7408
▁걷기	-7409
▁겁이	-7410
▁격식	-7411
▁겪은	-7412
▁견과	-7413
▁견딜	-7414
▁견적	-7415
▁경과	-7416
▁경향	-7417
▁곱씹	-7418
▁곱창	-7419
▁과외	-7420
▁과제	-7421
▁광탈	-7422
▁교통	-7423
▁구걸	-7424
▁구경	-7425
▁구매	-7426
▁구박	-7427
▁구상	-7428
▁구여	-7429
▁구질	-7430
▁굴면	-7431
▁근무	-7432
▁근질	-7433
▁금값	-7434
▁긴여	-7435
▁길에	-7436
▁김에	-7437
▁깊어	-7438
▁까봐	-7439
▁까아	-7440
▁깨는	-7441
▁깨서	-7442
▁깨질	-7443
▁꽃게	-7444
▁꽃길	-7445
▁꾸고	-7446
▁꾸죠	-7447
▁꿈꾸	-7448
▁꿈도	-7449
▁끊어	-7450
▁끌지	-7451
▁낙엽	-7452
▁난감	-7453
▁난처	-7454
▁났네	-7455
▁났어	-7456
▁낭만	-7457
▁낮잠	-7458
▁네가	-7459
▁놀다	-7460
▁놀라	-7461
▁놀죠	-7462
▁높이	-7463
▁놓는	-7464
▁놓으	-7465
▁놓침	-7466
▁누나	-7467
▁뉴스	-7468
▁늦기	-7469
▁단수	-7470
▁단어	-7471
▁단지	-7472
▁달래	-7473
▁달에	-7474
▁닮아	-7475
▁담담	-7476
▁담은	-7477
▁답변	-7478
▁덜어	-7479
▁독학	-7480
▁돌담	-7481
▁돌봐	-7482
▁돌싱	-7483
▁동감	-7484
▁동문	-7485
▁동상	-7486
▁두지	-7487
▁두푼	-7488
▁둘을	-7489
▁뒷감	-7490
▁듣는	-7491
▁듣지	-7492
▁듯이	-7493
▁따끔	-7494
▁따돌	-7495
▁따져	-7496
▁딴짓	-7497
▁땀을	-7498
▁땜에	-7499
▁관절	-7500
▁관찰	-7501
▁노답	-7502
▁노처	-7503
▁데에	-7504
▁드러	-7505
▁드려	-7506
▁드시	-7507
▁듣니	-7508
▁땡기	-7509
▁떴어	-7510
▁뛰는	-7511
▁뜨끈	-7512
▁뜬금	-7513
▁라인	-7514
▁로그	-7515
▁롱패	-7516
▁막상	-7517
▁막장	-7518
▁맞게	-7519
▁맞음	-7520
▁맞이	-7521
▁맴찢	-7522
▁맺는	-7523
▁멈출	-7524
▁멋질	-7525
▁메인	-7526
▁메일	-7527
▁목도	-7528
▁몸도	-7529
▁문열	-7530
▁문콕	-7531
▁물증	-7532
▁물질	-7533
▁민감	-7534
▁민망	-7535
▁믿기	-7536
▁반납	-7537
▁발레	-7538
▁발바	-7539
▁발이	-7540
▁밝혀	-7541
▁번만	-7542
▁번은	-7543
▁벌레	-7544
▁벌면	-7545
▁벽에	-7546
▁변신	-7547
▁별의	-7548
▁병행	-7549
▁복근	-7550
▁복붙	-7551
▁볶는	-7552
▁본다	-7553
▁볼링	-7554
▁봄방	-7555
▁봄에	-7556
▁봤나	-7557
▁분다	-7558
▁붙어	-7559
▁브런	-7560
▁블루	-7561
▁빚이	-7562
▁빨라	-7563
▁뽑아	-7564
▁뿌얘	-7565
▁삐져	-7566
▁산다	-7567
▁삶에	-7568
▁삶이	-7569
▁샜어	-7570
▁설마	-7571
▁섭섭	-7572
▁성급	-7573
▁세뱃	-7574
▁세포	-7575
▁속는	-7576
▁속사	-7577
▁속을	-7578
▁속지	-7579
▁손님	-7580
▁손목	-7581
▁손을	-7582
▁순진	-7583
▁숨쉬	-7584
▁쉬다	-7585
▁슬슬	-7586
▁식도	-7587
▁식사	-7588
▁신용	-7589
▁실비	-7590
▁실천	-7591
▁심각	-7592
▁심란	-7593
▁심정	-7594
▁싸가	-7595
▁싸서	-7596
▁쌓아	-7597
▁써야	-7598
▁쓰여	-7599
▁댓	-7600
▁뒀	-7601
걸리	-7602
오게	-7603
폭력	-7604
▁감추	-7605
▁공간	-7606
▁꿀꿀	-7607
▁남잔	-7608
▁댓글	-7609
▁도움	-7610
▁또다	-7611
▁밤이	-7612
▁방심	-7613
▁방에	-7614
▁방탈	-7615
▁서글	-7616
▁서먹	-7617
▁서비	-7618
▁서지	-7619
▁스릴	-7620
▁스몰	-7621
▁스쿼	-7622
▁쓸모	-7623
▁씨씨	-7624
▁씨앗	-7625
▁앞서	-7626
▁애니	-7627
▁애써	-7628
▁애야	-7629
▁애키	-7630
▁앱이	-7631
▁양배	-7632
▁얘는	-7633
▁얼떨	-7634
▁엉망	-7635
▁엊그	-7636
▁역류	-7637
▁엮여	-7638
▁열쇠	-7639
▁예랑	-7640
▁예를	-7641
▁예쁠	-7642
▁예측	-7643
▁온천	-7644
▁와라	-7645
▁와요	-7646
▁왔나	-7647
▁외박	-7648
▁외식	-7649
▁외제	-7650
▁욕함	-7651
▁우는	-7652
▁우정	-7653
▁운을	-7654
▁웃고	-7655
▁웃기	-7656
▁원두	-7657
▁원서	-7658
▁원치	-7659
▁원피	-7660
▁위축	-7661
▁유기	-7662
▁유머	-7663
▁유세	-7664
▁의존	-7665
▁의중	-7666
▁읽고	-7667
▁잃을	-7668
▁임신	-7669
▁입는	-7670
▁입에	-7671
▁작별	-7672
▁잔잔	-7673
▁잠도	-7674
▁잡을	-7675
▁잡혀	-7676
▁장갑	-7677
▁장기	-7678
▁장수	-7679
▁장애	-7680
▁재택	-7681
▁재테	-7682
▁적이	-7683
▁젖어	-7684
▁젖은	-7685
▁졌어	-7686
▁존경	-7687
▁존댓	-7688
▁졸라	-7689
▁졸리	-7690
▁종이	-7691
▁종종	-7692
▁죄송	-7693
▁증명	-7694
▁짐작	-7695
▁짰어	-7696
▁쪄서	-7697
▁쫄면	-7698
▁찌뿌	-7699
▁깬	-7700
▁논	-7701
▁빡	-7702
간에	-7703
과의	-7704
구마	-7705
기운	-7706
긴건	-7707
나바	-7708
낫네	-7709
늦게	-7710
던곳	-7711
라구	-7712
려야	-7713
부한	-7714
우지	-7715
조리	-7716
직한	-7717
타민	-7718
터에	-7719
▁가수	-7720
▁거리	-7721
▁걷길	-7722
▁따위	-7723
▁떨면	-7724
▁몇번	-7725
▁미소	-7726
▁발등	-7727
▁번의	-7728
▁빡빡	-7729
▁쉬워	-7730
▁스쳐	-7731
▁잘맞	-7732
▁지끈	-7733
▁찬물	-7734
▁찬성	-7735
▁참외	-7736
▁찾기	-7737
▁찾으	-7738
▁책만	-7739
▁책장	-7740
▁처량	-7741
▁처방	-7742
▁천국	-7743
▁천일	-7744
▁첫키	-7745
▁청강	-7746
▁청결	-7747
▁청약	-7748
▁체력	-7749
▁체질	-7750
▁초초	-7751
▁촬영	-7752
▁최소	-7753
▁추가	-7754
▁추적	-7755
▁출국	-7756
▁춥냐	-7757
▁취뽀	-7758
▁취준	-7759
▁취해	-7760
▁친해	-7761
▁카메	-7762
▁카풀	-7763
▁칼국	-7764
▁커뮤	-7765
▁커서	-7766
▁컴백	-7767
▁컴터	-7768
▁코골	-7769
▁코인	-7770
▁코코	-7771
▁콜록	-7772
▁타게	-7773
▁탄생	-7774
▁탔다	-7775
▁탔던	-7776
▁태몽	-7777
▁텀블	-7778
▁퇴사	-7779
▁투성	-7780
▁트집	-7781
▁특히	-7782
▁틀린	-7783
▁틈틈	-7784
▁티냈	-7785
▁티비	-7786
▁팀플	-7787
▁파토	-7788
▁팔뚝	-7789
▁팔찌	-7790
▁패션	-7791
▁편린	-7792
▁편을	-7793
▁편히	-7794
▁평범	-7795
▁평일	-7796
▁폭풍	-7797
▁폰이	-7798
▁표출	-7799
▁괘	-7800
▁펑	-7801
▁헥	-7802
▁혈	-7803
▁휙	-7804
▁힌	-7805
거란	-7806
겟죠	-7807
경우	-7808
고는	-7809
과적	-7810
긋지	-7811
기라	-7812
넛오	-7813
달반	-7814
두통	-7815
리마	-7816
물주	-7817
본적	-7818
스런	-7819
시킬	-7820
었대	-7821
이냐	-7822
일뿐	-7823
지망	-7824
쩌는	-7825
콧물	-7826
▁거슬	-7827
▁괘씸	-7828
▁깜깜	-7829
▁끊겼	-7830
▁냈어	-7831
▁맘같	-7832
▁버린	-7833
▁뻔뻔	-7834
▁술주	-7835
▁식혀	-7836
▁양면	-7837
▁양치	-7838
▁익숨	-7839
▁잊었	-7840
▁재설	-7841
▁저금	-7842
▁쩌는	-7843
▁찔러	-7844
▁찰랑	-7845
▁콧물	-7846
▁티나	-7847
▁펑펑	-7848
▁푸석	-7849
▁풀고	-7850
▁풀려	-7851
▁피고	-7852
▁피로	-7853
▁학과	-7854
▁학기	-7855
▁학식	-7856
▁학회	-7857
▁햇볕	-7858
▁험해	-7859
▁헛된	-7860
▁헥헥	-7861
▁현관	-7862
▁혈액	-7863
▁형편	-7864
▁호텔	-7865
▁환경	-7866
▁황사	-7867
▁휴우	-7868
▁힌트	-7869
▁힘겨	-7870
가야지	-7871
가지만	-7872
각한데	-7873
간다고	-7874
거같네	-7875
거리가	-7876
거리고	-7877
거에서	-7878
것인가	-7879
긋지긋	-7880
나가는	-7881
날텐데	-7882
넛오일	-7883
년동거	-7884
년인데	-7885
노래방	-7886
는다고	-7887
닝할까	-7888
다니기	-7889
다리타	-7890
닥까지	-7891
달만에	-7892
답이나	-7893
드레스	-7894
들었어	-7895
때까지	-7896
때마다	-7897
렉트로	-7898
렸나봐	-7899
▁눕	-7900
▁왼	-7901
▁캐	-7902
값이	-7903
갖지	-7904
결이	-7905
권이	-7906
극히	-7907
꼬리	-7908
되길	-7909
둥해	-7910
무슨	-7911
물을	-7912
벅스	-7913
브네	-7914
쑤셔	-7915
아플	-7916
인은	-7917
인척	-7918
읽씹	-7919
잊혀	-7920
전과	-7921
주인	-7922
쳐요	-7923
추적	-7924
키기	-7925
▁간지	-7926
▁덕질	-7927
▁로봇	-7928
▁말려	-7929
▁부메	-7930
▁뽀뽀	-7931
▁뿐이	-7932
▁선의	-7933
▁신입	-7934
▁쑤셔	-7935
▁왼손	-7936
▁이마	-7937
▁줬어	-7938
▁즐길	-7939
▁피씨	-7940
▁하곤	-7941
▁휴양	-7942
년만난	-7943
렸을까	-7944
로부터	-7945
리카드	-7946
마들이	-7947
모습만	-7948
버려서	-7949
버려요	-7950
버렸나	-7951
베리아	-7952
보군요	-7953
보기만	-7954
보는건	-7955
보니까	-7956
보셔요	-7957
보이네	-7958
보이는	-7959
불가한	-7960
빨인가	-7961
사이가	-7962
생이면	-7963
섣부르	-7964
소기업	-7965
수라도	-7966
순결이	-7967
스러웠	-7968
스센터	-7969
스테리	-7970
시다니	-7971
심하네	-7972
싸해도	-7973
안됐네	-7974
야할지	-7975
야해요	-7976
양일까	-7977
어지고	-7978
였지만	-7979
오겠죠	-7980
와야지	-7981
왕이면	-7982
용적인	-7983
으려니	-7984
을까봐	-7985
을때는	-7986
이기가	-7987
이면서	-7988
이었어	-7989
이진지	-7990
이크업	-7991
일이야	-7992
적이든	-7993
조절이	-7994
좋을까	-7995
주려고	-7996
주저리	-7997
주정도	-7998
중인데	-7999
▁깍	-8000
▁뇌	-8001
▁돕	-8002
▁삔	-8003
▁줬	-8004
능에	-8005
뚝해	-8006
랭이	-8007
로션	-8008
론가	-8009
리나	-8010
말자	-8011
발이	-8012
백번	-8013
보길	-8014
부려	-8015
성을	-8016
섹스	-8017
씰룩	-8018
여도	-8019
을수	-8020
이란	-8021
잘라	-8022
전의	-8023
줍게	-8024
키니	-8025
투스	-8026
했대	-8027
▁괴물	-8028
▁그후	-8029
▁꼈어	-8030
▁날까	-8031
▁돕는	-8032
▁들게	-8033
▁등록	-8034
▁못된	-8035
▁배불	-8036
▁보증	-8037
▁섹스	-8038
▁썸임	-8039
▁윗집	-8040
▁파마	-8041
▁피맥	-8042
▁했을	-8043
급이야	-8044
들어가	-8045
뚝뚝해	-8046
자는데	-8047
지마요	-8048
지못한	-8049
직이수	-8050
질까봐	-8051
찬가지	-8052
찹하네	-8053
챘을까	-8054
체인이	-8055
카로워	-8056
칼로리	-8057
컥하네	-8058
컨트롤	-8059
트지로	-8060
플라워	-8061
플라토	-8062
하다는	-8063
하다니	-8064
하더라	-8065
하려구	-8066
하려나	-8067
하우스	-8068
할지도	-8069
합시다	-8070
항했어	-8071
해져도	-8072
해졌길	-8073
해줘요	-8074
해줬어	-8075
했나요	-8076
했다가	-8077
행준비	-8078
향인지	-8079
히더라	-8080
▁가까이	-8081
▁가볼까	-8082
▁가봤어	-8083
▁가스불	-8084
▁가슴을	-8085
▁가시밭	-8086
▁가운데	-8087
▁가치가	-8088
▁각질제	-8089
▁간다고	-8090
▁간다면	-8091
▁간절한	-8092
▁갈만한	-8093
▁감당이	-8094
▁감수성	-8095
▁감정소	-8096
▁갔는지	-8097
▁같을까	-8098
▁개념이	-8099
▁0	-8100
▁꼰	-8101
▁낌	-8102
▁둬	-8103
▁옛	-8104
▁짤	-8105
교통	-8106
구가	-8107
기름	-8108
긴지	-8109
년여	-8110
눅해	-8111
닭발	-8112
덜덜	-8113
데기	-8114
두절	-8115
디게	-8116
매가	-8117
방져	-8118
분크	-8119
수궁	-8120
옴을	-8121
이핀	-8122
저나	-8123
주행	-8124
짐에	-8125
찌개	-8126
타면	-8127
하내	-8128
학생	-8129
▁금사	-8130
▁기부	-8131
▁꼰대	-8132
▁낌새	-8133
▁내길	-8134
▁단발	-8135
▁닭발	-8136
▁때의	-8137
▁번복	-8138
▁사지	-8139
▁살게	-8140
▁삼주	-8141
▁수강	-8142
▁앞둔	-8143
▁예식	-8144
▁짤릴	-8145
▁찾은	-8146
교통을	-8147
년사귄	-8148
년여의	-8149
눅눅해	-8150
분크림	-8151
율주행	-8152
이기도	-8153
일수도	-8154
타이핀	-8155
환학생	-8156
▁가짐에	-8157
▁개기름	-8158
▁개인의	-8159
▁거라도	-8160
▁거리두	-8161
▁거슬려	-8162
▁거울을	-8163
▁건강검	-8164
▁건강을	-8165
▁건강한	-8166
▁건방져	-8167
▁걸려요	-8168
▁걸음을	-8169
▁겠지만	-8170
▁견과류	-8171
▁결심이	-8172
▁결정이	-8173
▁결혼도	-8174
▁결혼한	-8175
▁경쟁이	-8176
▁경제력	-8177
▁계신가	-8178
▁고구마	-8179
▁고데기	-8180
▁고민돼	-8181
▁고백도	-8182
▁고백해	-8183
▁고쳐쓰	-8184
▁골라줘	-8185
▁곳이죠	-8186
▁공감을	-8187
▁공개해	-8188
▁공부를	-8189
▁공황장	-8190
▁과거의	-8191
▁과외비	-8192
▁관계도	-8193
▁관리가	-8194
▁관절염	-8195
▁광고가	-8196
▁괴롭혀	-8197
▁교복이	-8198
▁교통사	-8199
가짐	-8200
꾸난	-8201
내기	-8202
도에	-8203
들로	-8204
상화	-8205
안녕	-8206
였길	-8207
인사	-8208
차이	-8209
추즙	-8210
▁14	-8211
▁고작	-8212
▁그놈	-8213
▁맘은	-8214
▁못받	-8215
▁뭐니	-8216
▁발을	-8217
▁소용	-8218
▁속아	-8219
▁실력	-8220
▁썸탈	-8221
▁지침	-8222
▁철이	-8223
▁타나	-8224
▁텅비	-8225
▁화난	-8226
▁효율	-8227
깅하고	-8228
주가지	-8229
활용도	-8230
▁겁이나	-8231
▁구남친	-8232
▁구분짓	-8233
▁구해야	-8234
▁군대를	-8235
▁귀엽대	-8236
▁귀찮게	-8237
▁귀찮네	-8238
▁귀찮은	-8239
▁그것은	-8240
▁그때는	-8241
▁그리웠	-8242
▁극복한	-8243
▁글자만	-8244
▁금사빠	-8245
▁기대돼	-8246
▁기분만	-8247
▁기분을	-8248
▁기억할	-8249
▁기운을	-8250
▁기침도	-8251
▁김치볶	-8252
▁깊었을	-8253
▁까먹고	-8254
▁까먹어	-8255
▁깨끗이	-8256
▁깨닫게	-8257
▁깨어진	-8258
▁깨지고	-8259
▁꼬시지	-8260
▁꽃게탕	-8261
▁꽃길만	-8262
▁꽃바구	-8263
▁꾸는데	-8264
▁꾸미고	-8265
▁꿀꿀해	-8266
▁꿈같다	-8267
▁꿈이었	-8268
▁끄세요	-8269
▁끊긴지	-8270
▁끊는게	-8271
▁끓이는	-8272
▁끝나가	-8273
▁끝나네	-8274
▁끝나서	-8275
▁끝냈어	-8276
▁끝이보	-8277
▁낌새가	-8278
▁나가고	-8279
▁나가는	-8280
▁나가도	-8281
▁나가면	-8282
▁나가서	-8283
▁나가요	-8284
▁나날을	-8285
▁나들이	-8286
▁나쁘게	-8287
▁나쁜데	-8288
▁나온거	-8289
▁나올까	-8290
▁나이테	-8291
▁나타나	-8292
▁나타났	-8293
▁난방이	-8294
▁날씨에	-8295
▁날이네	-8296
▁남겠죠	-8297
▁남는건	-8298
▁남아있	-8299
▁걍	-8300
▁꿔	-8301
▁닥	-8302
▁덧	-8303
▁빽	-8304
▁썩	-8305
▁켠	-8306
끝이	-8307
는줄	-8308
럴까	-8309
마음	-8310
맨날	-8311
번째	-8312
빼고	-8313
실을	-8314
싫어	-8315
싶고	-8316
안돼	-8317
이기	-8318
쳐올	-8319
카오	-8320
키는	-8321
하냐	-8322
햇다	-8323
▁가출	-8324
▁간에	-8325
▁개째	-8326
▁꽃꽂	-8327
▁대피	-8328
▁때인	-8329
▁마카	-8330
▁모여	-8331
▁모태	-8332
▁바이	-8333
▁선천	-8334
▁심부	-8335
▁아휴	-8336
▁인공	-8337
▁책보	-8338
▁춘곤	-8339
▁탄탄	-8340
▁하냐	-8341
▁한복	-8342
▁한살	-8343
▁호박	-8344
▁후아	-8345
속으로	-8346
카오톡	-8347
케이스	-8348
▁간질간	-8349
▁감정도	-8350
▁건조기	-8351
▁공감할	-8352
▁과에서	-8353
▁귀여운	-8354
▁꽃꽂이	-8355
▁남았길	-8356
▁남친과	-8357
▁남편을	-8358
▁납니다	-8359
▁났으면	-8360
▁내리지	-8361
▁내릴까	-8362
▁내키는	-8363
▁냄새나	-8364
▁냉방비	-8365
▁냉정할	-8366
▁노래들	-8367
▁노력이	-8368
▁노력해	-8369
▁노처녀	-8370
▁노후가	-8371
▁놀기만	-8372
▁놀러가	-8373
▁높겠죠	-8374
▁놓쳤다	-8375
▁놓쳤어	-8376
▁누구니	-8377
▁누굴까	-8378
▁누나가	-8379
▁눅눅해	-8380
▁눈썹이	-8381
▁느낌을	-8382
▁늘어요	-8383
▁늙어가	-8384
▁늦어요	-8385
▁다가온	-8386
▁다가왔	-8387
▁다같이	-8388
▁다녀야	-8389
▁다녀온	-8390
▁다른반	-8391
▁다쳤어	-8392
▁닥쳐올	-8393
▁단점을	-8394
▁달달할	-8395
▁달라져	-8396
▁달라질	-8397
▁답답하	-8398
▁답일까	-8399
▁꿰	-8400
▁돋	-8401
▁쪘	-8402
강차	-8403
계절	-8404
고문	-8405
그래	-8406
는것	-8407
례품	-8408
르쳐	-8409
많은	-8410
모호	-8411
보지	-8412
수한	-8413
않은	-8414
여친	-8415
자아	-8416
장판	-8417
저것	-8418
젝트	-8419
졌다	-8420
집에	-8421
편지	-8422
하구	-8423
▁기쁨	-8424
▁난다	-8425
▁너만	-8426
▁살랑	-8427
▁살릴	-8428
▁세금	-8429
▁시절	-8430
▁안이	-8431
▁위안	-8432
▁잊은	-8433
▁폰겜	-8434
▁하길	-8435
▁헌팅	-8436
이었길	-8437
▁가르쳐	-8438
▁것부터	-8439
▁귀엽죠	-8440
▁남잔데	-8441
▁남친의	-8442
▁답례품	-8443
▁답장해	-8444
▁당당히	-8445
▁당신과	-8446
▁대놓고	-8447
▁대단한	-8448
▁대답이	-8449
▁대리님	-8450
▁대충한	-8451
▁대학교	-8452
▁더디게	-8453
▁덕수궁	-8454
▁도전은	-8455
▁도전이	-8456
▁돌담길	-8457
▁돌리고	-8458
▁돌아간	-8459
▁돌아갈	-8460
▁돌아섰	-8461
▁돌아온	-8462
▁돌잔치	-8463
▁동문서	-8464
▁동물원	-8465
▁동시에	-8466
▁동아리	-8467
▁동안의	-8468
▁동전의	-8469
▁되가네	-8470
▁되는줄	-8471
▁되돌릴	-8472
▁되려고	-8473
▁된다는	-8474
▁두근두	-8475
▁두분이	-8476
▁두세요	-8477
▁둘만의	-8478
▁뒤돌아	-8479
▁뒤통수	-8480
▁뒷감당	-8481
▁드네요	-8482
▁드시면	-8483
▁들어올	-8484
▁들으며	-8485
▁들이댔	-8486
▁들텐데	-8487
▁듭니다	-8488
▁등록금	-8489
▁등으로	-8490
▁따돌림	-8491
▁따듯한	-8492
▁따뜻할	-8493
▁딱이죠	-8494
▁딸기가	-8495
▁땀나네	-8496
▁땀난다	-8497
▁때부터	-8498
▁떠나요	-8499
▁넥	-8500
▁덮	-8501
▁띵	-8502
▁롤	-8503
꾸로	-8504
나긴	-8505
눴길	-8506
람을	-8507
러니	-8508
마시	-8509
문제	-8510
배정	-8511
보단	-8512
사는	-8513
싶지	-8514
연이	-8515
오늘	-8516
월의	-8517
인걸	-8518
작용	-8519
정말	-8520
주차	-8521
팬미	-8522
표시	-8523
▁개야	-8524
▁거래	-8525
▁공연	-8526
▁과에	-8527
▁극혐	-8528
▁급해	-8529
▁날은	-8530
▁내도	-8531
▁싶고	-8532
▁영역	-8533
▁오나	-8534
▁줄여	-8535
▁치킨	-8536
▁코트	-8537
▁팬미	-8538
▁하긴	-8539
▁호수	-8540
사람은	-8541
시나요	-8542
하나요	-8543
▁거꾸로	-8544
▁경향이	-8545
▁기나긴	-8546
▁꿨는데	-8547
▁나눴길	-8548
▁날이야	-8549
▁되시길	-8550
▁떠나지	-8551
▁떠는거	-8552
▁떠올라	-8553
▁떨어진	-8554
▁떨쳐낼	-8555
▁또다시	-8556
▁똑같이	-8557
▁똑같지	-8558
▁똑똑해	-8559
▁뜨겁게	-8560
▁로그인	-8561
▁마다할	-8562
▁마라톤	-8563
▁마셔요	-8564
▁마시러	-8565
▁막말을	-8566
▁만날땐	-8567
▁만남에	-8568
▁만남을	-8569
▁만났을	-8570
▁만들까	-8571
▁만들면	-8572
▁만족을	-8573
▁만족해	-8574
▁만지지	-8575
▁만큼만	-8576
▁많다고	-8577
▁많은가	-8578
▁많은걸	-8579
▁말랭이	-8580
▁말로만	-8581
▁말문이	-8582
▁말았네	-8583
▁말이죠	-8584
▁말자고	-8585
▁말조심	-8586
▁말투는	-8587
▁말하기	-8588
▁말해서	-8589
▁맘대로	-8590
▁맛나게	-8591
▁맞겠지	-8592
▁맞다고	-8593
▁맞아서	-8594
▁맞으면	-8595
▁맞출까	-8596
▁매몰찬	-8597
▁매순간	-8598
▁머릿결	-8599
▁곤	-8600
▁깼	-8601
▁뷔	-8602
▁잼	-8603
▁젊	-8604
▁탐	-8605
감정	-8606
견례	-8607
고민	-8608
기다	-8609
깐깐	-8610
날이	-8611
놓지	-8612
빌려	-8613
서클	-8614
차단	-8615
클링	-8616
▁같았	-8617
▁거릴	-8618
▁곤두	-8619
▁깐깐	-8620
▁놀지	-8621
▁대중	-8622
▁드론	-8623
▁밥도	-8624
▁변기	-8625
▁분양	-8626
▁뷔페	-8627
▁싫대	-8628
▁심장	-8629
▁욕먹	-8630
▁이후	-8631
▁잠겨	-8632
▁주체	-8633
▁취급	-8634
▁타입	-8635
▁한결	-8636
내는게	-8637
는데도	-8638
돌아오	-8639
라고는	-8640
소에서	-8641
시켜야	-8642
잡이가	-8643
크서클	-8644
하기만	-8645
▁같기도	-8646
▁과정을	-8647
▁그런건	-8648
▁내려놔	-8649
▁누구를	-8650
▁동성애	-8651
▁먹거나	-8652
▁먹먹함	-8653
▁먹어도	-8654
▁먹어서	-8655
▁먹었니	-8656
▁먹을래	-8657
▁먼저일	-8658
▁멀리서	-8659
▁멈추고	-8660
▁멋있게	-8661
▁멋있어	-8662
▁명상을	-8663
▁몇시간	-8664
▁몇일째	-8665
▁모기가	-8666
▁모두가	-8667
▁모잘라	-8668
▁모처럼	-8669
▁모태솔	-8670
▁몰라서	-8671
▁몰랐던	-8672
▁못난거	-8673
▁못잊을	-8674
▁못지우	-8675
▁못하네	-8676
▁못하죠	-8677
▁무너짐	-8678
▁무뎌져	-8679
▁무뎌진	-8680
▁무리에	-8681
▁무모한	-8682
▁무서움	-8683
▁무섭다	-8684
▁문열다	-8685
▁문자가	-8686
▁문자를	-8687
▁물건들	-8688
▁물증이	-8689
▁뭘하면	-8690
▁미련만	-8691
▁미련없	-8692
▁미소짓	-8693
▁미치네	-8694
▁미화되	-8695
▁믿기지	-8696
▁믿는데	-8697
▁밀당일	-8698
▁바꾸면	-8699
▁규	-8700
▁듬	-8701
▁섞	-8702
▁쳇	-8703
니티	-8704
님들	-8705
댄디	-8706
된거	-8707
드시	-8708
름이	-8709
마려	-8710
받은	-8711
받쳐	-8712
성에	-8713
수리	-8714
스터	-8715
야돼	-8716
올게	-8717
이게	-8718
인건	-8719
있다	-8720
자랑	-8721
절할	-8722
줘도	-8723
▁골인	-8724
▁그쪽	-8725
▁끝의	-8726
▁나쁨	-8727
▁놀려	-8728
▁다듬	-8729
▁답인	-8730
▁댄디	-8731
▁말지	-8732
▁부려	-8733
▁비비	-8734
▁선연	-8735
▁실험	-8736
▁아래	-8737
▁어딘	-8738
▁잘된	-8739
▁저기	-8740
▁저의	-8741
스터를	-8742
언하는	-8743
▁가보는	-8744
▁괴로운	-8745
▁나이를	-8746
▁도자기	-8747
▁들어야	-8748
▁때마다	-8749
▁민감한	-8750
▁바꿨어	-8751
▁바닥을	-8752
▁바디워	-8753
▁바보짓	-8754
▁바빠도	-8755
▁바쁘네	-8756
▁반대가	-8757
▁반배정	-8758
▁반에서	-8759
▁반했어	-8760
▁받겠지	-8761
▁받아드	-8762
▁받아줄	-8763
▁받지도	-8764
▁발전이	-8765
▁발전할	-8766
▁밥이나	-8767
▁배려가	-8768
▁배불러	-8769
▁배에서	-8770
▁배워도	-8771
▁버려진	-8772
▁버렸다	-8773
▁버텨요	-8774
▁버티지	-8775
▁벗어날	-8776
▁베였어	-8777
▁베프랑	-8778
▁	-8779
.	-8780
요	-8781
이	-8782
어	-8783
는	-8784
하	-8785
아	-8786
가	-8787
지	-8788
다	-8789
고	-8790
해	-8791
나	-8792
사	-8793
을	-8794
도	-8795
게	-8796
자	-8797
세	-8798
거	-8799
좋	-8800
보	-8801
에	-8802
은	-8803
?	-8804
까	-8805
기	-8806
있	-8807
한	-8808
면	-8809
데	-8810
네	-8811
만	-8812
니	-8813
랑	-8814
서	-8815
마	-8816
그	-8817
겠	-8818
로	-8819
리	-8820
람	-8821
무	-8822
시	-8823
인	-8824
야	-8825
남	-8826
들	-8827
친	-8828
같	-8829
생	-8830
예	-8831
일	-8832
라	-8833
안	-8834
구	-8835
여	-8836
수	-8837
할	-8838
연	-8839
정	-8840
으	-8841
말	-8842
내	-8843
없	-8844
를	-8845
싶	-8846
의	-8847
주	-8848
음	-8849
너	-8850
봐	-8851
제	-8852
오	-8853
죠	-8854
각	-8855
힘	-8856
것	-8857
려	-8858
별	-8859
대	-8860
상	-8861
신	-8862
했	-8863
잘	-8864
진	-8865
간	-8866
애	-8867
많	-8868
않	-8869
되	-8870
더	-8871
바	-8872
스	-8873
부	-8874
전	-8875
헤	-8876
락	-8877
었	-8878
짝	-8879
건	-8880
모	-8881
썸	-8882
때	-8883
드	-8884
중	-8885
못	-8886
운	-8887
워	-8888
심	-8889
혼	-8890
저	-8891
화	-8892
금	-8893
비	-8894
테	-8895
물	-8896
러	-8897
미	-8898
알	-8899
먹	-8900
걸	-8901
장	-8902
길	-8903
래	-8904
결	-8905
습	-8906
날	-8907
분	-8908
우	-8909
적	-8910
받	-8911
달	-8912
좀	-8913
선	-8914
후	-8915
행	-8916
감	-8917
르	-8918
당	-8919
녀	-8920
타	-8921
히	-8922
늘	-8923
소	-8924
았	-8925
직	-8926
살	-8927
돼	-8928
뭐	-8929
회	-8930
방	-8931
동	-8932
든	-8933
관	-8934
될	-8935
차	-8936
복	-8937
와	-8938
질	-8939
끝	-8940
속	-8941
과	-8942
찮	-8943
실	-8944
조	-8945
트	-8946
른	-8947
계	-8948
잊	-8949
공	-8950
괜	-8951
!	-8952
집	-8953
치	-8954
문	-8955
귀	-8956
던	-8957
두	-8958
년	-8959
졌	-8960
왜	-8961
처	-8962
편	-8963
떻	-8964
난	-8965
답	-8966
원	-8967
필	-8968
줄	-8969
왔	-8970
재	-8971
유	-8972
개	-8973
볼	-8974
느	-8975
울	-8976
런	-8977
준	-8978
꾸	-8979
렇	-8980
떨	-8981
성	-8982
또	-8983
새	-8984
짜	-8985
경	-8986
져	-8987
버	-8988
났	-8989
피	-8990
언	-8991
입	-8992
식	-8993
법	-8994
작	-8995
참	-8996
프	-8997
배	-8998
추	-8999
번	-9000
줘	-9001
눈	-9002
카	-9003
함	-9004
노	-9005
디	-9006
싫	-9007
학	-9008
맞	-9009
반	-9010
잡	-9011
현	-9012
억	-9013
올	-9014
단	-9015
위	-9016
잠	-9017
담	-9018
백	-9019
민	-9020
점	-9021
술	-9022
표	-9023
변	-9024
통	-9025
따	-9026
먼	-9027
겨	-9028
련	-9029
쓰	-9030
매	-9031
누	-9032
근	-9033
불	-9034
능	-9035
돌	-9036
루	-9037
천	-9038
긴	-9039
발	-9040
갈	-9041
듯	-9042
력	-9043
톡	-9044
머	-9045
얼	-9046
터	-9047
확	-9048
찾	-9049
합	-9050
꿈	-9051
막	-9052
절	-9053
쉬	-9054
레	-9055
1	-9056
놀	-9057
됐	-9058
용	-9059
교	-9060
월	-9061
봅	-9062
영	-9063
째	-9064
몰	-9065
증	-9066
릴	-9067
파	-9068
젠	-9069
럴	-9070
청	-9071
호	-9072
싸	-9073
약	-9074
움	-9075
돈	-9076
랄	-9077
취	-9078
명	-9079
큼	-9080
떠	-9081
군	-9082
닌	-9083
외	-9084
놓	-9085
빠	-9086
국	-9087
망	-9088
충	-9089
겼	-9090
된	-9091
2	-9092
임	-9093
갑	-9094
강	-9095
앞	-9096
믿	-9097
업	-9098
접	-9099
순	-9100
쉽	-9101
커	-9102
짐	-9103
키	-9104
름	-9105
맘	-9106
냥	-9107
택	-9108
3	-9109
였	-9110
뭘	-9111
온	-9112
크	-9113
폰	-9114
께	-9115
쁜	-9116
엄	-9117
텐	-9118
,	-9119
걱	-9120
렸	-9121
떤	-9122
랍	-9123
설	-9124
럽	-9125
착	-9126
침	-9127
혀	-9128
셨	-9129
슨	-9130
허	-9131
ᅲ	-9132
맛	-9133
출	-9134
휴	-9135
떡	-9136
죽	-9137
황	-9138
갔	-9139
님	-9140
쁘	-9141
양	-9142
태	-9143
곳	-9144
럼	-9145
잔	-9146
쳐	-9147
궁	-9148
존	-9149
최	-9150
록	-9151
슬	-9152
냐	-9153
린	-9154
열	-9155
첫	-9156
급	-9157
깨	-9158
덜	-9159
씩	-9160
형	-9161
넘	-9162
격	-9163
극	-9164
란	-9165
벌	-9166
족	-9167
험	-9168
본	-9169
켜	-9170
포	-9171
픈	-9172
낌	-9173
써	-9174
환	-9175
체	-9176
축	-9177
티	-9178
늦	-9179
종	-9180
밥	-9181
붙	-9182
플	-9183
견	-9184
몸	-9185
완	-9186
줬	-9187
항	-9188
목	-9189
숙	-9190
산	-9191
팅	-9192
폭	-9193
향	-9194
씨	-9195
찍	-9196
탈	-9197
투	-9198
글	-9199
봤	-9200
손	-9201
책	-9202
초	-9203
0	-9204
5	-9205
풀	-9206
꼭	-9207
뿐	-9208
즐	-9209
챙	-9210
빨	-9211
욕	-9212
웃	-9213
즘	-9214
짓	-9215
평	-9216
활	-9217
굴	-9218
멋	-9219
뭔	-9220
색	-9221
셔	-9222
코	-9223
페	-9224
냈	-9225
맨	-9226
밤	-9227
솔	-9228
슴	-9229
척	-9230
풍	-9231
4	-9232
메	-9233
큰	-9234
꽃	-9235
닐	-9236
둘	-9237
몇	-9238
곤	-9239
낼	-9240
똑	-9241
밀	-9242
응	-9243
졸	-9244
끔	-9245
껴	-9246
딱	-9247
픔	-9248
덤	-9249
독	-9250
뜻	-9251
듣	-9252
랜	-9253
림	-9254
벽	-9255
뻐	-9256
핸	-9257
흘	-9258
갖	-9259
괴	-9260
끊	-9261
퇴	-9262
6	-9263
병	-9264
역	-9265
익	-9266
며	-9267
밌	-9268
봄	-9269
랐	-9270
밖	-9271
베	-9272
빼	-9273
숨	-9274
승	-9275
악	-9276
웠	-9277
짧	-9278
쳤	-9279
흐	-9280
흔	-9281
쓸	-9282
얘	-9283
옷	-9284
꺼	-9285
뒤	-9286
찬	-9287
칠	-9288
끼	-9289
핑	-9290
렵	-9291
롭	-9292
멀	-9293
뎌	-9294
득	-9295
케	-9296
숭	-9297
킨	-9298
박	-9299
칭	-9300
깐	-9301
낫	-9302
료	-9303
빌	-9304
석	-9305
엇	-9306
찌	-9307
춰	-9308
펴	-9309
깊	-9310
념	-9311
씀	-9312
염	-9313
쩌	-9314
골	-9315
꿨	-9316
녕	-9317
십	-9318
ᄒ	-9319
겁	-9320
꿀	-9321
끄	-9322
멍	-9323
읽	-9324
쯤	-9325
창	-9326
철	-9327
클	-9328
퍼	-9329
헷	-9330
등	-9331
벗	-9332
엔	-9333
효	-9334
ᅮ	-9335
곧	-9336
냉	-9337
놈	-9338
북	-9339
뻔	-9340
삶	-9341
섭	-9342
탁	-9343
팔	-9344
냄	-9345
덕	-9346
렀	-9347
류	-9348
립	-9349
삼	-9350
싱	-9351
채	-9352
판	-9353
김	-9354
덧	-9355
딩	-9356
뜨	-9357
맥	-9358
샀	-9359
쇼	-9360
쌓	-9361
특	-9362
품	-9363
권	-9364
꼬	-9365
꿔	-9366
높	-9367
례	-9368
론	-9369
센	-9370
션	-9371
옆	-9372
육	-9373
쟁	-9374
쩔	-9375
콩	-9376
패	-9377
희	-9378
됨	-9379
땐	-9380
랬	-9381
릿	-9382
턴	-9383
틀	-9384
헛	-9385
7	-9386
귄	-9387
녁	-9388
눠	-9389
밍	-9390
브	-9391
셀	-9392
토	-9393
8	-9394
걷	-9395
놔	-9396
됩	-9397
량	-9398
멈	-9399
삭	-9400
액	-9401
죄	-9402
즈	-9403
깝	-9404
끈	-9405
농	-9406
닥	-9407
듭	-9408
엽	-9409
옴	-9410
웨	-9411
잤	-9412
뀌	-9413
뉴	-9414
뒷	-9415
렌	-9416
슷	-9417
썼	-9418
씹	-9419
잖	-9420
푸	-9421
ᄏ	-9422
걔	-9423
귈	-9424
규	-9425
깍	-9426
낭	-9427
넌	-9428
딸	-9429
뛰	-9430
링	-9431
벼	-9432
블	-9433
뿌	-9434
춥	-9435
콜	-9436
혹	-9437
획	-9438
9	-9439
긍	-9440
깔	-9441
깜	-9442
둬	-9443
몽	-9444
왕	-9445
잃	-9446
첩	-9447
탄	-9448
탔	-9449
틱	-9450
헬	-9451
겹	-9452
끌	-9453
낸	-9454
널	-9455
듬	-9456
딴	-9457
랫	-9458
렘	-9459
룩	-9460
맙	-9461
뽑	-9462
옥	-9463
쪽	-9464
컴	-9465
콘	-9466
털	-9467
값	-9468
갚	-9469
깎	-9470
꼼	-9471
끗	-9472
납	-9473
낮	-9474
닉	-9475
닮	-9476
롱	-9477
뤄	-9478
벚	-9479
봉	-9480
빈	-9481
빛	-9482
빡	-9483
샤	-9484
쓴	-9485
씻	-9486
앉	-9487
엉	-9488
찔	-9489
춘	-9490
칼	-9491
컨	-9492
탕	-9493
텨	-9494
푹	-9495
힌	-9496
꾹	-9497
뀔	-9498
낀	-9499
닫	-9500
둔	-9501
땡	-9502
뚝	-9503
뢰	-9504
볶	-9505
빵	-9506
뻑	-9507
뽀	-9508
쐬	-9509
왤	-9510
짱	-9511
콕	-9512
콤	-9513
햇	-9514
혔	-9515
훈	-9516
객	-9517
검	-9518
곁	-9519
껏	-9520
꼈	-9521
늙	-9522
딪	-9523
땀	-9524
땅	-9525
띄	-9526
렬	-9527
뱃	-9528
벤	-9529
싼	-9530
쌩	-9531
씁	-9532
얻	-9533
잇	-9534
잼	-9535
젖	-9536
징	-9537
찰	-9538
춤	-9539
층	-9540
켠	-9541
팍	-9542
휘	-9543
흡	-9544
흥	-9545
곰	-9546
끓	-9547
낚	-9548
넣	-9549
녹	-9550
눅	-9551
늠	-9552
닝	-9553
닿	-9554
둥	-9555
뜰	-9556
령	-9557
롤	-9558
묻	-9559
봇	-9560
쁠	-9561
섬	-9562
송	-9563
쌍	-9564
쑥	-9565
앗	-9566
옳	-9567
욱	-9568
웬	-9569
젯	-9570
쩍	-9571
찢	-9572
찼	-9573
첨	-9574
탐	-9575
톱	-9576
툰	-9577
툴	-9578
툼	-9579
팩	-9580
팸	-9581
흑	-9582
겟	-9583
곡	-9584
곱	-9585
광	-9586
궈	-9587
긁	-9588
긋	-9589
꽤	-9590
꾼	-9591
낙	-9592
넓	-9593
둠	-9594
렜	-9595
률	-9596
릅	-9597
릎	-9598
밑	-9599
밟	-9600
삐	-9601
쌈	-9602
썹	-9603
쏟	-9604
쏠	-9605
왠	-9606
짠	-9607
쪼	-9608
쫄	-9609
쫌	-9610
찐	-9611
찜	-9612
켰	-9613
쿨	-9614
템	-9615
틈	-9616
틋	-9617
폼	-9618
퓨	-9619
헌	-9620
홀	-9621
갠	-9622
겪	-9623
굳	-9624
껄	-9625
낳	-9626
댈	-9627
댓	-9628
덥	-9629
돋	-9630
뒹	-9631
떼	-9632
똥	-9633
렛	-9634
릇	-9635
맡	-9636
맴	-9637
맺	-9638
멘	-9639
묵	-9640
밉	-9641
밝	-9642
범	-9643
볍	-9644
빙	-9645
빚	-9646
쁨	-9647
쉴	-9648
슈	-9649
싹	-9650
쎄	-9651
씌	-9652
압	-9653
앨	-9654
엠	-9655
엮	-9656
윗	-9657
율	-9658
줌	-9659
쥐	-9660
짰	-9661
쪄	-9662
쭉	-9663
총	-9664
촬	-9665
컥	-9666
컸	-9667
탓	-9668
텁	-9669
텔	-9670
팀	-9671
팁	-9672
팠	-9673
펑	-9674
푼	-9675
핫	-9676
헥	-9677
힐	-9678
갱	-9679
겉	-9680
겐	-9681
깰	-9682
꽉	-9683
꽝	-9684
낄	-9685
넋	-9686
넷	-9687
놨	-9688
눌	-9689
닷	-9690
댄	-9691
됬	-9692
뒀	-9693
딘	-9694
딛	-9695
딜	-9696
땜	-9697
떴	-9698
뚫	-9699
뜬	-9700
랙	-9701
램	-9702
몬	-9703
묘	-9704
벅	-9705
빴	-9706
샌	-9707
샜	-9708
썩	-9709
앱	-9710
엊	-9711
엿	-9712
옵	-9713
왓	-9714
욜	-9715
웹	-9716
젤	-9717
졋	-9718
좌	-9719
짼	-9720
촉	-9721
컷	-9722
쿠	-9723
쿵	-9724
퀴	-9725
킬	-9726
턱	-9727
텀	-9728
텅	-9729
툭	-9730
팬	-9731
풋	-9732
헐	-9733
홈	-9734
홧	-9735
훔	-9736
흠	-9737
걍	-9738
겜	-9739
괘	-9740
깅	-9741
깬	-9742
깼	-9743
꼰	-9744
꼴	-9745
꽂	-9746
꿰	-9747
넛	-9748
넥	-9749
넹	-9750
녔	-9751
논	-9752
뇌	-9753
눕	-9754
눴	-9755
닦	-9756
닭	-9757
댔	-9758
덩	-9759
덮	-9760
돕	-9761
뚱	-9762
띠	-9763
띰	-9764
띵	-9765
랖	-9766
랭	-9767
렉	-9768
렐	-9769
렴	-9770
룸	-9771
륜	-9772
륵	-9773
릭	-9774
맹	-9775
몫	-9776
뮤	-9777
밭	-9778
벨	-9779
볕	-9780
붓	-9781
뷔	-9782
빽	-9783
뺏	-9784
뻤	-9785
뽕	-9786
뿅	-9787
삔	-9788
샐	-9789
샘	-9790
섞	-9791
섣	-9792
섯	-9793
섰	-9794
섹	-9795
쇠	-9796
숏	-9797
숫	-9798
썰	-9799
쑤	-9800
씰	-9801
씸	-9802
얇	-9803
얽	-9804
옛	-9805
옮	-9806
왼	-9807
웁	-9808
웽	-9809
윙	-9810
젊	-9811
젝	-9812
줍	-9813
즙	-9814
짚	-9815
짤	-9816
짬	-9817
쪘	-9818
쭤	-9819
찡	-9820
찹	-9821
챘	-9822
쳇	-9823
츠	-9824
측	-9825
칩	-9826
캄	-9827
캐	-9828
캔	-9829
캬	-9830
켓	-9831
콧	-9832
쿼	-9833
킁	-9834
킥	-9835
킹	-9836
텼	-9837
톤	-9838
퉁	-9839
튀	-9840
튜	-9841
핀	-9842
헹	-9843
혈	-9844
혐	-9845
훅	-9846
훌	-9847
휙	-9848
흰	-9849
ᄎ	-9850
갇	-9851
갯	-9852
곗	-9853
굶	-9854
굽	-9855
굿	-9856
궜	-9857
귐	-9858
균	-9859
귤	-9860
깃	-9861
깠	-9862
깡	-9863
꺽	-9864
껀	-9865
꼿	-9866
꽁	-9867
꽈	-9868
꿎	-9869
꿧	-9870
꿩	-9871
뀐	-9872
냅	-9873
놉	-9874
뇨	-9875
뇽	-9876
늪	-9877
닙	-9878
닳	-9879
댜	-9880
덴	-9881
델	-9882
뎠	-9883
둑	-9884
듀	-9885
듦	-9886
딧	-9887
딨	-9888
땠	-9889
떄	-9890
뗄	-9891
뛴	-9892
뜁	-9893
뜩	-9894
뜸	-9895
랠	-9896
랩	-9897
럿	-9898
렁	-9899
렷	-9900
롯	-9901
룰	-9902
룽	-9903
맷	-9904
멤	-9905
몹	-9906
뭇	-9907
뭉	-9908
뭣	-9909
밸	-9910
뱄	-9911
뱉	-9912
벋	-9913
벴	-9914
뵈	-9915
붕	-9916
빔	-9917
빗	-9918
뺄	-9919
뺴	-9920
뻘	-9921
뻣	-9922
뻥	-9923
뿍	-9924
삽	-9925
삿	-9926
셥	-9927
솜	-9928
숍	-9929
쉼	-9930
쌀	-9931
쌤	-9932
쎈	-9933
쎌	-9934
쏘	-9935
쏜	-9936
씬	-9937
씽	-9938
앙	-9939
얄	-9940
엘	-9941
엣	-9942
옇	-9943
욌	-9944
윤	-9945
잌	-9946
잦	-9947
잿	-9948
젔	-9949
젹	-9950
좁	-9951
쥬	-9952
즉	-9953
쨌	-9954
쩐	-9955
쩝	-9956
쩡	-9957
쫙	-9958
쭈	-9959
찝	-9960
챔	-9961
챗	-9962
촌	-9963
췄	-9964
츄	-9965
츤	-9966
칙	-9967
칫	-9968
컹	-9969
쾌	-9970
큐	-9971
킴	-9972
탑	-9973
탱	-9974
텄	-9975
텍	-9976
텻	-9977
퉜	-9978
펜	-9979
펨	-9980
펭	-9981
펼	-9982
폐	-9983
퐈	-9984
픕	-9985
픽	-9986
핍	-9987
핏	-9988
햐	-9989
헉	-9990
협	-9991
혜	-9992
훨	-9993
휨	-9994
힙	-9995
