<pad>	0
<s>	0
</s>	0
<unk>	0
▁.	-0
세요	-1
▁사	-2
▁좋	-3
▁있	-4
▁이	-5
▁거	-6
▁?	-7
하는	-8
보세요	-9
▁그	-10
▁나	-11
▁아	-12
예요	-13
▁마	-14
▁사람	-15
▁좋아	-16
어요	-17
▁같	-18
▁거예요	-19
▁다	-20
▁생	-21
▁하	-22
▁어	-23
▁가	-24
▁안	-25
▁수	-26
▁해	-27
네요	-28
▁사랑	-29
▁연	-30
▁없	-31
니다	-32
▁생각	-33
▁잘	-34
▁자	-35
▁힘	-36
친구	-37
▁여	-38
봐요	-39
▁싶	-40
▁너	-41
▁많	-42
▁말	-43
▁남	-44
▁것	-45
▁만	-46
▁시	-47
는데	-48
▁내	-49
▁마음	-50
▁않	-51
▁너무	-52
아요	-53
▁보	-54
▁기	-55
▁오	-56
▁바	-57
▁지	-58
▁좋아하는	-59
▁더	-60
해보세요	-61
▁이별	-62
▁정	-63
▁연락	-64
▁헤	-65
▁일	-66
하고	-67
▁헤어	-68
▁짝	-69
▁있을	-70
▁고	-71
▁썸	-72
▁여자	-73
▁남자	-74
으면	-75
▁되	-76
▁힘들	-77
▁좋은	-78
▁모	-79
▁한	-80
▁알	-81
나봐요	-82
하지	-83
▁많이	-84
▁시간	-85
▁상	-86
▁게	-87
▁사람이	-88
▁때	-89
에요	-90
▁저	-91
으로	-92
▁못	-93
▁무	-94
▁친구	-95
에서	-96
▁건	-97
▁전	-98
▁주	-99
한테	-100
▁먹	-101
▁중	-102
▁좀	-103
▁결	-104
▁같아요	-105
까요	-106
해요	-107
▁!	-108
▁부	-109
겠어요	-110
▁있어요	-111
▁싶어	-112
▁대	-113
▁인	-114
▁조	-115
▁살	-116
▁당	-117
▁받	-118
▁뭐	-119
▁선	-120
하면	-121
▁오늘	-122
▁제	-123
▁될	-124
▁후	-125
▁같아	-126
▁할	-127
하세요	-128
이에요	-129
▁만나	-130
▁괜	-131
하게	-132
▁걸	-133
▁끝	-134
겠네요	-135
주세요	-136
▁소	-137
에게	-138
▁이제	-139
▁미	-140
▁자신	-141
▁드	-142
▁진	-143
겠지	-144
▁들	-145
▁좋을	-146
습니다	-147
▁괜찮	-148
▁아니	-149
▁마세요	-150
▁잊	-151
▁필	-152
라고	-153
▁감	-154
▁있는	-155
▁하는	-156
▁마음이	-157
▁연애	-158
게요	-159
친구가	-160
▁비	-161
▁내가	-162
▁필요	-163
는게	-164
▁스	-165
▁해보세요	-166
▁왜	-167
다면	-168
▁모르	-169
▁어떻	-170
▁차	-171
▁집	-172
▁예	-173
▁다른	-174
가봐요	-175
▁공	-176
▁어떻게	-177
▁타	-178
▁행	-179
▁혼	-180
▁짝남	-181
▁날	-182
▁물	-183
▁헤어진	-184
▁돼	-185
▁시간이	-186
▁서	-187
다고	-188
▁도	-189
▁신	-190
▁애	-191
▁당신	-192
▁없어	-193
▁방	-194
겠어	-195
겠죠	-196
해도	-197
▁싶다	-198
▁다시	-199
사랑	-200
▁관	-201
▁우	-202
▁맞	-203
▁했	-204
▁있어	-205
인데	-206
▁눈	-207
▁또	-208
들이	-209
▁정말	-210
▁결혼	-211
▁노	-212
▁정리	-213
▁지금	-214
▁하고	-215
▁잠	-216
▁수도	-217
▁재	-218
▁싫	-219
▁기다	-220
▁혼자	-221
▁계	-222
▁찾	-223
▁중요	-224
▁새	-225
▁참	-226
▁그런	-227
야지	-228
이네요	-229
▁따	-230
▁준	-231
할까	-232
▁편	-233
▁행복	-234
▁데	-235
렇게	-236
▁위	-237
▁같이	-238
▁조금	-239
어보세요	-240
▁언	-241
▁것도	-242
은데	-243
▁고민	-244
▁놀	-245
▁얼	-246
▁추	-247
라요	-248
▁확	-249
▁두	-250
▁아직	-251
▁짝사랑	-252
▁쉬	-253
▁피	-254
▁먼	-255
이라	-256
▁의	-257
▁달	-258
▁반	-259
▁성	-260
지도	-261
지만	-262
▁선물	-263
▁보고	-264
보다	-265
▁누	-266
▁아무	-267
▁자꾸	-268
▁준비	-269
▁찾아	-270
▁힘든	-271
합니다	-272
▁느	-273
▁배	-274
▁저도	-275
▁변	-276
▁고백	-277
볼까	-278
▁짝녀	-279
까지	-280
거예요	-281
▁없어요	-282
▁맛	-283
▁술	-284
▁카	-285
▁그럴	-286
▁바랄	-287
니까요	-288
겠다	-289
야기	-290
이죠	-291
▁꿈	-292
▁화	-293
▁먼저	-294
▁운	-295
▁서로	-296
▁없는	-297
▁진짜	-298
▁바랄게요	-299
▁몰	-300
을까	-301
▁돼요	-302
▁후회	-303
봅니다	-304
▁충	-305
▁방법	-306
▁제가	-307
해야	-308
▁심	-309
▁적	-310
해서	-311
▁사귀	-312
▁헤어지	-313
▁이야기	-314
▁문	-315
▁직	-316
▁시작	-317
▁헤어진지	-318
▁동	-319
▁들어	-320
▁귀	-321
▁그녀	-322
▁돌	-323
▁해야	-324
▁답	-325
▁불	-326
▁올	-327
에는	-328
이야	-329
인가	-330
▁계속	-331
▁하나	-332
▁있을까	-333
▁버	-334
▁나를	-335
해주세요	-336
▁1	-337
▁받아	-338
▁아닌	-339
▁매	-340
▁감정	-341
▁일이	-342
▁줄	-343
▁마음을	-344
▁좋아요	-345
▁왔	-346
이트	-347
▁기분	-348
▁보세요	-349
▁공부	-350
▁될까	-351
▁사랑이	-352
▁여자친구가	-353
려고	-354
▁먹고	-355
▁남자친구가	-356
기가	-357
▁가능	-358
▁돈	-359
▁만들	-360
▁힘드	-361
▁실	-362
했어	-363
랍니다	-364
▁드세요	-365
▁여자친구	-366
면서	-367
▁현	-368
다는	-369
대로	-370
보는	-371
▁신경	-372
▁이상	-373
▁하루	-374
▁하세요	-375
▁세	-376
리는	-377
▁좋죠	-378
▁않아요	-379
▁곳	-380
▁떨	-381
▁쓰	-382
▁걱	-383
▁머	-384
▁걱정	-385
▁많은	-386
▁하지	-387
▁간	-388
니까	-389
지는	-390
▁떠	-391
▁취	-392
하기	-393
▁싫어	-394
▁알아	-395
▁믿	-396
▁속	-397
자고	-398
▁분	-399
▁원	-400
▁함	-401
나요	-402
▁상대	-403
입니다	-404
▁바랍니다	-405
▁그래	-406
▁영	-407
▁표	-408
▁회	-409
▁기억	-410
하는게	-411
▁쉽	-412
▁해요	-413
▁사랑하는	-414
▁,	-415
▁데이트	-416
▁힘들어	-417
▁관심	-418
▁상처	-419
▁남자친구	-420
▁맘	-421
이랑	-422
적인	-423
▁말해보세요	-424
▁장	-425
▁축	-426
▁커	-427
스러	-428
▁언제	-429
▁생각해요	-430
▁입	-431
로운	-432
▁맛있	-433
▁여행	-434
▁충분	-435
▁어떤	-436
▁어떨	-437
▁앞	-438
다가	-439
▁무슨	-440
▁있으면	-441
▁좋겠어요	-442
▁엄	-443
▁용	-444
▁학	-445
텐데	-446
▁대화	-447
▁있었	-448
▁친구가	-449
▁최	-450
하죠	-451
▁그냥	-452
▁않는	-453
▁카톡	-454
▁할까	-455
▁사람은	-456
▁이렇게	-457
▁2	-458
▁뭘	-459
부터	-460
이었	-461
▁나만	-462
▁함께	-463
▁구	-464
▁놓	-465
▁발	-466
▁요	-467
▁물어	-468
▁헤어졌	-469
▁3	-470
▁약	-471
▁외	-472
▁내일	-473
▁않을	-474
▁슬	-475
▁싸	-476
인지	-477
▁누구	-478
▁머리	-479
▁안돼	-480
▁오래	-481
▁이해	-482
▁몰라요	-483
▁힘드네	-484
▁점	-485
하네	-486
▁여친	-487
▁표현	-488
▁궁	-489
▁열	-490
가는	-491
▁사랑은	-492
▁자신을	-493
▁과	-494
라도	-495
▁결정	-496
▁많아	-497
▁이유	-498
▁전화	-499
겠지만	-500
▁길	-501
▁됐	-502
▁궁금	-503
▁어디	-504
▁운동	-505
▁사람을	-506
▁새로운	-507
기도	-508
리고	-509
▁선택	-510
▁하면	-511
▁단	-512
▁듯	-513
▁별	-514
▁처	-515
▁부담	-516
▁썸남	-517
▁아프	-518
▁어떨까요	-519
▁생각해보세요	-520
▁설	-521
▁돌아	-522
▁미련	-523
▁안되	-524
▁한달	-525
▁있는데	-526
▁늦	-527
▁복	-528
▁호	-529
트레	-530
했던	-531
▁생겼	-532
▁주세요	-533
▁깨	-534
▁잡	-535
▁즐	-536
▁치	-537
어도	-538
▁스트레	-539
▁죽	-540
▁타는	-541
▁해도	-542
개월	-543
▁노력	-544
▁보내	-545
▁나한테	-546
▁유	-547
▁챙	-548
거나	-549
었어	-550
해주	-551
▁가고	-552
▁그만	-553
▁다가	-554
▁따라	-555
▁말고	-556
▁직접	-557
▁첫	-558
았는데	-559
▁생각나	-560
▁좋겠네요	-561
▁막	-562
▁순	-563
▁질	-564
나봐	-565
▁그러	-566
▁때문	-567
▁만큼	-568
▁않아	-569
▁지나	-570
▁생각이	-571
▁아니에요	-572
▁와	-573
움이	-574
처럼	-575
▁만날	-576
▁어떡	-577
▁이젠	-578
▁인연	-579
▁생각을	-580
▁연락이	-581
▁갑	-582
▁경	-583
▁번	-584
▁벌	-585
▁항	-586
군요	-587
이나	-588
▁그게	-589
▁소개	-590
▁않았	-591
▁재미	-592
▁항상	-593
▁같은데	-594
▁괜찮아	-595
▁신경쓰	-596
▁이별을	-597
나봅니다	-598
▁갈	-599
▁멋	-600
▁쉽지	-601
▁어려	-602
▁인생	-603
▁잘못	-604
으세요	-605
▁그렇게	-606
▁짝남이	-607
▁완	-608
▁휴	-609
해지	-610
▁남친	-611
▁싶은	-612
▁저는	-613
▁조심	-614
▁회사	-615
▁마음에	-616
▁허	-617
가요	-618
▁같은	-619
▁노래	-620
▁문제	-621
▁처음	-622
적으로	-623
했는데	-624
▁바라요	-625
▁좋겠다	-626
인가봐요	-627
▁스트레스	-628
▁몸	-629
어나	-630
▁느낌	-631
▁상황	-632
▁아파	-633
▁난	-634
▁붙	-635
거라	-636
기를	-637
보고	-638
리세요	-639
하네요	-640
하는데	-641
려보세요	-642
▁모르겠어	-643
는지	-644
하다	-645
▁나이	-646
▁달라	-647
▁때가	-648
▁변화	-649
▁축하	-650
▁중요한	-651
▁개	-652
▁목	-653
▁볼	-654
▁봐	-655
▁손	-656
▁천	-657
▁크	-658
스럽	-659
습관	-660
▁만났	-661
▁어때	-662
▁우리	-663
▁꼭	-664
▁덜	-665
▁웃	-666
졌어	-667
▁답답	-668
▁위로	-669
▁추억	-670
▁이별은	-671
▁찾아보세요	-672
▁넘	-673
▁기대	-674
▁다음	-675
▁챙겨	-676
▁확실	-677
▁사랑을	-678
▁가보세요	-679
▁괜찮아요	-680
▁큰	-681
▁가는	-682
▁결국	-683
▁나는	-684
▁말씀	-685
▁말을	-686
▁사이	-687
▁세상	-688
▁요즘	-689
▁잊어	-690
▁현실	-691
▁생각해	-692
▁충분히	-693
▁빠	-694
▁절	-695
▁친	-696
▁포	-697
▁그렇	-698
▁영화	-699
▁힘내	-700
▁대화를	-701
▁도움이	-702
▁좋겠어	-703
▁태	-704
▁흘	-705
만에	-706
지막	-707
지요	-708
▁의미	-709
▁있죠	-710
▁여자애	-711
걸까	-712
동안	-713
심히	-714
았어	-715
이네	-716
▁가지	-717
▁않은	-718
▁언젠	-719
▁추천	-720
▁화장	-721
▁마음의	-722
▁마지막	-723
▁사랑한	-724
▁아직도	-725
▁연락을	-726
▁열심히	-727
▁물어보세요	-728
▁뭔	-729
▁밥	-730
▁종	-731
▁청	-732
▁환	-733
감이	-734
것도	-735
는거	-736
싶어	-737
▁먹어	-738
▁아침	-739
▁얼른	-740
▁정신	-741
이라도	-742
▁말아요	-743
▁좋을까	-744
▁짜	-745
▁풀	-746
▁가슴	-747
▁건강	-748
▁나쁜	-749
▁말해	-750
▁부모	-751
▁습관	-752
▁어제	-753
▁집에	-754
▁확인	-755
▁사랑의	-756
▁상대방	-757
▁싶은데	-758
▁오늘도	-759
▁식	-760
▁울	-761
라면	-762
보면	-763
일까	-764
▁가져	-765
▁관계	-766
▁되었	-767
▁만남	-768
▁때문에	-769
▁시간을	-770
▁짝녀가	-771
▁헤어짐	-772
으니까요	-773
▁연락해보세요	-774
▁금	-775
▁된	-776
▁몇	-777
▁뿐	-778
▁솔	-779
▁평	-780
사람	-781
워요	-782
▁귀찮	-783
▁그리	-784
▁다르	-785
▁매일	-786
▁어느	-787
▁완전	-788
▁이런	-789
▁재회	-790
▁남자애	-791
▁당신의	-792
▁부모님	-793
▁필요한	-794
했나봐요	-795
▁긴	-796
▁빨	-797
▁온	-798
▁키	-799
▁프	-800
자기	-801
▁가장	-802
▁바람	-803
▁살고	-804
▁아닐	-805
▁제일	-806
▁커피	-807
릴게요	-808
▁조금씩	-809
▁있나봐요	-810
▁헤어지고	-811
▁잔	-812
▁졸	-813
▁티	-814
▁나가	-815
▁대한	-816
▁못하	-817
▁얼마	-818
▁남자가	-819
▁사람들	-820
▁오세요	-821
▁조금만	-822
▁해볼까	-823
▁작	-824
▁존	-825
▁핸	-826
더니	-827
리가	-828
한지	-829
▁같애	-830
▁많았	-831
▁모든	-832
▁성공	-833
▁자연	-834
▁잘할	-835
▁그래도	-836
▁좋아하	-837
▁딱	-838
▁로	-839
▁파	-840
▁거라	-841
▁떨어	-842
▁맞는	-843
▁순간	-844
▁알려	-845
▁인정	-846
▁주말	-847
▁진심	-848
▁핸드	-849
스러운	-850
하면서	-851
▁갑자기	-852
▁자신의	-853
▁중요해요	-854
▁조심하세요	-855
▁글	-856
▁꾸	-857
▁착	-858
▁초	-859
▁통	-860
스로	-861
폭풍	-862
▁되는	-863
▁사진	-864
▁엄마	-865
▁엄청	-866
▁없을	-867
▁잊혀	-868
▁한번	-869
▁기다리	-870
▁모르는	-871
▁이별이	-872
▁했는데	-873
▁사람이랑	-874
▁알았는데	-875
▁강	-876
▁망	-877
감을	-878
신이	-879
적이	-880
지지	-881
▁가끔	-882
▁모두	-883
▁살아	-884
▁예의	-885
▁왔어	-886
▁재밌	-887
▁여자가	-888
▁합니다	-889
▁핸드폰	-890
하겠어요	-891
한가봐요	-892
▁사람들이	-893
▁갖	-894
▁욕	-895
▁짧	-896
▁탈	-897
수록	-898
▁날씨	-899
▁복잡	-900
▁상관	-901
▁쉬운	-902
▁얼굴	-903
▁연습	-904
▁예뻐	-905
▁자주	-906
▁소개팅	-907
▁스스로	-908
▁정리가	-909
▁좋아할	-910
▁짝남한테	-911
▁5	-912
▁극	-913
▁야	-914
같은	-915
▁남편	-916
▁떠나	-917
▁보는	-918
▁보이	-919
▁아픈	-920
▁없네	-921
▁지내	-922
달라고	-923
마세요	-924
었는데	-925
▁기분이	-926
▁당신이	-927
▁사람한테	-928
▁4	-929
▁끊	-930
▁듣	-931
▁옷	-932
▁음	-933
▁흐	-934
거리	-935
기로	-936
다니	-937
력이	-938
없이	-939
▁눈물	-940
▁되나	-941
▁마시	-942
▁무서	-943
▁무시	-944
▁실수	-945
▁알바	-946
▁짜증	-947
▁만나고	-948
▁싶어요	-949
▁어떡해	-950
▁있다면	-951
▁후폭풍	-952
▁생각보다	-953
▁견	-954
▁꽃	-955
▁네	-956
▁똑	-957
▁월	-958
▁줘	-959
가고	-960
건가	-961
려요	-962
만큼	-963
왔어	-964
해질	-965
▁나와	-966
▁도와	-967
▁뭘까	-968
▁별로	-969
▁아픔	-970
▁저랑	-971
▁정도	-972
▁피곤	-973
▁만들어	-974
▁연락해	-975
▁오늘은	-976
▁지금도	-977
▁받아들이	-978
▁모르겠어요	-979
▁둘	-980
▁면	-981
▁본	-982
▁코	-983
쁘게	-984
지가	-985
천히	-986
해줘	-987
▁걸까	-988
▁극복	-989
▁모습	-990
▁뭐가	-991
▁붙잡	-992
▁빨리	-993
▁솔직	-994
▁지켜	-995
▁차단	-996
▁학교	-997
▁괜찮은	-998
▁기다려	-999
▁잘하고	-1000
▁잘하는	-1001
▁천천히	-1002
▁친구랑	-1003
▁뒤	-1004
▁밤	-1005
▁빌	-1006
▁은	-1007
▁흔	-1008
같아	-1009
마다	-1010
일째	-1011
▁가족	-1012
▁감기	-1013
▁것이	-1014
▁그분	-1015
▁끝나	-1016
▁끝났	-1017
▁따뜻	-1018
▁마주	-1019
▁벌써	-1020
▁보여	-1021
▁자기	-1022
▁점점	-1023
기까지	-1024
▁맛있게	-1025
▁6	-1026
▁갔	-1027
▁봄	-1028
▁양	-1029
▁출	-1030
기는	-1031
이면	-1032
주는	-1033
▁내려	-1034
▁다녀	-1035
▁두려	-1036
▁만난	-1037
▁사는	-1038
▁살펴	-1039
▁운명	-1040
▁직장	-1041
▁힘이	-1042
▁다가가	-1043
▁당신을	-1044
▁사람도	-1045
▁사랑에	-1046
▁인연이	-1047
▁자신이	-1048
▁하는데	-1049
드릴게요	-1050
▁담	-1051
▁병	-1052
▁익	-1053
▁책	-1054
거야	-1055
라는	-1056
시간	-1057
하나	-1058
▁날이	-1059
▁놓아	-1060
▁배우	-1061
▁봐요	-1062
▁설레	-1063
▁잠시	-1064
▁주변	-1065
▁하죠	-1066
▁행동	-1067
▁환승	-1068
겠지요	-1069
▁이유가	-1070
▁군	-1071
▁능	-1072
▁멀	-1073
▁베	-1074
▁찍	-1075
어가	-1076
있는	-1077
▁게임	-1078
▁나서	-1079
▁눈을	-1080
▁되길	-1081
▁성격	-1082
▁아이	-1083
▁안녕	-1084
▁일찍	-1085
스러워	-1086
▁사귀고	-1087
▁사세요	-1088
▁아닌데	-1089
▁언젠간	-1090
▁첫사랑	-1091
▁필요하	-1092
▁하나씩	-1093
▁힘들었	-1094
▁많았어요	-1095
▁서로에게	-1096
▁신경쓰지	-1097
▁연락하고	-1098
▁힘내세요	-1099
▁괴	-1100
▁교	-1101
▁맨	-1102
▁메	-1103
▁에	-1104
▁응	-1105
리지	-1106
이별	-1107
▁나을	-1108
▁놀러	-1109
▁도전	-1110
▁마련	-1111
▁무엇	-1112
▁받고	-1113
▁슬픈	-1114
▁않죠	-1115
▁익숙	-1116
▁즐거	-1117
▁지났	-1118
▁집착	-1119
▁믿어요	-1120
▁친구들	-1121
▁확신이	-1122
▁뿐이에요	-1123
▁깊	-1124
▁명	-1125
▁얘	-1126
남친	-1127
래도	-1128
에도	-1129
여친	-1130
▁거죠	-1131
▁관리	-1132
▁나도	-1133
▁나아	-1134
▁나오	-1135
▁느껴	-1136
▁스타	-1137
▁아는	-1138
▁오랜	-1139
▁주무	-1140
다보면	-1141
▁만나는	-1142
▁힘들게	-1143
▁해주세요	-1144
▁곧	-1145
▁법	-1146
▁삶	-1147
▁척	-1148
생활	-1149
어야	-1150
이는	-1151
하길	-1152
▁거짓	-1153
▁끝이	-1154
▁알게	-1155
▁여유	-1156
▁연인	-1157
▁우울	-1158
▁위해	-1159
▁이겨	-1160
▁있나	-1161
▁잊지	-1162
▁자체	-1163
▁최고	-1164
이었을	-1165
▁원하는	-1166
▁이상형	-1167
▁일어나	-1168
▁좋아해	-1169
▁힘들다	-1170
▁못하겠어	-1171
▁아무것도	-1172
▁아무래도	-1173
▁이별한지	-1174
▁있었나봐요	-1175
▁낫	-1176
▁봤	-1177
▁향	-1178
▁헷	-1179
로워	-1180
르고	-1181
중에	-1182
지고	-1183
▁가서	-1184
▁꿈에	-1185
▁눈이	-1186
▁다행	-1187
▁되지	-1188
▁뭐야	-1189
▁부족	-1190
▁소중	-1191
▁없이	-1192
▁용기	-1193
▁응원	-1194
▁전에	-1195
▁카페	-1196
▁포기	-1197
▁했어	-1198
▁헷갈	-1199
▁후련	-1200
했어요	-1201
▁거짓말	-1202
▁곳으로	-1203
▁귀찮아	-1204
▁보고싶	-1205
▁생각할	-1206
▁여친이	-1207
▁이별후	-1208
▁행복해	-1209
▁먹어야지	-1210
▁사랑했던	-1211
▁주무세요	-1212
▁까	-1213
▁빼	-1214
▁읽	-1215
▁접	-1216
▁증	-1217
버렸	-1218
정이	-1219
져요	-1220
한데	-1221
▁금방	-1222
▁다를	-1223
▁데려	-1224
▁말이	-1225
▁미안	-1226
▁보면	-1227
▁보통	-1228
▁부러	-1229
▁비싸	-1230
▁생일	-1231
▁썸타	-1232
▁자존	-1233
▁죽을	-1234
▁그녀를	-1235
▁나중에	-1236
▁먹으면	-1237
▁싶네요	-1238
▁아니라	-1239
▁않아도	-1240
▁예의가	-1241
▁전남친	-1242
▁지금은	-1243
▁친구를	-1244
▁필요해	-1245
었나봐요	-1246
여보세요	-1247
▁좋아하게	-1248
▁좋아하면	-1249
▁ᅲ	-1250
▁냉	-1251
▁벗	-1252
▁숨	-1253
▁써	-1254
사를	-1255
사친	-1256
야죠	-1257
여행	-1258
움을	-1259
▁고생	-1260
▁늦지	-1261
▁대로	-1262
▁맨날	-1263
▁미리	-1264
▁받는	-1265
▁부분	-1266
▁소식	-1267
▁싸우	-1268
▁애가	-1269
▁어렵	-1270
▁없죠	-1271
▁월급	-1272
▁잊는	-1273
▁작은	-1274
▁잠이	-1275
▁주는	-1276
▁중에	-1277
스럽게	-1278
이라면	-1279
했으면	-1280
▁감정을	-1281
▁당신은	-1282
▁만났어	-1283
▁많아요	-1284
▁사귀는	-1285
▁없네요	-1286
▁이별의	-1287
▁전여친	-1288
▁괜찮을까	-1289
▁중요하지	-1290
▁짝녀한테	-1291
▁필요해요	-1292
▁살펴보세요	-1293
▁헤어졌습니다	-1294
▁근	-1295
▁쓸	-1296
▁폰	-1297
건지	-1298
더라	-1299
리를	-1300
밖에	-1301
쇼핑	-1302
아서	-1303
으니	-1304
이가	-1305
하려	-1306
▁기회	-1307
▁드는	-1308
▁로맨	-1309
▁바쁜	-1310
▁받을	-1311
▁방학	-1312
▁생길	-1313
▁쉬고	-1314
▁시험	-1315
▁아름	-1316
▁안해	-1317
▁알고	-1318
▁앞에	-1319
▁약속	-1320
▁우산	-1321
▁일을	-1322
▁자책	-1323
▁잠깐	-1324
▁종교	-1325
▁진정	-1326
▁충전	-1327
▁편이	-1328
▁흘렀	-1329
야겠다	-1330
해야지	-1331
해주는	-1332
▁관심이	-1333
▁남편이	-1334
▁누구나	-1335
▁만나지	-1336
▁변화가	-1337
▁언제나	-1338
▁확실한	-1339
겠습니다	-1340
▁고민이야	-1341
▁남자애가	-1342
▁연락해도	-1343
▁친구한테	-1344
▁사랑해주세요	-1345
▁확인해보세요	-1346
▁높	-1347
▁산	-1348
당히	-1349
들은	-1350
리게	-1351
장이	-1352
▁가기	-1353
▁돈이	-1354
▁되어	-1355
▁맞춰	-1356
▁멋진	-1357
▁바로	-1358
▁바쁘	-1359
▁분위	-1360
▁비밀	-1361
▁시원	-1362
▁안나	-1363
▁않고	-1364
▁이번	-1365
▁타고	-1366
▁하늘	-1367
▁가세요	-1368
▁고민이	-1369
▁궁금해	-1370
▁그래요	-1371
▁때까지	-1372
▁맛있는	-1373
▁사랑할	-1374
▁생각만	-1375
▁없다면	-1376
▁예쁘게	-1377
▁재미있	-1378
▁즐거운	-1379
▁해봐요	-1380
▁힘들죠	-1381
▁같습니다	-1382
▁사랑하고	-1383
▁짝남이랑	-1384
▁힘들어요	-1385
▁가져보세요	-1386
▁골	-1387
▁옆	-1388
▁채	-1389
내고	-1390
대요	-1391
들어	-1392
들을	-1393
디어	-1394
일이	-1395
퇴근	-1396
하니	-1397
하시	-1398
▁건지	-1399
▁꾸준	-1400
▁됐어	-1401
▁드라	-1402
▁마셔	-1403
▁먹을	-1404
▁바보	-1405
▁보지	-1406
▁쇼핑	-1407
▁스킨	-1408
▁시켜	-1409
▁어울	-1410
▁어쩌	-1411
▁이어	-1412
▁장난	-1413
▁절대	-1414
▁존중	-1415
▁취미	-1416
▁해결	-1417
▁허전	-1418
더라고	-1419
이라는	-1420
잖아요	-1421
줬으면	-1422
▁그리고	-1423
▁드디어	-1424
▁못하는	-1425
▁받아들	-1426
▁봅니다	-1427
▁상처받	-1428
▁아닌지	-1429
▁이제는	-1430
▁있는지	-1431
▁좋겠죠	-1432
▁중인데	-1433
▁여자애가	-1434
▁친구들이	-1435
▁좋아하는데	-1436
▁등	-1437
▁칭	-1438
겠네	-1439
기만	-1440
해져	-1441
▁가면	-1442
▁가야	-1443
▁간다	-1444
▁경우	-1445
▁당연	-1446
▁동거	-1447
▁때도	-1448
▁마요	-1449
▁문자	-1450
▁뭔지	-1451
▁미워	-1452
▁미치	-1453
▁바라	-1454
▁안경	-1455
▁않길	-1456
▁여러	-1457
▁예민	-1458
▁이성	-1459
▁일은	-1460
▁잊고	-1461
▁조언	-1462
▁지쳤	-1463
▁차분	-1464
▁칭찬	-1465
▁하셨	-1466
▁해서	-1467
▁헤아	-1468
보는게	-1469
해지는	-1470
▁가슴이	-1471
▁괜찮을	-1472
▁두려워	-1473
▁로맨틱	-1474
▁뭐라고	-1475
▁미련이	-1476
▁사람에	-1477
▁시간은	-1478
▁알려줘	-1479
▁어느덧	-1480
▁어려워	-1481
▁좋은데	-1482
▁짜증나	-1483
더라고요	-1484
신가봐요	-1485
▁거기까지	-1486
▁아닐까요	-1487
▁않는다면	-1488
▁있습니다	-1489
▁자책하지	-1490
▁힘들겠지만	-1491
▁독	-1492
▁삼	-1493
▁터	-1494
가를	-1495
받고	-1496
이밍	-1497
이지	-1498
자리	-1499
전히	-1500
줄까	-1501
한게	-1502
해졌	-1503
▁10	-1504
▁것을	-1505
▁곳이	-1506
▁기본	-1507
▁까먹	-1508
▁나랑	-1509
▁되고	-1510
▁되네	-1511
▁두달	-1512
▁못해	-1513
▁뭔가	-1514
▁보러	-1515
▁서운	-1516
▁싫다	-1517
▁썸녀	-1518
▁어쩔	-1519
▁예쁜	-1520
▁오는	-1521
▁이러	-1522
▁즐기	-1523
▁취직	-1524
▁태어	-1525
▁해주	-1526
답니다	-1527
드려요	-1528
하겠죠	-1529
▁그대로	-1530
▁그러면	-1531
▁마음도	-1532
▁마음은	-1533
▁문제가	-1534
▁방법이	-1535
▁사랑해	-1536
▁안되는	-1537
▁타이밍	-1538
▁헤어져	-1539
가봅니다	-1540
아보세요	-1541
하겠네요	-1542
▁생각하고	-1543
▁축하해요	-1544
▁받아들이는	-1545
▁부담스러워	-1546
▁자연스러운	-1547
▁좋아하는게	-1548
▁꿨	-1549
▁뜻	-1550
▁멈	-1551
▁밀	-1552
▁쌓	-1553
▁역	-1554
▁클	-1555
▁택	-1556
▁특	-1557
▁희	-1558
년이	-1559
니가	-1560
덤덤	-1561
때는	-1562
리스	-1563
마스	-1564
생님	-1565
스크	-1566
식을	-1567
야할	-1568
연애	-1569
음이	-1570
했다	-1571
▁갖고	-1572
▁군대	-1573
▁귀여	-1574
▁떨려	-1575
▁뭐든	-1576
▁배워	-1577
▁볼까	-1578
▁사과	-1579
▁상담	-1580
▁소리	-1581
▁슬프	-1582
▁일주	-1583
▁잊을	-1584
▁자유	-1585
▁저를	-1586
▁적응	-1587
▁졸업	-1588
▁집중	-1589
▁최선	-1590
▁커플	-1591
▁흔들	-1592
가세요	-1593
오세요	-1594
▁가지고	-1595
▁같네요	-1596
▁관심을	-1597
▁능력이	-1598
▁무서워	-1599
▁선생님	-1600
▁썸남이	-1601
▁어려운	-1602
▁용기를	-1603
▁위로해	-1604
▁이상한	-1605
▁잊어버	-1606
▁적당히	-1607
▁준비가	-1608
▁충분한	-1609
상이에요	-1610
▁다음에는	-1611
▁말하세요	-1612
▁물어보는	-1613
▁사람마다	-1614
▁진심으로	-1615
▁헤어졌어	-1616
▁후회하지	-1617
▁다행이에요	-1618
▁사람이네요	-1619
▁멍	-1620
▁삭	-1621
▁샀	-1622
냄새	-1623
만의	-1624
보여	-1625
시켜	-1626
심해	-1627
오네	-1628
자는	-1629
치가	-1630
한거	-1631
한다	-1632
함이	-1633
▁고마	-1634
▁그건	-1635
▁끝을	-1636
▁누가	-1637
▁당당	-1638
▁대학	-1639
▁두근	-1640
▁몰랐	-1641
▁몸이	-1642
▁배려	-1643
▁번호	-1644
▁병원	-1645
▁삭제	-1646
▁생기	-1647
▁어색	-1648
▁연예	-1649
▁오빠	-1650
▁원래	-1651
▁이기	-1652
▁일어	-1653
▁자격	-1654
▁잠수	-1655
▁적극	-1656
▁좋았	-1657
▁질투	-1658
▁집안	-1659
▁청소	-1660
하려고	-1661
▁가야지	-1662
▁것보다	-1663
▁그녀가	-1664
▁그사람	-1665
▁꾸준히	-1666
▁남친이	-1667
▁받았어	-1668
▁사람과	-1669
▁스킨십	-1670
▁스타일	-1671
▁있나요	-1672
▁있네요	-1673
▁저에게	-1674
▁제대로	-1675
▁하는게	-1676
았나봐요	-1677
▁사람에게	-1678
▁사랑하면	-1679
▁않았으면	-1680
▁않을까요	-1681
▁있잖아요	-1682
▁후폭풍이	-1683
▁만나보세요	-1684
▁힘들겠어요	-1685
▁각	-1686
▁걷	-1687
▁권	-1688
▁꼬	-1689
▁철	-1690
▁톡	-1691
▁투	-1692
▁팔	-1693
내서	-1694
년째	-1695
놓고	-1696
려면	-1697
르는	-1698
사가	-1699
시길	-1700
으시	-1701
이요	-1702
인거	-1703
▁감사	-1704
▁경험	-1705
▁꿈을	-1706
▁끝내	-1707
▁나눠	-1708
▁나온	-1709
▁다이	-1710
▁담배	-1711
▁당황	-1712
▁무너	-1713
▁무뎌	-1714
▁발표	-1715
▁버려	-1716
▁버텨	-1717
▁보냈	-1718
▁본인	-1719
▁불편	-1720
▁쉽게	-1721
▁싫은	-1722
▁안타	-1723
▁애랑	-1724
▁얘기	-1725
▁어플	-1726
▁올려	-1727
▁위험	-1728
▁잠을	-1729
▁좋다	-1730
▁좋지	-1731
▁착각	-1732
▁출근	-1733
▁편지	-1734
▁하기	-1735
됩니다	-1736
인가봐	-1737
▁감정이	-1738
▁데려다	-1739
▁말하는	-1740
▁머리가	-1741
▁사람의	-1742
▁상황을	-1743
▁서로를	-1744
▁성격이	-1745
▁아름다	-1746
▁안하고	-1747
▁연예인	-1748
▁완전히	-1749
▁있어도	-1750
▁좋아한	-1751
▁하나도	-1752
▁해보는	-1753
▁행복한	-1754
▁후회할	-1755
▁기다리고	-1756
▁되겠네요	-1757
▁보고싶어	-1758
▁일이에요	-1759
▁있겠어요	-1760
▁자신에게	-1761
▁그런가봐요	-1762
▁겨	-1763
▁셀	-1764
▁체	-1765
▁판	-1766
가지	-1767
고생	-1768
리면	-1769
상을	-1770
성이	-1771
시다	-1772
어머	-1773
없는	-1774
었네	-1775
었다	-1776
워질	-1777
이길	-1778
장을	-1779
지네	-1780
질까	-1781
▁같네	-1782
▁과정	-1783
▁귀엽	-1784
▁끝은	-1785
▁놀이	-1786
▁동생	-1787
▁드시	-1788
▁말도	-1789
▁먹는	-1790
▁바꿔	-1791
▁바빠	-1792
▁발전	-1793
▁부탁	-1794
▁사실	-1795
▁살짝	-1796
▁새벽	-1797
▁생긴	-1798
▁싶지	-1799
▁안됐	-1800
▁우선	-1801
▁위한	-1802
▁인사	-1803
▁일도	-1804
▁있고	-1805
▁점심	-1806
▁존재	-1807
▁주고	-1808
▁키우	-1809
▁프로	-1810
▁피부	-1811
▁해줘	-1812
으면서	-1813
인가요	-1814
하다고	-1815
▁그리워	-1816
▁기다릴	-1817
▁놀아요	-1818
▁눈물이	-1819
▁맘고생	-1820
▁못하고	-1821
▁무엇이	-1822
▁아무리	-1823
▁한동안	-1824
▁호감이	-1825
▁화장실	-1826
▁힘들지	-1827
리스마스	-1828
했습니다	-1829
▁만나자고	-1830
▁놓아주세요	-1831
▁생각하세요	-1832
▁좋아하는지	-1833
▁축하드려요	-1834
▁말씀해주세요	-1835
▁7	-1836
▁깔	-1837
▁났	-1838
▁늘	-1839
▁뜨	-1840
▁리	-1841
▁침	-1842
구나	-1843
나는	-1844
냐고	-1845
력을	-1846
만이	-1847
말고	-1848
봐도	-1849
상이	-1850
어트	-1851
었을	-1852
오는	-1853
음을	-1854
이다	-1855
줬어	-1856
▁가치	-1857
▁걸로	-1858
▁계획	-1859
▁고쳐	-1860
▁괜히	-1861
▁괴롭	-1862
▁그랬	-1863
▁그럼	-1864
▁기운	-1865
▁나타	-1866
▁다니	-1867
▁듣고	-1868
▁따로	-1869
▁떠난	-1870
▁목소	-1871
▁못한	-1872
▁바뀌	-1873
▁받지	-1874
▁버스	-1875
▁비가	-1876
▁살까	-1877
▁속상	-1878
▁속이	-1879
▁쓰레	-1880
▁애매	-1881
▁없나	-1882
▁없다	-1883
▁없애	-1884
▁우연	-1885
▁의지	-1886
▁이용	-1887
▁자고	-1888
▁저녁	-1889
▁주면	-1890
▁지우	-1891
▁지쳐	-1892
▁차이	-1893
▁퇴근	-1894
▁프사	-1895
▁피해	-1896
▁한잔	-1897
▁했던	-1898
다가도	-1899
두세요	-1900
▁가자고	-1901
▁남자를	-1902
▁되는데	-1903
▁만나서	-1904
▁아는데	-1905
▁안들어	-1906
▁이상해	-1907
▁지나갈	-1908
▁추억이	-1909
▁친구로	-1910
▁괜찮아졌	-1911
▁괜찮아질	-1912
▁다이어트	-1913
▁만나세요	-1914
▁생각하는	-1915
▁연락하면	-1916
▁오랜만에	-1917
▁자신감을	-1918
▁좋을텐데	-1919
▁모르겠네요	-1920
▁사랑하는데	-1921
▁여자친구와	-1922
▁자연스럽게	-1923
▁크리스마스	-1924
▁현상이에요	-1925
▁말씀해보세요	-1926
▁시작해보세요	-1927
▁이야기해보세요	-1928
▁8	-1929
▁꺼	-1930
▁뒷	-1931
▁뿌	-1932
▁센	-1933
▁억	-1934
▁트	-1935
▁페	-1936
▁형	-1937
느라	-1938
됐어	-1939
서관	-1940
소한	-1941
어서	-1942
였어	-1943
웨딩	-1944
주가	-1945
지면	-1946
치고	-1947
치는	-1948
했을	-1949
▁가벼	-1950
▁거절	-1951
▁건가	-1952
▁견디	-1953
▁꿈이	-1954
▁냄새	-1955
▁누군	-1956
▁느끼	-1957
▁대해	-1958
▁돈을	-1959
▁되면	-1960
▁많죠	-1961
▁미래	-1962
▁바뀔	-1963
▁반복	-1964
▁배고	-1965
▁불안	-1966
▁사라	-1967
▁소화	-1968
▁쉬는	-1969
▁안와	-1970
▁안좋	-1971
▁영원	-1972
▁오해	-1973
▁이거	-1974
▁이름	-1975
▁이사	-1976
▁이혼	-1977
▁인형	-1978
▁일상	-1979
▁주지	-1980
▁취업	-1981
▁학원	-1982
드세요	-1983
일지도	-1984
하니까	-1985
해봐요	-1986
▁결혼식	-1987
▁나이가	-1988
▁날씨가	-1989
▁내일은	-1990
▁도서관	-1991
▁될까요	-1992
▁만나면	-1993
▁뭐하지	-1994
▁분위기	-1995
▁붙잡고	-1996
▁상처를	-1997
▁선택일	-1998
▁소중한	-1999
▁안해도	-2000
▁앞에서	-2001
▁앞으로	-2002
▁어쩌지	-2003
▁여유를	-2004
▁연락처	-2005
▁연습을	-2006
▁일주일	-2007
▁장거리	-2008
▁필요할	-2009
▁했으면	-2010
▁혼자가	-2011
▁확실히	-2012
을거예요	-2013
▁기다리는	-2014
▁만났는데	-2015
▁부담스럽	-2016
▁생각나는	-2017
▁않았어요	-2018
▁연락하지	-2019
▁좋아할까	-2020
하지마세요	-2021
▁사람이에요	-2022
▁사랑한다고	-2023
▁지켜보세요	-2024
▁짝사랑하는	-2025
▁들어드릴게요	-2026
▁끄	-2027
▁됨	-2028
▁든	-2029
▁딸	-2030
▁썼	-2031
▁쐬	-2032
▁업	-2033
▁염	-2034
▁짐	-2035
▁찌	-2036
▁헛	-2037
간이	-2038
거려	-2039
러가	-2040
세먼	-2041
심이	-2042
요일	-2043
인듯	-2044
주지	-2045
하셨	-2046
할지	-2047
▁가까	-2048
▁간절	-2049
▁갈까	-2050
▁갑작	-2051
▁개인	-2052
▁거야	-2053
▁기념	-2054
▁깔끔	-2055
▁나의	-2056
▁눈에	-2057
▁대단	-2058
▁되죠	-2059
▁때는	-2060
▁멋있	-2061
▁면접	-2062
▁못할	-2063
▁무섭	-2064
▁미친	-2065
▁불러	-2066
▁비교	-2067
▁비슷	-2068
▁사귈	-2069
▁슬퍼	-2070
▁신혼	-2071
▁심해	-2072
▁썸이	-2073
▁야근	-2074
▁옆에	-2075
▁완벽	-2076
▁왔다	-2077
▁있지	-2078
▁잡고	-2079
▁조급	-2080
▁졸려	-2081
▁차별	-2082
▁치과	-2083
▁크게	-2084
▁호감	-2085
면서도	-2086
으려고	-2087
적이든	-2088
해지면	-2089
▁가능할	-2090
▁걱정돼	-2091
▁걱정되	-2092
▁그녀의	-2093
▁꿈에서	-2094
▁마스크	-2095
▁무서운	-2096
▁벗어나	-2097
▁상황이	-2098
▁쉬세요	-2099
▁시작이	-2100
▁쓰레기	-2101
▁않으면	-2102
▁어디서	-2103
▁어때요	-2104
▁얼마나	-2105
▁엄마가	-2106
▁없는데	-2107
▁예뻐요	-2108
▁왔는데	-2109
▁저도요	-2110
▁집안일	-2111
▁집에서	-2112
▁타는데	-2113
▁편하게	-2114
▁호감을	-2115
▁고민하고	-2116
▁사랑해서	-2117
▁생각나네	-2118
▁썸남한테	-2119
▁연락하는	-2120
▁좋아하고	-2121
▁했습니다	-2122
▁헤어져야	-2123
▁헷갈리게	-2124
▁흘렀네요	-2125
▁궁금하네요	-2126
▁남자친구의	-2127
▁알아보세요	-2128
▁여자친구의	-2129
▁있으니까요	-2130
▁전해보세요	-2131
▁지쳤나봐요	-2132
▁이해해주세요	-2133
▁잊어버리세요	-2134
▁갚	-2135
▁긍	-2136
▁낭	-2137
▁농	-2138
▁뻔	-2139
▁움	-2140
▁잤	-2141
▁죄	-2142
▁창	-2143
▁춥	-2144
▁틀	-2145
▁패	-2146
▁푹	-2147
같이	-2148
남자	-2149
될까	-2150
러워	-2151
려도	-2152
리기	-2153
머리	-2154
먹고	-2155
방법	-2156
시는	-2157
싶다	-2158
어진	-2159
었던	-2160
여자	-2161
이고	-2162
주고	-2163
준비	-2164
할때	-2165
호흡	-2166
▁ᅲᅲ	-2167
▁거지	-2168
▁견뎌	-2169
▁결과	-2170
▁고통	-2171
▁공허	-2172
▁권태	-2173
▁긍정	-2174
▁기울	-2175
▁깨달	-2176
▁꿨어	-2177
▁나올	-2178
▁남았	-2179
▁남을	-2180
▁남의	-2181
▁내는	-2182
▁놀고	-2183
▁느려	-2184
▁동물	-2185
▁라면	-2186
▁마무	-2187
▁말투	-2188
▁말할	-2189
▁몰라	-2190
▁문득	-2191
▁보일	-2192
▁부럽	-2193
▁분명	-2194
▁사고	-2195
▁사귄	-2196
▁사야	-2197
▁사회	-2198
▁샀어	-2199
▁상태	-2200
▁생활	-2201
▁선톡	-2202
▁시계	-2203
▁실망	-2204
▁아까	-2205
▁않게	-2206
▁않네	-2207
▁알았	-2208
▁야경	-2209
▁어서	-2210
▁어장	-2211
▁역시	-2212
▁외로	-2213
▁원망	-2214
▁유지	-2215
▁은근	-2216
▁이건	-2217
▁이럴	-2218
▁이루	-2219
▁인간	-2220
▁전부	-2221
▁정확	-2222
▁줘도	-2223
▁차가	-2224
▁추워	-2225
▁친한	-2226
▁텐데	-2227
▁판단	-2228
▁평소	-2229
▁화가	-2230
▁희망	-2231
듭니다	-2232
립니다	-2233
한다면	-2234
해볼까	-2235
▁결정을	-2236
▁그동안	-2237
▁그래서	-2238
▁기념일	-2239
▁남사친	-2240
▁달라고	-2241
▁돌아오	-2242
▁때네요	-2243
▁먹을까	-2244
▁무덤덤	-2245
▁미세먼	-2246
▁변화를	-2247
▁상처가	-2248
▁생겼어	-2249
▁서로의	-2250
▁실감이	-2251
▁심호흡	-2252
▁썸인지	-2253
▁썸타는	-2254
▁아침에	-2255
▁안타깝	-2256
▁없다고	-2257
▁여사친	-2258
▁여행을	-2259
▁연애는	-2260
▁연애를	-2261
▁외로워	-2262
▁용기가	-2263
▁이유를	-2264
▁인생은	-2265
▁있는게	-2266
▁있지만	-2267
▁잊어야	-2268
▁잊혀지	-2269
▁잘해줘	-2270
▁저한테	-2271
▁지내고	-2272
▁짝녀랑	-2273
▁할텐데	-2274
▁해야지	-2275
▁후회가	-2276
였나봐요	-2277
▁가지세요	-2278
▁남자들은	-2279
▁당당하게	-2280
▁받아들여	-2281
▁버리세요	-2282
▁사람으로	-2283
▁사랑하지	-2284
▁상대방을	-2285
▁생각하지	-2286
▁아니라고	-2287
▁어떡하지	-2288
▁여기까지	-2289
▁이야기를	-2290
▁친구들과	-2291
▁필요하죠	-2292
▁하다보면	-2293
▁결정이었을	-2294
▁무시하세요	-2295
▁않으니까요	-2296
▁여자친구랑	-2297
▁이야기네요	-2298
▁헤어졌는데	-2299
▁기다려보세요	-2300
▁노력해보세요	-2301
▁만들어보세요	-2302
ᄒᄒ	-2303
ᅲᅲ	-2304
▁걔	-2305
▁낮	-2306
▁넣	-2307
▁딴	-2308
▁쓴	-2309
▁씻	-2310
▁컨	-2311
▁혹	-2312
거를	-2313
나게	-2314
냐에	-2315
되는	-2316
두고	-2317
디션	-2318
렸어	-2319
리네	-2320
릴까	-2321
스타	-2322
점을	-2323
지로	-2324
치지	-2325
해줄	-2326
했네	-2327
▁가요	-2328
▁거울	-2329
▁그것	-2330
▁길이	-2331
▁깊은	-2332
▁끝난	-2333
▁나왔	-2334
▁나은	-2335
▁놓고	-2336
▁다들	-2337
▁다양	-2338
▁동안	-2339
▁두고	-2340
▁때론	-2341
▁때를	-2342
▁마다	-2343
▁막말	-2344
▁만드	-2345
▁먹었	-2346
▁멈추	-2347
▁반대	-2348
▁봐도	-2349
▁소문	-2350
▁소원	-2351
▁수가	-2352
▁수록	-2353
▁스키	-2354
▁신고	-2355
▁쐬고	-2356
▁쓰는	-2357
▁아예	-2358
▁안전	-2359
▁어린	-2360
▁음악	-2361
▁이게	-2362
▁있길	-2363
▁자세	-2364
▁조절	-2365
▁지난	-2366
▁지워	-2367
▁진급	-2368
▁짧은	-2369
▁채워	-2370
▁축구	-2371
▁취향	-2372
▁클럽	-2373
▁택시	-2374
▁통보	-2375
▁편한	-2376
▁편할	-2377
▁피할	-2378
▁하게	-2379
▁현금	-2380
▁혹시	-2381
버렸어	-2382
으니까	-2383
일까요	-2384
해주고	-2385
▁가치관	-2386
▁감정에	-2387
▁거겠죠	-2388
▁그녀는	-2389
▁당신도	-2390
▁됐으면	-2391
▁되기도	-2392
▁됩니다	-2393
▁드라마	-2394
▁똑같은	-2395
▁만난지	-2396
▁많은데	-2397
▁모르고	-2398
▁미안해	-2399
▁방학이	-2400
▁부러워	-2401
▁상대를	-2402
▁생각하	-2403
▁선물이	-2404
▁선택을	-2405
▁시어머	-2406
▁아무도	-2407
▁아프네	-2408
▁안돼요	-2409
▁안하는	-2410
▁애한테	-2411
▁언제쯤	-2412
▁언젠가	-2413
▁없어서	-2414
▁없으면	-2415
▁연락은	-2416
▁위로가	-2417
▁있겠죠	-2418
▁있겠지	-2419
▁좋지만	-2420
▁지나갔	-2421
▁진정한	-2422
▁찾아올	-2423
▁최고죠	-2424
▁필요는	-2425
▁하면서	-2426
▁한달이	-2427
▁행복할	-2428
▁가능성이	-2429
▁달라지는	-2430
▁만나는게	-2431
▁말이에요	-2432
▁부러워요	-2433
▁상대방이	-2434
▁생겼는데	-2435
▁아니라면	-2436
▁안됐는데	-2437
▁알면서도	-2438
▁용기내서	-2439
▁이성으로	-2440
▁좋아하던	-2441
▁좋아해도	-2442
▁짝사랑이	-2443
▁충분해요	-2444
▁한동안은	-2445
▁행복하게	-2446
▁회사에서	-2447
▁힘들어서	-2448
▁힘들었을	-2449
▁방법이에요	-2450
▁부담스럽지	-2451
▁사람들에게	-2452
▁여자애한테	-2453
▁응원합니다	-2454
▁있을거예요	-2455
▁적극적으로	-2456
▁정리하는게	-2457
▁헤어지자고	-2458
▁김	-2459
▁깎	-2460
▁넌	-2461
▁놔	-2462
▁뛰	-2463
▁맥	-2464
▁밝	-2465
▁악	-2466
▁으	-2467
▁잃	-2468
▁짓	-2469
▁째	-2470
▁찬	-2471
▁케	-2472
▁합	-2473
▁헬	-2474
가네	-2475
가면	-2476
가봐	-2477
간의	-2478
겼어	-2479
데요	-2480
배가	-2481
부를	-2482
수도	-2483
시면	-2484
아야	-2485
아지	-2486
없어	-2487
울까	-2488
웠어	-2489
이팅	-2490
장고	-2491
전에	-2492
전환	-2493
지를	-2494
통보	-2495
하러	-2496
하루	-2497
▁각자	-2498
▁갔다	-2499
▁거니	-2500
▁거의	-2501
▁걸릴	-2502
▁것은	-2503
▁결심	-2504
▁골라	-2505
▁곳에	-2506
▁공통	-2507
▁과일	-2508
▁교회	-2509
▁글을	-2510
▁긴장	-2511
▁나면	-2512
▁남겨	-2513
▁놀아	-2514
▁늦게	-2515
▁단단	-2516
▁달달	-2517
▁당장	-2518
▁더워	-2519
▁두번	-2520
▁드네	-2521
▁만든	-2522
▁만족	-2523
▁말까	-2524
▁말은	-2525
▁맥주	-2526
▁무리	-2527
▁바꾸	-2528
▁바꿀	-2529
▁밖에	-2530
▁변덕	-2531
▁분이	-2532
▁불행	-2533
▁사용	-2534
▁상사	-2535
▁새로	-2536
▁시기	-2537
▁싶네	-2538
▁쓰고	-2539
▁쓸데	-2540
▁아빠	-2541
▁여기	-2542
▁예쁘	-2543
▁올라	-2544
▁왜이	-2545
▁외국	-2546
▁울적	-2547
▁움직	-2548
▁있네	-2549
▁자리	-2550
▁잘생	-2551
▁잘해	-2552
▁전공	-2553
▁전환	-2554
▁제발	-2555
▁중간	-2556
▁중국	-2557
▁진실	-2558
▁집이	-2559
▁초대	-2560
▁최악	-2561
▁태도	-2562
▁페북	-2563
▁평생	-2564
▁하네	-2565
더라도	-2566
만으로	-2567
시군요	-2568
싶은데	-2569
어가네	-2570
었어요	-2571
을지도	-2572
이라고	-2573
줄게요	-2574
하거나	-2575
하지만	-2576
▁곳에서	-2577
▁그렇지	-2578
▁기회가	-2579
▁끝까지	-2580
▁나왔어	-2581
▁나이는	-2582
▁남자는	-2583
▁냉장고	-2584
▁느낌이	-2585
▁따뜻한	-2586
▁떨어져	-2587
▁마무리	-2588
▁모습이	-2589
▁물어보	-2590
▁물어봐	-2591
▁뭐하고	-2592
▁부족한	-2593
▁사소한	-2594
▁사이가	-2595
▁상관없	-2596
▁생각에	-2597
▁생각은	-2598
▁생각한	-2599
▁선물을	-2600
▁시원한	-2601
▁썸인데	-2602
▁아니면	-2603
▁아니야	-2604
▁여자를	-2605
▁온전히	-2606
▁운동을	-2607
▁이겨낼	-2608
▁인기가	-2609
▁정리할	-2610
▁제자리	-2611
▁좋겠지	-2612
▁지났네	-2613
▁집들이	-2614
▁차분히	-2615
▁최선의	-2616
▁파이팅	-2617
셨나봐요	-2618
▁고백해도	-2619
▁그렇지만	-2620
▁기분전환	-2621
▁떨어졌어	-2622
▁마음으로	-2623
▁무엇이든	-2624
▁부럽네요	-2625
▁부모님이	-2626
▁사랑으로	-2627
▁썸남이랑	-2628
▁아름다운	-2629
▁아프네요	-2630
▁이별통보	-2631
▁일이네요	-2632
▁좋겠지만	-2633
▁좋아해요	-2634
▁중요하죠	-2635
▁즐기세요	-2636
▁지금처럼	-2637
▁피하세요	-2638
▁하루하루	-2639
▁하셨네요	-2640
▁환승이별	-2641
▁힘들겠지	-2642
▁남자친구와	-2643
▁사랑한다면	-2644
▁생각이에요	-2645
▁습관이에요	-2646
▁알려주세요	-2647
▁고백해보세요	-2648
▁사용해보세요	-2649
▁준비해보세요	-2650
▁필요하겠네요	-2651
▁힘들었겠어요	-2652
▁9	-2653
▁곁	-2654
▁꿀	-2655
▁놈	-2656
▁디	-2657
▁백	-2658
▁벚	-2659
▁블	-2660
▁뽑	-2661
▁숙	-2662
▁싱	-2663
▁컴	-2664
▁콩	-2665
▁푸	-2666
▁핑	-2667
가락	-2668
갈까	-2669
갔어	-2670
규직	-2671
기간	-2672
나면	-2673
달째	-2674
대폰	-2675
도록	-2676
듯이	-2677
래요	-2678
먹기	-2679
무원	-2680
부로	-2681
샤워	-2682
순위	-2683
시락	-2684
았던	-2685
오면	-2686
우면	-2687
유증	-2688
이니	-2689
인이	-2690
장면	-2691
제를	-2692
하던	-2693
▁간접	-2694
▁겨울	-2695
▁계절	-2696
▁고맙	-2697
▁과거	-2698
▁과식	-2699
▁교양	-2700
▁근처	-2701
▁기술	-2702
▁나쁘	-2703
▁남아	-2704
▁낫죠	-2705
▁다되	-2706
▁달콤	-2707
▁됐네	-2708
▁둘이	-2709
▁떨리	-2710
▁라고	-2711
▁마실	-2712
▁많을	-2713
▁맘에	-2714
▁맘이	-2715
▁맛난	-2716
▁매력	-2717
▁머릿	-2718
▁메뉴	-2719
▁모아	-2720
▁목표	-2721
▁물리	-2722
▁밀당	-2723
▁반지	-2724
▁벚꽃	-2725
▁변명	-2726
▁보기	-2727
▁보니	-2728
▁보험	-2729
▁부자	-2730
▁빠르	-2731
▁산책	-2732
▁선이	-2733
▁설렘	-2734
▁셀프	-2735
▁소비	-2736
▁신청	-2737
▁심심	-2738
▁썸의	-2739
▁아껴	-2740
▁아쉬	-2741
▁알면	-2742
▁애정	-2743
▁어찌	-2744
▁오네	-2745
▁오랫	-2746
▁오면	-2747
▁오지	-2748
▁외롭	-2749
▁용돈	-2750
▁용서	-2751
▁이뤄	-2752
▁이불	-2753
▁인기	-2754
▁있게	-2755
▁절약	-2756
▁죽고	-2757
▁중독	-2758
▁지칠	-2759
▁참고	-2760
▁청첩	-2761
▁카드	-2762
▁파혼	-2763
▁편안	-2764
▁한다	-2765
▁행운	-2766
▁향수	-2767
▁헬스	-2768
▁현재	-2769
▁화를	-2770
▁회식	-2771
▁휴가	-2772
거같아	-2773
된다고	-2774
었으면	-2775
이라니	-2776
장에서	-2777
하는지	-2778
하다가	-2779
하자고	-2780
할게요	-2781
▁건강에	-2782
▁공무원	-2783
▁공부는	-2784
▁관계가	-2785
▁관계를	-2786
▁귀여워	-2787
▁그만큼	-2788
▁극복할	-2789
▁나에게	-2790
▁남자랑	-2791
▁노래방	-2792
▁달라지	-2793
▁도시락	-2794
▁됐는데	-2795
▁드라이	-2796
▁들어가	-2797
▁들어와	-2798
▁모습을	-2799
▁뭐라도	-2800
▁믿음이	-2801
▁바쁘게	-2802
▁병원에	-2803
▁보내고	-2804
▁보이고	-2805
▁사귀기	-2806
▁사랑했	-2807
▁새벽에	-2808
▁선물은	-2809
▁세상에	-2810
▁시간도	-2811
▁시기가	-2812
▁아무렇	-2813
▁아프다	-2814
▁않는데	-2815
▁앞머리	-2816
▁억지로	-2817
▁여자랑	-2818
▁여전히	-2819
▁연애가	-2820
▁우세요	-2821
▁울어도	-2822
▁의사를	-2823
▁인생이	-2824
▁있다고	-2825
▁있다는	-2826
▁있어서	-2827
▁있으니	-2828
▁자신만	-2829
▁자신에	-2830
▁준비를	-2831
▁진심을	-2832
▁찾아가	-2833
▁친구의	-2834
▁태어난	-2835
▁표현이	-2836
▁표현해	-2837
▁피곤해	-2838
▁휴대폰	-2839
셔보세요	-2840
시겠어요	-2841
어주세요	-2842
이었으면	-2843
해야할까	-2844
했겠어요	-2845
▁걱정하지	-2846
▁내보세요	-2847
▁누군가를	-2848
▁따뜻하게	-2849
▁만나기로	-2850
▁만들어요	-2851
▁맞는걸까	-2852
▁보고싶다	-2853
▁생각하면	-2854
▁솔직하게	-2855
▁스트레칭	-2856
▁싶습니다	-2857
▁없겠네요	-2858
▁없나봐요	-2859
▁여자들은	-2860
▁여자한테	-2861
▁이별에는	-2862
▁잊으세요	-2863
▁자존감이	-2864
▁잘했어요	-2865
▁점심시간	-2866
▁준비하는	-2867
▁하나봐요	-2868
▁했나봐요	-2869
▁고백했는데	-2870
▁나눠보세요	-2871
▁다녀오세요	-2872
▁다르겠지만	-2873
▁돌려보세요	-2874
▁믿어보세요	-2875
▁바쁜가봐요	-2876
▁스스로에게	-2877
▁적어보세요	-2878
▁좋아해주는	-2879
▁지금이라도	-2880
▁친구들이랑	-2881
▁필요하다면	-2882
▁힘들겠네요	-2883
▁힘든가봅니다	-2884
ᅮᅮ	-2885
▁겁	-2886
▁격	-2887
▁급	-2888
▁깜	-2889
▁끈	-2890
▁넓	-2891
▁녹	-2892
▁닮	-2893
▁땀	-2894
▁띄	-2895
▁잇	-2896
▁찔	-2897
▁쳐	-2898
▁털	-2899
거죠	-2900
까봐	-2901
나고	-2902
나서	-2903
내는	-2904
냈어	-2905
년의	-2906
다발	-2907
데이	-2908
되면	-2909
든지	-2910
따라	-2911
라리	-2912
라이	-2913
렌타	-2914
려구	-2915
려나	-2916
린다	-2917
보내	-2918
보니	-2919
빼로	-2920
생숭	-2921
식이	-2922
어두	-2923
정도	-2924
주려	-2925
치기	-2926
터리	-2927
포즈	-2928
하긴	-2929
함을	-2930
혼자	-2931
▁30	-2932
▁가도	-2933
▁감성	-2934
▁개강	-2935
▁거면	-2936
▁경쟁	-2937
▁공시	-2938
▁그는	-2939
▁그대	-2940
▁글로	-2941
▁기원	-2942
▁깨끗	-2943
▁남기	-2944
▁내리	-2945
▁내요	-2946
▁너를	-2947
▁노후	-2948
▁늦은	-2949
▁답장	-2950
▁대출	-2951
▁데는	-2952
▁떠오	-2953
▁맛집	-2954
▁맞추	-2955
▁매달	-2956
▁면도	-2957
▁명절	-2958
▁모른	-2959
▁못잊	-2960
▁무거	-2961
▁받은	-2962
▁밝혀	-2963
▁버릴	-2964
▁별거	-2965
▁보다	-2966
▁봄이	-2967
▁부딪	-2968
▁빠를	-2969
▁살기	-2970
▁삶을	-2971
▁생겨	-2972
▁샤워	-2973
▁성장	-2974
▁속에	-2975
▁수다	-2976
▁술마	-2977
▁술을	-2978
▁심경	-2979
▁싱숭	-2980
▁썸은	-2981
▁애들	-2982
▁어머	-2983
▁없지	-2984
▁에휴	-2985
▁여름	-2986
▁염색	-2987
▁왔네	-2988
▁외모	-2989
▁유부	-2990
▁은연	-2991
▁이미	-2992
▁인내	-2993
▁입을	-2994
▁잘되	-2995
▁장소	-2996
▁중인	-2997
▁지는	-2998
▁콩깍	-2999
▁투자	-3000
▁핑계	-3001
▁하다	-3002
▁하던	-3003
▁해보	-3004
▁흐르	-3005
갑니다	-3006
내세요	-3007
르세요	-3008
셨네요	-3009
왔는데	-3010
을거라	-3011
졌으면	-3012
줬는데	-3013
하기는	-3014
하기도	-3015
하느라	-3016
하는거	-3017
하지는	-3018
▁가끔은	-3019
▁가는데	-3020
▁감정의	-3021
▁결혼은	-3022
▁고민임	-3023
▁고백을	-3024
▁과정이	-3025
▁꽃다발	-3026
▁나보다	-3027
▁남자들	-3028
▁내려놓	-3029
▁내세요	-3030
▁너에게	-3031
▁노력하	-3032
▁달라진	-3033
▁답답한	-3034
▁답답해	-3035
▁도와줘	-3036
▁도움을	-3037
▁되는지	-3038
▁말하지	-3039
▁못해요	-3040
▁받으면	-3041
▁발렌타	-3042
▁배고파	-3043
▁배우는	-3044
▁보내는	-3045
▁보이지	-3046
▁본인의	-3047
▁부분이	-3048
▁빼빼로	-3049
▁사진을	-3050
▁생겼네	-3051
▁솔직한	-3052
▁쉬어도	-3053
▁습관을	-3054
▁않아서	-3055
▁않을까	-3056
▁알아차	-3057
▁연애에	-3058
▁완벽한	-3059
▁왔으면	-3060
▁우리는	-3061
▁위로봇	-3062
▁이별도	-3063
▁이별에	-3064
▁이어나	-3065
▁이유는	-3066
▁이제야	-3067
▁이해가	-3068
▁인생을	-3069
▁일어났	-3070
▁일하는	-3071
▁있지요	-3072
▁자격이	-3073
▁자체가	-3074
▁재미가	-3075
▁전화를	-3076
▁정리를	-3077
▁정신차	-3078
▁좋으면	-3079
▁주말에	-3080
▁주말이	-3081
▁주변에	-3082
▁차라리	-3083
▁표현을	-3084
▁해주는	-3085
▁행복은	-3086
▁행복을	-3087
▁헤어질	-3088
▁현실을	-3089
▁혼자만	-3090
▁혼자서	-3091
▁가능해요	-3092
▁결혼하면	-3093
▁그녀에게	-3094
▁기대세요	-3095
▁나가세요	-3096
▁노력하는	-3097
▁다르겠죠	-3098
▁다음부터	-3099
▁두근거리	-3100
▁로맨틱한	-3101
▁마련이죠	-3102
▁마음대로	-3103
▁바쁘거나	-3104
▁상대에게	-3105
▁슬프네요	-3106
▁싱숭생숭	-3107
▁써보세요	-3108
▁않겠지만	-3109
▁않나봐요	-3110
▁알다가도	-3111
▁어울리는	-3112
▁오랫동안	-3113
▁익숙해지	-3114
▁있었으면	-3115
▁있을까요	-3116
▁있을지도	-3117
▁정리하는	-3118
▁좋아했던	-3119
▁지났네요	-3120
▁직장에서	-3121
▁짝사랑은	-3122
▁타이밍이	-3123
▁해야할까	-3124
▁헤아리는	-3125
▁헤어지면	-3126
▁헤어지지	-3127
▁현실적인	-3128
▁흔들리지	-3129
으신가봐요	-3130
인가봅니다	-3131
▁감사합니다	-3132
▁걸어보세요	-3133
▁고생했어요	-3134
▁골라보세요	-3135
▁남자친구랑	-3136
▁되었습니다	-3137
▁드셔보세요	-3138
▁들어보세요	-3139
▁마련이에요	-3140
▁마지막으로	-3141
▁맞았나봐요	-3142
▁스트레스가	-3143
▁시어머니가	-3144
▁아니니까요	-3145
▁있더라고요	-3146
▁조금이라도	-3147
▁다가가보세요	-3148
▁로맨틱하네요	-3149
▁복잡하겠어요	-3150
▁부탁해보세요	-3151
▁여자친구에게	-3152
▁표현해보세요	-3153
▁꼼	-3154
▁널	-3155
▁년	-3156
▁늙	-3157
▁땡	-3158
▁맡	-3159
▁봉	-3160
▁섬	-3161
▁씁	-3162
▁얻	-3163
▁옴	-3164
▁왕	-3165
▁왤	-3166
▁웬	-3167
▁젖	-3168
▁짱	-3169
▁폭	-3170
▁효	-3171
각이	-3172
걸로	-3173
겹살	-3174
공평	-3175
난다	-3176
답을	-3177
대한	-3178
도가	-3179
럽게	-3180
만은	-3181
받아	-3182
번호	-3183
부여	-3184
분들	-3185
분이	-3186
선을	-3187
셔요	-3188
시원	-3189
육아	-3190
이스	-3191
있어	-3192
정을	-3193
주면	-3194
지게	-3195
쳤어	-3196
테리	-3197
통수	-3198
하대	-3199
해진	-3200
활동	-3201
히는	-3202
▁가만	-3203
▁감고	-3204
▁같지	-3205
▁걸리	-3206
▁걸어	-3207
▁곁에	-3208
▁구멍	-3209
▁귀가	-3210
▁그립	-3211
▁기준	-3212
▁길러	-3213
▁나지	-3214
▁남은	-3215
▁너도	-3216
▁놀랐	-3217
▁눈치	-3218
▁느낄	-3219
▁다닐	-3220
▁다리	-3221
▁다정	-3222
▁단계	-3223
▁답이	-3224
▁되돌	-3225
▁딸기	-3226
▁똑똑	-3227
▁많지	-3228
▁매너	-3229
▁멀리	-3230
▁멀어	-3231
▁메모	-3232
▁모자	-3233
▁몰래	-3234
▁무색	-3235
▁뭐라	-3236
▁바다	-3237
▁반가	-3238
▁반응	-3239
▁보낼	-3240
▁봉사	-3241
▁봤어	-3242
▁비난	-3243
▁비정	-3244
▁비참	-3245
▁빌려	-3246
▁사겨	-3247
▁사면	-3248
▁사업	-3249
▁상상	-3250
▁새해	-3251
▁성향	-3252
▁센스	-3253
▁솔로	-3254
▁수는	-3255
▁수면	-3256
▁순수	-3257
▁술이	-3258
▁시키	-3259
▁신중	-3260
▁실내	-3261
▁심리	-3262
▁썸을	-3263
▁쓰지	-3264
▁아플	-3265
▁악몽	-3266
▁애교	-3267
▁어이	-3268
▁업무	-3269
▁에너	-3270
▁여우	-3271
▁연속	-3272
▁왤케	-3273
▁운전	-3274
▁웃을	-3275
▁웬수	-3276
▁은퇴	-3277
▁의심	-3278
▁의외	-3279
▁의욕	-3280
▁이직	-3281
▁인턴	-3282
▁일만	-3283
▁입어	-3284
▁잇몸	-3285
▁있기	-3286
▁자괴	-3287
▁잘지	-3288
▁적금	-3289
▁정상	-3290
▁주기	-3291
▁지갑	-3292
▁지도	-3293
▁지진	-3294
▁착한	-3295
▁참견	-3296
▁참는	-3297
▁찾는	-3298
▁천재	-3299
▁체육	-3300
▁쳐다	-3301
▁충격	-3302
▁큰일	-3303
▁통화	-3304
▁특별	-3305
▁풀릴	-3306
▁하시	-3307
▁학생	-3308
▁한거	-3309
▁한숨	-3310
▁해봤	-3311
▁해외	-3312
▁허무	-3313
▁헛헛	-3314
▁후가	-3315
▁휴식	-3316
가는데	-3317
개월이	-3318
개월째	-3319
기세요	-3320
다는건	-3321
더라구	-3322
드리고	-3323
버렸네	-3324
봅시다	-3325
야할까	-3326
었네요	-3327
에게나	-3328
였는데	-3329
을텐데	-3330
이세요	-3331
이었길	-3332
점에서	-3333
하나봐	-3334
해야할	-3335
해하지	-3336
▁가벼운	-3337
▁가족이	-3338
▁강아지	-3339
▁같아서	-3340
▁거리를	-3341
▁걱정이	-3342
▁결혼할	-3343
▁고백할	-3344
▁그러고	-3345
▁그럼요	-3346
▁그리운	-3347
▁기억이	-3348
▁기회를	-3349
▁끝났어	-3350
▁나만의	-3351
▁나아졌	-3352
▁나아질	-3353
▁나을까	-3354
▁나혼자	-3355
▁남에게	-3356
▁누구든	-3357
▁눈치가	-3358
▁느끼는	-3359
▁단단히	-3360
▁달콤한	-3361
▁당했어	-3362
▁돌아가	-3363
▁돌아올	-3364
▁두달이	-3365
▁들었어	-3366
▁따뜻할	-3367
▁마시고	-3368
▁마시면	-3369
▁만나도	-3370
▁만들고	-3371
▁많아서	-3372
▁맛나게	-3373
▁머리랑	-3374
▁머릿속	-3375
▁모든걸	-3376
▁뭐할까	-3377
▁복잡한	-3378
▁사랑도	-3379
▁사랑하	-3380
▁사야지	-3381
▁사이에	-3382
▁사정이	-3383
▁살아야	-3384
▁삼겹살	-3385
▁생기면	-3386
▁성공할	-3387
▁세상은	-3388
▁소화제	-3389
▁시작해	-3390
▁신나는	-3391
▁실수를	-3392
▁싶다고	-3393
▁아까워	-3394
▁아니죠	-3395
▁아이돌	-3396
▁아침이	-3397
▁안되네	-3398
▁어떨까	-3399
▁없어도	-3400
▁없을까	-3401
▁여유가	-3402
▁여행도	-3403
▁연애로	-3404
▁영화관	-3405
▁오늘이	-3406
▁외로운	-3407
▁우연히	-3408
▁위해서	-3409
▁음식을	-3410
▁이루어	-3411
▁자격증	-3412
▁자신감	-3413
▁잘못된	-3414
▁잘못인	-3415
▁전화가	-3416
▁종교가	-3417
▁청첩장	-3418
▁컨디션	-3419
▁하는건	-3420
▁하늘을	-3421
▁하루도	-3422
▁흐르고	-3423
렸나봐요	-3424
았습니다	-3425
해야겠지	-3426
▁결혼해도	-3427
▁고백하는	-3428
▁고백하면	-3429
▁궁금해요	-3430
▁그렇다면	-3431
▁긍정적인	-3432
▁기다리면	-3433
▁기다리지	-3434
▁까먹었다	-3435
▁놀러가고	-3436
▁느낌이야	-3437
▁데이트를	-3438
▁드릴게요	-3439
▁마셔야지	-3440
▁말이네요	-3441
▁말해볼까	-3442
▁목소리를	-3443
▁미세먼지	-3444
▁사람들은	-3445
▁생겼으면	-3446
▁세상에서	-3447
▁싫어하는	-3448
▁아니지만	-3449
▁알아보고	-3450
▁어디까지	-3451
▁어려워요	-3452
▁오늘따라	-3453
▁왔습니다	-3454
▁우선순위	-3455
▁유지하는	-3456
▁의미부여	-3457
▁이번에는	-3458
▁잠수이별	-3459
▁좋아하나	-3460
▁좋았는데	-3461
▁줘보세요	-3462
▁짝녀에게	-3463
▁추천해요	-3464
▁프로포즈	-3465
▁해야겠다	-3466
▁해야할지	-3467
▁행복해지	-3468
▁헤어졌네	-3469
▁헤어지자	-3470
▁힘듭니다	-3471
▁관리하세요	-3472
▁괜찮아졌길	-3473
▁다르겠지요	-3474
▁말해주세요	-3475
▁먹어보세요	-3476
▁물어보는게	-3477
▁받아보세요	-3478
▁보내주세요	-3479
▁사랑이네요	-3480
▁생각만해도	-3481
▁생각했는데	-3482
▁소식이네요	-3483
▁아무렇지도	-3484
▁읽어보세요	-3485
▁있나봅니다	-3486
▁좋아하는거	-3487
▁취해보세요	-3488
▁사람인가봐요	-3489
▁사랑했나봐요	-3490
▁생각했나봐요	-3491
▁좋아하나봐요	-3492
▁노력하겠습니다	-3493
▁거기까지인가봐요	-3494
▁검	-3495
▁꽤	-3496
▁끌	-3497
▁끓	-3498
▁낙	-3499
▁땐	-3500
▁레	-3501
▁를	-3502
▁며	-3503
▁브	-3504
▁빈	-3505
▁색	-3506
▁쌩	-3507
▁앉	-3508
▁쟁	-3509
▁쪼	-3510
▁칼	-3511
▁탄	-3512
▁탔	-3513
▁활	-3514
▁휘	-3515
간다	-3516
같지	-3517
기력	-3518
길이	-3519
나나	-3520
났어	-3521
너무	-3522
년간	-3523
년을	-3524
담을	-3525
도를	-3526
되길	-3527
되지	-3528
드름	-3529
들지	-3530
라우	-3531
려서	-3532
렸을	-3533
리러	-3534
만한	-3535
모습	-3536
복이	-3537
셔야	-3538
소음	-3539
수있	-3540
숙사	-3541
순간	-3542
스는	-3543
스피	-3544
시키	-3545
쓰는	-3546
었길	-3547
였을	-3548
우스	-3549
인다	-3550
일차	-3551
자를	-3552
장에	-3553
적령	-3554
제가	-3555
종일	-3556
주도	-3557
지기	-3558
지길	-3559
출발	-3560
침이	-3561
침표	-3562
콜릿	-3563
크닉	-3564
토닥	-3565
트북	-3566
하철	-3567
호회	-3568
▁15	-3569
▁간단	-3570
▁간사	-3571
▁강렬	-3572
▁건조	-3573
▁검색	-3574
▁겨우	-3575
▁고칠	-3576
▁그를	-3577
▁그저	-3578
▁기간	-3579
▁기도	-3580
▁길어	-3581
▁깨닫	-3582
▁깨요	-3583
▁꿈은	-3584
▁끝도	-3585
▁끝에	-3586
▁끝인	-3587
▁나네	-3588
▁난방	-3589
▁남는	-3590
▁남지	-3591
▁냉정	-3592
▁너는	-3593
▁노는	-3594
▁놀죠	-3595
▁니가	-3596
▁단둘	-3597
▁달려	-3598
▁대리	-3599
▁덜할	-3600
▁덤덤	-3601
▁동성	-3602
▁든든	-3603
▁들고	-3604
▁들이	-3605
▁때로	-3606
▁뛰어	-3607
▁로또	-3608
▁마셨	-3609
▁막혀	-3610
▁말로	-3611
▁매주	-3612
▁멍청	-3613
▁못했	-3614
▁문신	-3615
▁버티	-3616
▁보게	-3617
▁봐서	-3618
▁부드	-3619
▁비싼	-3620
▁빠져	-3621
▁사내	-3622
▁살이	-3623
▁살지	-3624
▁서툴	-3625
▁섬유	-3626
▁성별	-3627
▁성숙	-3628
▁세워	-3629
▁셀카	-3630
▁신기	-3631
▁싸워	-3632
▁아쉽	-3633
▁알기	-3634
▁약을	-3635
▁약이	-3636
▁어필	-3637
▁언니	-3638
▁와서	-3639
▁위기	-3640
▁유학	-3641
▁유효	-3642
▁의사	-3643
▁일년	-3644
▁입고	-3645
▁입지	-3646
▁있다	-3647
▁잡아	-3648
▁잤어	-3649
▁적게	-3650
▁전혀	-3651
▁정류	-3652
▁정의	-3653
▁제게	-3654
▁조건	-3655
▁종일	-3656
▁주식	-3657
▁줄까	-3658
▁즐겁	-3659
▁지울	-3660
▁지치	-3661
▁책을	-3662
▁철벽	-3663
▁최근	-3664
▁축복	-3665
▁치료	-3666
▁침대	-3667
▁코스	-3668
▁키가	-3669
▁택배	-3670
▁통해	-3671
▁패턴	-3672
▁포근	-3673
▁풀렸	-3674
▁풀어	-3675
▁했나	-3676
▁호의	-3677
▁확신	-3678
▁회복	-3679
▁회원	-3680
▁후에	-3681
▁흘러	-3682
겼는데	-3683
라우마	-3684
보아요	-3685
야하나	-3686
에서도	-3687
였으면	-3688
유증이	-3689
으려면	-3690
이예요	-3691
인데이	-3692
인인데	-3693
적이야	-3694
지네요	-3695
하라고	-3696
해야죠	-3697
했더니	-3698
했지만	-3699
▁가만히	-3700
▁같다고	-3701
▁것처럼	-3702
▁결정은	-3703
▁결정할	-3704
▁경험이	-3705
▁계획을	-3706
▁고마워	-3707
▁그녀와	-3708
▁그럴까	-3709
▁그럴만	-3710
▁그렇죠	-3711
▁그분이	-3712
▁기숙사	-3713
▁기억을	-3714
▁끝나고	-3715
▁끝났네	-3716
▁나쁘지	-3717
▁나타날	-3718
▁남들이	-3719
▁내일도	-3720
▁노트북	-3721
▁느껴져	-3722
▁늘어요	-3723
▁다음에	-3724
▁달달한	-3725
▁답답할	-3726
▁답장이	-3727
▁동호회	-3728
▁됐어요	-3729
▁되는게	-3730
▁될지도	-3731
▁뒤에서	-3732
▁떠나고	-3733
▁마침표	-3734
▁만드는	-3735
▁많으면	-3736
▁말라고	-3737
▁말투가	-3738
▁말해도	-3739
▁맞는지	-3740
▁맞을까	-3741
▁멋져요	-3742
▁모든게	-3743
▁모르게	-3744
▁모른척	-3745
▁무기력	-3746
▁미련은	-3747
▁바라는	-3748
▁바라지	-3749
▁배우자	-3750
▁번호를	-3751
▁변하는	-3752
▁보는게	-3753
▁보여요	-3754
▁불공평	-3755
▁불편해	-3756
▁사는게	-3757
▁사랑과	-3758
▁살아요	-3759
▁상담을	-3760
▁상대가	-3761
▁새출발	-3762
▁생각날	-3763
▁선물로	-3764
▁소리가	-3765
▁속상해	-3766
▁속에서	-3767
▁순간이	-3768
▁쉬어가	-3769
▁신경을	-3770
▁신경이	-3771
▁썸에서	-3772
▁썸인가	-3773
▁아니고	-3774
▁아닐까	-3775
▁아름답	-3776
▁아빠가	-3777
▁아직은	-3778
▁아프지	-3779
▁아픔을	-3780
▁아픔의	-3781
▁앞두고	-3782
▁어렵네	-3783
▁없애는	-3784
▁여드름	-3785
▁여자는	-3786
▁여자와	-3787
▁여행가	-3788
▁영화보	-3789
▁오래된	-3790
▁우울해	-3791
▁운명이	-3792
▁이러지	-3793
▁이해해	-3794
▁인스타	-3795
▁일들이	-3796
▁일부터	-3797
▁일이죠	-3798
▁있을지	-3799
▁잊혀질	-3800
▁자세히	-3801
▁자체로	-3802
▁정도는	-3803
▁정말로	-3804
▁제주도	-3805
▁좋으시	-3806
▁증거를	-3807
▁지하철	-3808
▁차가워	-3809
▁처음에	-3810
▁초콜릿	-3811
▁출퇴근	-3812
▁친구도	-3813
▁태어났	-3814
▁피크닉	-3815
▁하고싶	-3816
▁하네요	-3817
▁하려고	-3818
▁하루를	-3819
▁하자고	-3820
▁하지만	-3821
▁해야죠	-3822
▁해주고	-3823
▁했어요	-3824
▁현실의	-3825
▁현재를	-3826
▁회사는	-3827
▁후회는	-3828
▁힘내지	-3829
갈거예요	-3830
개월만에	-3831
겨보세요	-3832
이니까요	-3833
하고싶어	-3834
하시네요	-3835
▁결혼적령	-3836
▁관심사를	-3837
▁그러게요	-3838
▁남자한테	-3839
▁노력하면	-3840
▁답답하네	-3841
▁당연하죠	-3842
▁될거예요	-3843
▁듯합니다	-3844
▁모르는게	-3845
▁무시하는	-3846
▁물어봐요	-3847
▁미친듯이	-3848
▁별로라고	-3849
▁봉사활동	-3850
▁빠를수록	-3851
▁사람인데	-3852
▁사랑에는	-3853
▁사이에서	-3854
▁사회생활	-3855
▁상처받지	-3856
▁생각할까	-3857
▁생각해도	-3858
▁성공하길	-3859
▁시원하게	-3860
▁아니네요	-3861
▁안되겠지	-3862
▁안되는데	-3863
▁언제까지	-3864
▁엄마한테	-3865
▁여자들이	-3866
▁연락처를	-3867
▁연애하고	-3868
▁이별하고	-3869
▁이제라도	-3870
▁있겠네요	-3871
▁있었나요	-3872
▁잡으세요	-3873
▁전화하는	-3874
▁좋을까요	-3875
▁준비하고	-3876
▁중입니다	-3877
▁지금보다	-3878
▁첫사랑이	-3879
▁취미생활	-3880
▁친구라고	-3881
▁카페에서	-3882
▁트라우마	-3883
▁표현하는	-3884
▁필요했을	-3885
▁하루에도	-3886
▁행복해질	-3887
▁헤아리지	-3888
▁헤어짐을	-3889
▁혼자만의	-3890
▁후유증이	-3891
▁힘들지요	-3892
▁가능합니다	-3893
▁간접적이든	-3894
▁그랬나봐요	-3895
▁기다리는게	-3896
▁기분전환을	-3897
▁누구에게나	-3898
▁다음부터는	-3899
▁떠나보세요	-3900
▁말씀하세요	-3901
▁맞을거예요	-3902
▁받아들이기	-3903
▁밝혀보세요	-3904
▁버텨보세요	-3905
▁보여주세요	-3906
▁부담스러운	-3907
▁사람이라면	-3908
▁생각해봐요	-3909
▁시작하세요	-3910
▁않았나봐요	-3911
▁억지로라도	-3912
▁정해보세요	-3913
▁좋아했는데	-3914
▁주기적으로	-3915
▁직접적이든	-3916
▁참아보세요	-3917
▁챙겨드세요	-3918
▁축하합니다	-3919
▁풀어보세요	-3920
▁하지마세요	-3921
▁기다려주세요	-3922
▁발렌타인데이	-3923
▁사람이니까요	-3924
▁여자친구한테	-3925
▁위로봇입니다	-3926
▁필요하겠어요	-3927
▁결정이었을텐데	-3928
▁거기까지였나봐요	-3929
00	-3930
▁곰	-3931
▁곱	-3932
▁광	-3933
▁꾹	-3934
▁낚	-3935
▁낼	-3936
▁니	-3937
▁닫	-3938
▁득	-3939
▁땅	-3940
▁롱	-3941
▁묻	-3942
▁밖	-3943
▁쉴	-3944
▁슈	-3945
▁액	-3946
▁엉	-3947
▁옳	-3948
▁짠	-3949
▁찜	-3950
▁황	-3951
▁흑	-3952
▁흥	-3953
거같	-3954
거지	-3955
건데	-3956
겠음	-3957
겨워	-3958
곰히	-3959
관계	-3960
관리	-3961
교통	-3962
근차	-3963
기업	-3964
끄러	-3965
나네	-3966
다른	-3967
대체	-3968
대회	-3969
도는	-3970
돌아	-3971
돼서	-3972
듯한	-3973
라서	-3974
란게	-3975
랑이	-3976
로리	-3977
료가	-3978
마요	-3979
만나	-3980
매일	-3981
면증	-3982
바이	-3983
벤트	-3984
비가	-3985
상담	-3986
선물	-3987
세포	-3988
수가	-3989
수증	-3990
심을	-3991
양이	-3992
였던	-3993
와서	-3994
와요	-3995
으셨	-3996
이크	-3997
인상	-3998
작정	-3999
저리	-4000
절한	-4001
정보	-4002
젯밤	-4003
졌네	-4004
조심	-4005
지런	-4006
지죠	-4007
질방	-4008
짐에	-4009
청소	-4010
터디	-4011
트콘	-4012
표현	-4013
하자	-4014
학기	-4015
한잔	-4016
해를	-4017
했길	-4018
행기	-4019
형이	-4020
화가	-4021
히려	-4022
▁ᄒᄒ	-4023
▁가늠	-4024
▁가득	-4025
▁가려	-4026
▁감당	-4027
▁감히	-4028
▁강습	-4029
▁갖지	-4030
▁거둘	-4031
▁거요	-4032
▁고고	-4033
▁고기	-4034
▁고치	-4035
▁공감	-4036
▁공개	-4037
▁관련	-4038
▁귀를	-4039
▁금연	-4040
▁기프	-4041
▁깊게	-4042
▁깜빡	-4043
▁꾸며	-4044
▁끝날	-4045
▁나누	-4046
▁나빠	-4047
▁낭비	-4048
▁넘어	-4049
▁놀다	-4050
▁누굴	-4051
▁느낀	-4052
▁늦어	-4053
▁단순	-4054
▁단호	-4055
▁대답	-4056
▁대우	-4057
▁대중	-4058
▁대체	-4059
▁도망	-4060
▁동감	-4061
▁득템	-4062
▁들리	-4063
▁들을	-4064
▁때려	-4065
▁떠났	-4066
▁로봇	-4067
▁막차	-4068
▁많네	-4069
▁많다	-4070
▁말아	-4071
▁말한	-4072
▁맛이	-4073
▁맞지	-4074
▁맞춤	-4075
▁매번	-4076
▁먹지	-4077
▁며칠	-4078
▁몇일	-4079
▁무릎	-4080
▁뭐하	-4081
▁바디	-4082
▁발목	-4083
▁밤에	-4084
▁베풀	-4085
▁변해	-4086
▁보름	-4087
▁부부	-4088
▁분노	-4089
▁분들	-4090
▁빠른	-4091
▁빼고	-4092
▁살면	-4093
▁삶의	-4094
▁상의	-4095
▁생리	-4096
▁서류	-4097
▁성덕	-4098
▁성적	-4099
▁성형	-4100
▁소액	-4101
▁소유	-4102
▁소주	-4103
▁속은	-4104
▁수염	-4105
▁수영	-4106
▁수학	-4107
▁술만	-4108
▁쉬어	-4109
▁쉽진	-4110
▁슈퍼	-4111
▁스테	-4112
▁스팸	-4113
▁신뢰	-4114
▁실례	-4115
▁싸움	-4116
▁쌩얼	-4117
▁썸만	-4118
▁썸일	-4119
▁썼어	-4120
▁씻고	-4121
▁아깝	-4122
▁아님	-4123
▁아련	-4124
▁아물	-4125
▁아주	-4126
▁안가	-4127
▁알뜰	-4128
▁애를	-4129
▁애석	-4130
▁애틋	-4131
▁어둠	-4132
▁어떠	-4133
▁연휴	-4134
▁예전	-4135
▁오락	-4136
▁오토	-4137
▁온다	-4138
▁올까	-4139
▁옷이	-4140
▁왕따	-4141
▁요구	-4142
▁요금	-4143
▁욕심	-4144
▁우린	-4145
▁운을	-4146
▁웃어	-4147
▁육아	-4148
▁음식	-4149
▁이것	-4150
▁이뻐	-4151
▁이쁜	-4152
▁일단	-4153
▁일에	-4154
▁잃어	-4155
▁입이	-4156
▁자는	-4157
▁자면	-4158
▁자취	-4159
▁잠재	-4160
▁잡는	-4161
▁전세	-4162
▁전역	-4163
▁점은	-4164
▁점이	-4165
▁조용	-4166
▁조차	-4167
▁조카	-4168
▁좋게	-4169
▁주름	-4170
▁줄어	-4171
▁중고	-4172
▁증오	-4173
▁지냈	-4174
▁지키	-4175
▁진지	-4176
▁짧지	-4177
▁찌질	-4178
▁차갑	-4179
▁차례	-4180
▁참아	-4181
▁참지	-4182
▁창업	-4183
▁책임	-4184
▁초기	-4185
▁추석	-4186
▁추운	-4187
▁치고	-4188
▁치맥	-4189
▁치열	-4190
▁치유	-4191
▁키워	-4192
▁타기	-4193
▁타던	-4194
▁탈출	-4195
▁탈퇴	-4196
▁티가	-4197
▁티를	-4198
▁편하	-4199
▁평가	-4200
▁평온	-4201
▁표시	-4202
▁푸는	-4203
▁필름	-4204
▁하든	-4205
▁학점	-4206
▁한강	-4207
▁합격	-4208
▁해낼	-4209
▁허리	-4210
▁혼란	-4211
▁혼술	-4212
▁흔적	-4213
▁흥미	-4214
▁희생	-4215
것같아	-4216
겠는데	-4217
교통을	-4218
근차근	-4219
년만에	-4220
년이란	-4221
되는데	-4222
들에게	-4223
방법을	-4224
보여요	-4225
봐야지	-4226
생활이	-4227
셨군요	-4228
스러울	-4229
스크림	-4230
스피싱	-4231
시간이	-4232
심으로	-4233
었나봐	-4234
영수증	-4235
우니까	-4236
이겠죠	-4237
인건가	-4238
적이고	-4239
적이죠	-4240
졌는데	-4241
지말고	-4242
하다면	-4243
하더니	-4244
하려는	-4245
할거야	-4246
할까봐	-4247
해주면	-4248
했나봐	-4249
▁가능한	-4250
▁가능해	-4251
▁가사가	-4252
▁가짐에	-4253
▁각자의	-4254
▁감정은	-4255
▁갔는데	-4256
▁걱정은	-4257
▁건가요	-4258
▁건강이	-4259
▁걸까요	-4260
▁것들이	-4261
▁견디고	-4262
▁경우가	-4263
▁경우도	-4264
▁계절이	-4265
▁고맙다	-4266
▁곰곰히	-4267
▁괴로워	-4268
▁괴롭게	-4269
▁군침이	-4270
▁궁금할	-4271
▁권태기	-4272
▁귀엽게	-4273
▁그러는	-4274
▁그분의	-4275
▁기간이	-4276
▁기대가	-4277
▁기분은	-4278
▁길에서	-4279
▁나가기	-4280
▁낫겠지	-4281
▁너무나	-4282
▁넘었네	-4283
▁노래를	-4284
▁누구도	-4285
▁능력을	-4286
▁대해서	-4287
▁대화가	-4288
▁더러워	-4289
▁도네요	-4290
▁도대체	-4291
▁도와주	-4292
▁도전해	-4293
▁동료가	-4294
▁되겠지	-4295
▁두근거	-4296
▁두번째	-4297
▁드시고	-4298
▁듣는데	-4299
▁떠보는	-4300
▁뜻대로	-4301
▁마음과	-4302
▁마주쳐	-4303
▁마주치	-4304
▁만나길	-4305
▁만나러	-4306
▁만남과	-4307
▁만남이	-4308
▁말하고	-4309
▁말해줘	-4310
▁맛있을	-4311
▁망했어	-4312
▁머리는	-4313
▁모아서	-4314
▁못하면	-4315
▁무거워	-4316
▁무엇을	-4317
▁무작정	-4318
▁문제는	-4319
▁문제로	-4320
▁미래에	-4321
▁바쁘면	-4322
▁방법을	-4323
▁배우면	-4324
▁버려야	-4325
▁변하지	-4326
▁별로야	-4327
▁보아요	-4328
▁보이는	-4329
▁부지런	-4330
▁불면증	-4331
▁비행기	-4332
▁사귀면	-4333
▁사람만	-4334
▁살면서	-4335
▁상처는	-4336
▁새학기	-4337
▁서로가	-4338
▁선배가	-4339
▁성공을	-4340
▁소식이	-4341
▁소심해	-4342
▁술먹고	-4343
▁쉬어야	-4344
▁스터디	-4345
▁시간에	-4346
▁시간표	-4347
▁실수할	-4348
▁싫다고	-4349
▁심경의	-4350
▁싸우면	-4351
▁아닌거	-4352
▁아프고	-4353
▁아픔이	-4354
▁안경테	-4355
▁안녕히	-4356
▁않지만	-4357
▁알았어	-4358
▁약속을	-4359
▁양해를	-4360
▁얘기를	-4361
▁어디로	-4362
▁어젯밤	-4363
▁언제든	-4364
▁얼굴이	-4365
▁없겠지	-4366
▁없는게	-4367
▁없지만	-4368
▁연습이	-4369
▁영원한	-4370
▁오히려	-4371
▁우리가	-4372
▁월급이	-4373
▁월요일	-4374
▁의미가	-4375
▁의미를	-4376
▁의욕이	-4377
▁이벤트	-4378
▁이해할	-4379
▁인상이	-4380
▁일어날	-4381
▁있는거	-4382
▁있어야	-4383
▁자괴감	-4384
▁자기도	-4385
▁자신과	-4386
▁자존감	-4387
▁잘해야	-4388
▁재회를	-4389
▁접어두	-4390
▁정규직	-4391
▁정리될	-4392
▁좋아질	-4393
▁준비중	-4394
▁중국어	-4395
▁중요하	-4396
▁중요할	-4397
▁지겨워	-4398
▁지나간	-4399
▁지내는	-4400
▁진심이	-4401
▁집중이	-4402
▁집착해	-4403
▁짜장면	-4404
▁찜질방	-4405
▁차이가	-4406
▁찾기를	-4407
▁찾아오	-4408
▁첫인상	-4409
▁최근에	-4410
▁최대한	-4411
▁최선을	-4412
▁추억은	-4413
▁치과에	-4414
▁커피향	-4415
▁키우고	-4416
▁타다가	-4417
▁태어나	-4418
▁터놓고	-4419
▁퇴근길	-4420
▁특별한	-4421
▁파먹기	-4422
▁피부가	-4423
▁하거나	-4424
▁하루가	-4425
▁하루에	-4426
▁행동이	-4427
▁혼자도	-4428
▁화이트	-4429
▁확인해	-4430
▁환승은	-4431
▁회사에	-4432
▁회사와	-4433
▁휴식을	-4434
▁힘든데	-4435
▁힘들고	-4436
되겠네요	-4437
버리세요	-4438
었겠네요	-4439
었습니다	-4440
왔습니다	-4441
의하세요	-4442
하시군요	-4443
▁가능할까	-4444
▁고민하게	-4445
▁고백하고	-4446
▁고쳐쓰는	-4447
▁공부하기	-4448
▁공부해서	-4449
▁공허함이	-4450
▁괜찮다면	-4451
▁괜찮지만	-4452
▁그럴지도	-4453
▁그만하고	-4454
▁기프트콘	-4455
▁깨끗하게	-4456
▁끝났으면	-4457
▁나을지도	-4458
▁나한테만	-4459
▁남사친이	-4460
▁노력하고	-4461
▁다가가는	-4462
▁다양하게	-4463
▁당신에게	-4464
▁돌아가고	-4465
▁드라이브	-4466
▁만들려고	-4467
▁말해봐요	-4468
▁맛있어요	-4469
▁매일매일	-4470
▁먹었는데	-4471
▁물어보고	-4472
▁받아보는	-4473
▁부드럽게	-4474
▁비교하지	-4475
▁사귀어도	-4476
▁사랑받고	-4477
▁사보세요	-4478
▁사이인데	-4479
▁상대방도	-4480
▁생각나고	-4481
▁선생님이	-4482
▁세상에는	-4483
▁센스있는	-4484
▁소개시켜	-4485
▁신경쓰는	-4486
▁신혼여행	-4487
▁실수하지	-4488
▁싫어하지	-4489
▁싸우면서	-4490
▁아니라는	-4491
▁않겠어요	-4492
▁애정표현	-4493
▁얼마든지	-4494
▁연락해서	-4495
▁오락가락	-4496
▁오토바이	-4497
▁운동으로	-4498
▁응원해요	-4499
▁의미있는	-4500
▁이기적인	-4501
▁이상형이	-4502
▁이야기해	-4503
▁익숙해질	-4504
▁인정받고	-4505
▁잊는다는	-4506
▁전남친이	-4507
▁좋습니다	-4508
▁좋아하지	-4509
▁집안일을	-4510
▁집착하는	-4511
▁차근차근	-4512
▁차리세요	-4513
▁차분하게	-4514
▁처음부터	-4515
▁처음에는	-4516
▁체육대회	-4517
▁추억으로	-4518
▁추천해줘	-4519
▁포기하는	-4520
▁하나라도	-4521
▁하루종일	-4522
▁학교에서	-4523
▁행복하길	-4524
▁행복할까	-4525
▁화장하는	-4526
▁회원정보	-4527
▁힘들지도	-4528
드려보세요	-4529
했나봅니다	-4530
▁꾸며보세요	-4531
▁달라지는게	-4532
▁대중교통을	-4533
▁되었나봐요	-4534
▁들여보세요	-4535
▁마음이라도	-4536
▁만남이었길	-4537
▁많은가봐요	-4538
▁못했나봐요	-4539
▁벗어나세요	-4540
▁보이스피싱	-4541
▁빌려보세요	-4542
▁사랑한다는	-4543
▁사랑할수록	-4544
▁상관없어요	-4545
▁선택일거라	-4546
▁스트레칭을	-4547
▁습관이네요	-4548
▁신고하세요	-4549
▁심하겠네요	-4550
▁심한가봐요	-4551
▁아니랍니다	-4552
▁아닌가봐요	-4553
▁아이스크림	-4554
▁안녕하세요	-4555
▁안타깝네요	-4556
▁않을거예요	-4557
▁올려달라고	-4558
▁웃어보세요	-4559
▁이야기해도	-4560
▁재미있어요	-4561
▁정류장에서	-4562
▁좋아한다고	-4563
▁준비하세요	-4564
▁줄여보세요	-4565
▁집중하세요	-4566
▁청해보세요	-4567
▁추천합니다	-4568
▁충전하세요	-4569
▁헤어지는게	-4570
▁헤어지세요	-4571
▁현금영수증	-4572
▁화이트데이	-4573
▁힘들거예요	-4574
▁힘들어하지	-4575
▁걱정되겠네요	-4576
▁남자친구한테	-4577
▁시간이겠네요	-4578
▁연습해보세요	-4579
▁예민한가봐요	-4580
▁이별했습니다	-4581
▁이용해주세요	-4582
▁정리해보세요	-4583
▁좋아할거예요	-4584
▁필요한가봐요	-4585
▁힘드신가봐요	-4586
▁두근거리겠어요	-4587
▁부지런하시네요	-4588
▁심호흡해보세요	-4589
ᄏᄏ	-4590
▁긁	-4591
▁끼	-4592
▁낳	-4593
▁덕	-4594
▁떡	-4595
▁똥	-4596
▁랜	-4597
▁밑	-4598
▁밟	-4599
▁벽	-4600
▁북	-4601
▁빚	-4602
▁빵	-4603
▁삐	-4604
▁승	-4605
▁씌	-4606
▁씨	-4607
▁엮	-4608
▁옥	-4609
▁왠	-4610
▁임	-4611
▁쪽	-4612
▁쫌	-4613
▁찼	-4614
▁층	-4615
▁켜	-4616
▁쿨	-4617
▁탓	-4618
▁팀	-4619
▁퍼	-4620
▁헌	-4621
▁훈	-4622
갔네	-4623
걸요	-4624
게임	-4625
고가	-4626
기지	-4627
김에	-4628
끼리	-4629
나가	-4630
난거	-4631
난히	-4632
노래	-4633
다리	-4634
달콩	-4635
담화	-4636
동산	-4637
되기	-4638
두절	-4639
드가	-4640
드시	-4641
레스	-4642
력은	-4643
련만	-4644
롭게	-4645
르네	-4646
모가	-4647
무게	-4648
문이	-4649
바퀴	-4650
버려	-4651
버리	-4652
버시	-4653
봤어	-4654
분간	-4655
사는	-4656
사에	-4657
살이	-4658
서야	-4659
수를	-4660
수저	-4661
숭숭	-4662
식에	-4663
심한	-4664
쏟아	-4665
았네	-4666
았다	-4667
연제	-4668
였나	-4669
오를	-4670
와의	-4671
왔네	-4672
우는	-4673
우니	-4674
웠을	-4675
으려	-4676
으며	-4677
으신	-4678
은거	-4679
을때	-4680
의금	-4681
있나	-4682
있음	-4683
있지	-4684
잖아	-4685
정리	-4686
조절	-4687
조차	-4688
주째	-4689
줘야	-4690
증을	-4691
진다	-4692
참고	-4693
카락	-4694
터가	-4695
트가	-4696
트업	-4697
플라	-4698
하실	-4699
한번	-4700
히네	-4701
힌다	-4702
▁20	-4703
▁가라	-4704
▁가볍	-4705
▁가스	-4706
▁가을	-4707
▁간식	-4708
▁갈때	-4709
▁감수	-4710
▁감싸	-4711
▁갔어	-4712
▁갚아	-4713
▁개념	-4714
▁거는	-4715
▁거랑	-4716
▁걸려	-4717
▁걸린	-4718
▁것들	-4719
▁것만	-4720
▁격려	-4721
▁경제	-4722
▁고장	-4723
▁곳을	-4724
▁괜한	-4725
▁괴로	-4726
▁구속	-4727
▁그가	-4728
▁기댈	-4729
▁길게	-4730
▁길은	-4731
▁김치	-4732
▁꺼내	-4733
▁꼼꼼	-4734
▁꿈같	-4735
▁끄는	-4736
▁끓여	-4737
▁끝낼	-4738
▁끝일	-4739
▁나날	-4740
▁나약	-4741
▁낚시	-4742
▁남길	-4743
▁내게	-4744
▁내기	-4745
▁높아	-4746
▁눈썹	-4747
▁눈은	-4748
▁능력	-4749
▁늦는	-4750
▁늦잠	-4751
▁다짐	-4752
▁다툼	-4753
▁단톡	-4754
▁담긴	-4755
▁답은	-4756
▁더욱	-4757
▁돈은	-4758
▁되기	-4759
▁듣기	-4760
▁들까	-4761
▁들려	-4762
▁들면	-4763
▁등산	-4764
▁등을	-4765
▁떨쳐	-4766
▁랜선	-4767
▁리폼	-4768
▁만에	-4769
▁맘을	-4770
▁망가	-4771
▁맞나	-4772
▁먹으	-4773
▁먼지	-4774
▁면허	-4775
▁명품	-4776
▁모를	-4777
▁모쏠	-4778
▁모임	-4779
▁목이	-4780
▁몸에	-4781
▁무관	-4782
▁무한	-4783
▁물건	-4784
▁뭐임	-4785
▁미용	-4786
▁미칠	-4787
▁미화	-4788
▁바늘	-4789
▁바지	-4790
▁받기	-4791
▁방문	-4792
▁배울	-4793
▁버리	-4794
▁번씩	-4795
▁변한	-4796
▁보단	-4797
▁복전	-4798
▁봄은	-4799
▁부디	-4800
▁부여	-4801
▁불금	-4802
▁비하	-4803
▁빠졌	-4804
▁빨래	-4805
▁뽑기	-4806
▁사냐	-4807
▁사탕	-4808
▁살찐	-4809
▁상메	-4810
▁서툰	-4811
▁설명	-4812
▁세월	-4813
▁손에	-4814
▁손톱	-4815
▁손해	-4816
▁수상	-4817
▁술은	-4818
▁숨막	-4819
▁슬쩍	-4820
▁슬픔	-4821
▁시골	-4822
▁시도	-4823
▁식단	-4824
▁신발	-4825
▁심어	-4826
▁썸인	-4827
▁쓸쓸	-4828
▁씁쓸	-4829
▁아기	-4830
▁아마	-4831
▁아팠	-4832
▁안에	-4833
▁안주	-4834
▁알지	-4835
▁알콩	-4836
▁애기	-4837
▁양말	-4838
▁어깨	-4839
▁어른	-4840
▁어리	-4841
▁염탐	-4842
▁예감	-4843
▁올랐	-4844
▁올해	-4845
▁옷을	-4846
▁왜그	-4847
▁요리	-4848
▁은행	-4849
▁의견	-4850
▁이모	-4851
▁이틀	-4852
▁인공	-4853
▁일반	-4854
▁읽씹	-4855
▁입에	-4856
▁있음	-4857
▁자도	-4858
▁작아	-4859
▁잔인	-4860
▁잘살	-4861
▁잘자	-4862
▁쟁취	-4863
▁적어	-4864
▁적이	-4865
▁전기	-4866
▁전해	-4867
▁제안	-4868
▁좋고	-4869
▁좋으	-4870
▁주택	-4871
▁지낼	-4872
▁지옥	-4873
▁진행	-4874
▁질질	-4875
▁짐을	-4876
▁집앞	-4877
▁짧게	-4878
▁찍고	-4879
▁착잡	-4880
▁참석	-4881
▁참을	-4882
▁처럼	-4883
▁첫눈	-4884
▁추스	-4885
▁층간	-4886
▁치매	-4887
▁치워	-4888
▁코가	-4889
▁타다	-4890
▁털어	-4891
▁특징	-4892
▁틀린	-4893
▁티내	-4894
▁편의	-4895
▁포장	-4896
▁표정	-4897
▁피자	-4898
▁한계	-4899
▁한국	-4900
▁한창	-4901
▁한켠	-4902
▁할줄	-4903
▁해줄	-4904
▁형편	-4905
▁호칭	-4906
▁화내	-4907
▁흑역	-4908
▁힘껏	-4909
거겠죠	-4910
겠다고	-4911
끄러워	-4912
납니다	-4913
냈어요	-4914
년연애	-4915
느냐에	-4916
데이트	-4917
라는게	-4918
릅니다	-4919
받았어	-4920
보다는	-4921
생인데	-4922
셔야죠	-4923
식하는	-4924
았으면	-4925
었나요	-4926
유연제	-4927
이라서	-4928
인걸까	-4929
인데요	-4930
정적인	-4931
지세요	-4932
집니다	-4933
터리가	-4934
테리어	-4935
한건가	-4936
해졌어	-4937
해주지	-4938
했네요	-4939
▁가까운	-4940
▁강렬한	-4941
▁거라고	-4942
▁거절의	-4943
▁걱정할	-4944
▁것들을	-4945
▁게임을	-4946
▁고마운	-4947
▁고백은	-4948
▁고치고	-4949
▁공부할	-4950
▁그러게	-4951
▁그리울	-4952
▁그리움	-4953
▁긁었어	-4954
▁금수저	-4955
▁기다렸	-4956
▁기다림	-4957
▁기대를	-4958
▁기본이	-4959
▁기억의	-4960
▁끝내고	-4961
▁끝인가	-4962
▁나가야	-4963
▁나갔어	-4964
▁남자도	-4965
▁너한테	-4966
▁놀아줘	-4967
▁누구랑	-4968
▁눈에서	-4969
▁다가오	-4970
▁다르죠	-4971
▁단둘이	-4972
▁달려있	-4973
▁당분간	-4974
▁당연한	-4975
▁당연히	-4976
▁대화로	-4977
▁되는거	-4978
▁뒤숭숭	-4979
▁뒤통수	-4980
▁뒷담화	-4981
▁드리고	-4982
▁드시면	-4983
▁들어도	-4984
▁들어서	-4985
▁들어올	-4986
▁들어줄	-4987
▁들으면	-4988
▁때문일	-4989
▁때예요	-4990
▁똑같아	-4991
▁마셔도	-4992
▁마실까	-4993
▁마음만	-4994
▁만나자	-4995
▁만남에	-4996
▁말했어	-4997
▁망했다	-4998
▁맞는거	-4999
▁맞아요	-5000
▁맞춤법	-5001
▁매력이	-5002
▁먹었어	-5003
▁먹자고	-5004
▁먼지가	-5005
▁멀어진	-5006
▁멋지게	-5007
▁목소리	-5008
▁몸무게	-5009
▁못참고	-5010
▁못해서	-5011
▁물리적	-5012
▁뭐하는	-5013
▁미끄러	-5014
▁미련도	-5015
▁믿음을	-5016
▁바꿀까	-5017
▁바뀌게	-5018
▁바르고	-5019
▁바빠도	-5020
▁바빠서	-5021
▁밖에서	-5022
▁반응이	-5023
▁받아야	-5024
▁배고프	-5025
▁버텨요	-5026
▁베터리	-5027
▁보내지	-5028
▁보냈어	-5029
▁보면서	-5030
▁보자고	-5031
▁볼게요	-5032
▁봤는데	-5033
▁부딪혔	-5034
▁부탁드	-5035
▁빌어요	-5036
▁뻔했어	-5037
▁사겨도	-5038
▁사귀던	-5039
▁사라질	-5040
▁살아가	-5041
▁상사가	-5042
▁상처도	-5043
▁생리통	-5044
▁서운해	-5045
▁서툴러	-5046
▁선에서	-5047
▁선택할	-5048
▁선톡을	-5049
▁세상이	-5050
▁소원을	-5051
▁속도를	-5052
▁습관이	-5053
▁시계는	-5054
▁신경써	-5055
▁싫어도	-5056
▁심장이	-5057
▁싶다는	-5058
▁싸우는	-5059
▁아무말	-5060
▁아픔은	-5061
▁안하지	-5062
▁않는게	-5063
▁어디든	-5064
▁어려울	-5065
▁어렵죠	-5066
▁어렸을	-5067
▁어리게	-5068
▁어제와	-5069
▁어쩔수	-5070
▁없는거	-5071
▁여자도	-5072
▁여행은	-5073
▁연락오	-5074
▁연락할	-5075
▁연애의	-5076
▁연인은	-5077
▁옆에서	-5078
▁예민한	-5079
▁오빠가	-5080
▁요즘은	-5081
▁우리집	-5082
▁유난히	-5083
▁유부남	-5084
▁의외로	-5085
▁이기적	-5086
▁인연은	-5087
▁입어도	-5088
▁있었을	-5089
▁잘못을	-5090
▁잘못이	-5091
▁재밌는	-5092
▁재밌다	-5093
▁재밌어	-5094
▁재회는	-5095
▁정도로	-5096
▁존재를	-5097
▁좋을지	-5098
▁좋지요	-5099
▁주면서	-5100
▁주제를	-5101
▁지나가	-5102
▁지나면	-5103
▁지내길	-5104
▁지르고	-5105
▁지우고	-5106
▁짜증날	-5107
▁차갑게	-5108
▁차별해	-5109
▁차이는	-5110
▁찾아온	-5111
▁추억에	-5112
▁축의금	-5113
▁친구네	-5114
▁친구는	-5115
▁친구와	-5116
▁친해지	-5117
▁친해질	-5118
▁카톡을	-5119
▁카톡이	-5120
▁택시비	-5121
▁편하고	-5122
▁평소에	-5123
▁프라이	-5124
▁프로필	-5125
▁피해를	-5126
▁하기도	-5127
▁하는지	-5128
▁하다가	-5129
▁하우스	-5130
▁학원을	-5131
▁한다는	-5132
▁한숨만	-5133
▁함께한	-5134
▁함께할	-5135
▁함부로	-5136
▁해보고	-5137
▁해야돼	-5138
▁해야할	-5139
▁행운을	-5140
▁현실과	-5141
▁혼자인	-5142
▁화장품	-5143
▁휴가가	-5144
▁흥미를	-5145
▁힘든거	-5146
러보세요	-5147
시겠네요	-5148
야하는데	-5149
지겠네요	-5150
테니까요	-5151
해야겠다	-5152
해야하는	-5153
해지세요	-5154
▁가능하면	-5155
▁가야겠죠	-5156
▁가치관이	-5157
▁거르세요	-5158
▁것입니다	-5159
▁결정이었	-5160
▁관리하는	-5161
▁권태기가	-5162
▁그대로의	-5163
▁기대하지	-5164
▁기억에서	-5165
▁나가볼까	-5166
▁나아졌길	-5167
▁낭비하지	-5168
▁놀이동산	-5169
▁달라진게	-5170
▁대화하는	-5171
▁도전하는	-5172
▁두려움을	-5173
▁두셨네요	-5174
▁들어왔어	-5175
▁떠오르는	-5176
▁마음정리	-5177
▁마주치는	-5178
▁만나는데	-5179
▁만들어서	-5180
▁맞추세요	-5181
▁머리카락	-5182
▁먹으면서	-5183
▁모르겠네	-5184
▁물어보면	-5185
▁미워하지	-5186
▁미치겠어	-5187
▁믿으세요	-5188
▁받아들일	-5189
▁보고싶네	-5190
▁보이네요	-5191
▁비난하지	-5192
▁비밀번호	-5193
▁사랑하기	-5194
▁살다보면	-5195
▁상대방에	-5196
▁생각으로	-5197
▁생각해서	-5198
▁생겼네요	-5199
▁생일이네	-5200
▁서류에서	-5201
▁선택이길	-5202
▁성공하고	-5203
▁셀프웨딩	-5204
▁수학여행	-5205
▁스타트업	-5206
▁시작이죠	-5207
▁시작하기	-5208
▁시작해도	-5209
▁신경쓰여	-5210
▁신중하게	-5211
▁심호흡을	-5212
▁쓰레기야	-5213
▁아는데도	-5214
▁아니었을	-5215
▁아닌가요	-5216
▁알콩달콩	-5217
▁어떻게든	-5218
▁어떻게해	-5219
▁언젠가는	-5220
▁없겠지요	-5221
▁여사친이	-5222
▁연락두절	-5223
▁연애하는	-5224
▁연애하면	-5225
▁연인으로	-5226
▁오늘부터	-5227
▁왔나봐요	-5228
▁운명적인	-5229
▁이별준비	-5230
▁이상형은	-5231
▁이어나가	-5232
▁인생이죠	-5233
▁인정하고	-5234
▁일어나는	-5235
▁일어나서	-5236
▁있었는데	-5237
▁잊으려고	-5238
▁잊혀지지	-5239
▁자신으로	-5240
▁자유로워	-5241
▁잘하는게	-5242
▁재미없어	-5243
▁재미있게	-5244
▁적응해야	-5245
▁정확하게	-5246
▁좋았으면	-5247
▁좋으련만	-5248
▁주변에서	-5249
▁주식으로	-5250
▁중요한데	-5251
▁지나갔길	-5252
▁진정으로	-5253
▁짝남에게	-5254
▁짝사랑을	-5255
▁층간소음	-5256
▁카톡으로	-5257
▁콩깍지가	-5258
▁퇴근하고	-5259
▁편하겠죠	-5260
▁필요한게	-5261
▁한달하고	-5262
▁해외여행	-5263
▁헤어지기	-5264
▁헤어지는	-5265
▁헤어짐이	-5266
▁혼자서도	-5267
▁후폭풍은	-5268
▁후회하기	-5269
▁힘들었죠	-5270
담해보세요	-5271
었으니까요	-5272
하신가봐요	-5273
▁가능하겠죠	-5274
▁걱정된다고	-5275
▁걸리겠지만	-5276
▁결혼하는데	-5277
▁과정이에요	-5278
▁구해보세요	-5279
▁기원합니다	-5280
▁남았나봐요	-5281
▁남자애한테	-5282
▁남자친구를	-5283
▁대해보세요	-5284
▁두려워하지	-5285
▁들어주세요	-5286
▁맞춰보세요	-5287
▁먹어야겠다	-5288
▁미세먼지가	-5289
▁바꿔보세요	-5290
▁붙여보세요	-5291
▁사과하세요	-5292
▁삭제하세요	-5293
▁상대방에게	-5294
▁상황이네요	-5295
▁섬유유연제	-5296
▁순간이네요	-5297
▁순간이었을	-5298
▁아름다워요	-5299
▁애매하네요	-5300
▁없을거예요	-5301
▁여자친구를	-5302
▁연락해볼까	-5303
▁연락했는데	-5304
▁연애하는데	-5305
▁외국인인데	-5306
▁이겨내세요	-5307
▁잃어버렸어	-5308
▁잊혀지기도	-5309
▁잘해주세요	-5310
▁좋아한다는	-5311
▁좋아했으면	-5312
▁좋을텐데요	-5313
▁큰일이네요	-5314
▁프라이버시	-5315
▁힘든가봐요	-5316
이었나봅니다	-5317
▁남자친구에게	-5318
▁당황했겠어요	-5319
▁마음인가봐요	-5320
▁마주쳐보세요	-5321
▁어필해보세요	-5322
▁인정해주세요	-5323
▁있으신가봐요	-5324
▁전화해보세요	-5325
▁좋아해줬으면	-5326
▁피곤한가봐요	-5327
▁필요하다면요	-5328
▁부담스러워하지	-5329
▁객	-5330
▁갠	-5331
▁겪	-5332
▁국	-5333
▁굳	-5334
▁굴	-5335
▁꼰	-5336
▁뉴	-5337
▁둔	-5338
▁뒹	-5339
▁뚫	-5340
▁라	-5341
▁렌	-5342
▁맴	-5343
▁맺	-5344
▁멘	-5345
▁몫	-5346
▁민	-5347
▁밉	-5348
▁뱃	-5349
▁뻑	-5350
▁샌	-5351
▁씹	-5352
▁엇	-5353
▁엠	-5354
▁웹	-5355
▁윗	-5356
▁좌	-5357
▁쫄	-5358
▁찢	-5359
▁컸	-5360
▁콕	-5361
▁킁	-5362
▁탁	-5363
▁팍	-5364
▁품	-5365
▁핫	-5366
▁햇	-5367
▁험	-5368
가가	-5369
가기	-5370
가능	-5371
가의	-5372
감당	-5373
강에	-5374
같애	-5375
걸음	-5376
게되	-5377
겠대	-5378
고있	-5379
공원	-5380
구경	-5381
구를	-5382
그만	-5383
극히	-5384
기에	-5385
긴다	-5386
길만	-5387
꺼야	-5388
꼬박	-5389
났네	-5390
냐구	-5391
네여	-5392
능에	-5393
달이	-5394
대는	-5395
독한	-5396
드네	-5397
드위	-5398
듬어	-5399
라네	-5400
라니	-5401
랬다	-5402
런지	-5403
력서	-5404
력에	-5405
로그	-5406
르기	-5407
르지	-5408
름이	-5409
리죠	-5410
리필	-5411
린라	-5412
림을	-5413
마자	-5414
만해	-5415
맛도	-5416
맛이	-5417
맥이	-5418
명한	-5419
문을	-5420
물을	-5421
밖은	-5422
받는	-5423
받을	-5424
발을	-5425
버린	-5426
보네	-5427
부의	-5428
뻑해	-5429
생각	-5430
서와	-5431
설여	-5432
센터	-5433
소리	-5434
속에	-5435
수업	-5436
스트	-5437
시피	-5438
신발	-5439
쎄요	-5440
아리	-5441
야해	-5442
양말	-5443
양제	-5444
없네	-5445
에만	-5446
역이	-5447
였네	-5448
영상	-5449
오래	-5450
온다	-5451
올라	-5452
올려	-5453
왔다	-5454
우고	-5455
우지	-5456
운데	-5457
울렛	-5458
은것	-5459
의식	-5460
이너	-5461
이래	-5462
인줄	-5463
저분	-5464
정녀	-5465
져서	-5466
조건	-5467
주일	-5468
지못	-5469
지부	-5470
지우	-5471
질뻔	-5472
질이	-5473
질제	-5474
쪄도	-5475
처리	-5476
총회	-5477
촬영	-5478
카드	-5479
콜록	-5480
터넷	-5481
터에	-5482
테니	-5483
트남	-5484
트롤	-5485
티콘	-5486
프터	-5487
하며	-5488
하진	-5489
학금	-5490
한건	-5491
함에	-5492
해가	-5493
했나	-5494
향을	-5495
▁12	-5496
▁가게	-5497
▁간대	-5498
▁간직	-5499
▁감동	-5500
▁감출	-5501
▁강요	-5502
▁강제	-5503
▁갖게	-5504
▁같다	-5505
▁같음	-5506
▁개시	-5507
▁객관	-5508
▁갠톡	-5509
▁걔는	-5510
▁걷고	-5511
▁걷길	-5512
▁골프	-5513
▁공유	-5514
▁과연	-5515
▁구두	-5516
▁구별	-5517
▁구분	-5518
▁구워	-5519
▁군인	-5520
▁귀로	-5521
▁그걸	-5522
▁그때	-5523
▁그땐	-5524
▁근데	-5525
▁글자	-5526
▁길지	-5527
▁깎아	-5528
▁꼬박	-5529
▁꼰대	-5530
▁꾹꾹	-5531
▁끈을	-5532
▁끝냈	-5533
▁나나	-5534
▁나니	-5535
▁나야	-5536
▁남과	-5537
▁남들	-5538
▁낭만	-5539
▁낮잠	-5540
▁내내	-5541
▁내면	-5542
▁내서	-5543
▁냉면	-5544
▁너가	-5545
▁너의	-5546
▁넣을	-5547
▁노려	-5548
▁놀까	-5549
▁농구	-5550
▁농담	-5551
▁누락	-5552
▁눈높	-5553
▁늙어	-5554
▁다칠	-5555
▁단체	-5556
▁닮은	-5557
▁당첨	-5558
▁당한	-5559
▁대수	-5560
▁대충	-5561
▁대피	-5562
▁데가	-5563
▁독이	-5564
▁돌려	-5565
▁되짚	-5566
▁두푼	-5567
▁뒤에	-5568
▁뒹굴	-5569
▁드릴	-5570
▁땀을	-5571
▁때매	-5572
▁때요	-5573
▁때죠	-5574
▁떠날	-5575
▁또한	-5576
▁똥차	-5577
▁뜨겁	-5578
▁띄는	-5579
▁롱디	-5580
▁리드	-5581
▁마른	-5582
▁마중	-5583
▁막막	-5584
▁만화	-5585
▁말걸	-5586
▁망함	-5587
▁맞아	-5588
▁먹먹	-5589
▁먹은	-5590
▁멈춰	-5591
▁멋져	-5592
▁모으	-5593
▁목적	-5594
▁몰려	-5595
▁못자	-5596
▁무모	-5597
▁무언	-5598
▁문화	-5599
▁물이	-5600
▁뭐로	-5601
▁뭐지	-5602
▁뭐해	-5603
▁뭘로	-5604
▁미루	-5605
▁미팅	-5606
▁믿고	-5607
▁믿어	-5608
▁믿지	-5609
▁밀려	-5610
▁바쁠	-5611
▁반갑	-5612
▁반에	-5613
▁반장	-5614
▁발견	-5615
▁밥을	-5616
▁방금	-5617
▁배달	-5618
▁배신	-5619
▁백업	-5620
▁버는	-5621
▁버릇	-5622
▁벌고	-5623
▁베프	-5624
▁벽에	-5625
▁변신	-5626
▁병신	-5627
▁보란	-5628
▁보며	-5629
▁봤네	-5630
▁부질	-5631
▁불만	-5632
▁불타	-5633
▁불효	-5634
▁브랜	-5635
▁블록	-5636
▁비워	-5637
▁빌어	-5638
▁뿌린	-5639
▁사도	-5640
▁사먹	-5641
▁사수	-5642
▁사전	-5643
▁사줘	-5644
▁사춘	-5645
▁사표	-5646
▁상종	-5647
▁생생	-5648
▁서점	-5649
▁설득	-5650
▁설렜	-5651
▁세어	-5652
▁소름	-5653
▁속박	-5654
▁손편	-5655
▁수건	-5656
▁수능	-5657
▁수업	-5658
▁수준	-5659
▁승진	-5660
▁시려	-5661
▁시선	-5662
▁실천	-5663
▁실패	-5664
▁실행	-5665
▁싸운	-5666
▁싸웠	-5667
▁쌓여	-5668
▁썸도	-5669
▁쓰일	-5670
▁아부	-5671
▁안고	-5672
▁안될	-5673
▁안맞	-5674
▁안부	-5675
▁안할	-5676
▁알까	-5677
▁애의	-5678
▁애인	-5679
▁액정	-5680
▁없고	-5681
▁엇갈	-5682
▁엠티	-5683
▁여쭤	-5684
▁역할	-5685
▁열어	-5686
▁열흘	-5687
▁영어	-5688
▁예능	-5689
▁예비	-5690
▁예상	-5691
▁예약	-5692
▁오길	-5693
▁오려	-5694
▁오바	-5695
▁오셨	-5696
▁옳은	-5697
▁와닿	-5698
▁와인	-5699
▁와플	-5700
▁왠지	-5701
▁외출	-5702
▁욕해	-5703
▁운이	-5704
▁울고	-5705
▁웃겨	-5706
▁웃는	-5707
▁웃음	-5708
▁원동	-5709
▁원치	-5710
▁월세	-5711
▁웨딩	-5712
▁웹툰	-5713
▁유행	-5714
▁으아	-5715
▁음료	-5716
▁이끌	-5717
▁이왕	-5718
▁인상	-5719
▁인지	-5720
▁일기	-5721
▁일방	-5722
▁일부	-5723
▁일시	-5724
▁읽어	-5725
▁입학	-5726
▁있대	-5727
▁잊기	-5728
▁자장	-5729
▁작동	-5730
▁잘라	-5731
▁잠들	-5732
▁잡념	-5733
▁장갑	-5734
▁적당	-5735
▁전과	-5736
▁전학	-5737
▁절친	-5738
▁정장	-5739
▁정정	-5740
▁제정	-5741
▁조가	-5742
▁졸린	-5743
▁좋긴	-5744
▁좋음	-5745
▁좌절	-5746
▁죄가	-5747
▁주량	-5748
▁주워	-5749
▁주차	-5750
▁즐겨	-5751
▁증거	-5752
▁증명	-5753
▁지각	-5754
▁지낸	-5755
▁지루	-5756
▁지속	-5757
▁지압	-5758
▁지적	-5759
▁지친	-5760
▁직업	-5761
▁질려	-5762
▁질린	-5763
▁질문	-5764
▁짧죠	-5765
▁찍는	-5766
▁찍어	-5767
▁찢어	-5768
▁차인	-5769
▁참다	-5770
▁처리	-5771
▁청결	-5772
▁청춘	-5773
▁최신	-5774
▁축제	-5775
▁춥네	-5776
▁친절	-5777
▁친척	-5778
▁침묵	-5779
▁커서	-5780
▁컴퓨	-5781
▁케익	-5782
▁킁킁	-5783
▁키울	-5784
▁타러	-5785
▁타인	-5786
▁탈모	-5787
▁태연	-5788
▁터지	-5789
▁터질	-5790
▁토닥	-5791
▁톡이	-5792
▁파도	-5793
▁팍팍	-5794
▁패션	-5795
▁포맷	-5796
▁폭식	-5797
▁피로	-5798
▁필기	-5799
▁필수	-5800
▁하러	-5801
▁하아	-5802
▁학벌	-5803
▁한가	-5804
▁한약	-5805
▁한푼	-5806
▁할지	-5807
▁합리	-5808
▁해로	-5809
▁해준	-5810
▁했다	-5811
▁했을	-5812
▁허락	-5813
▁현타	-5814
▁혼수	-5815
▁확률	-5816
▁환기	-5817
▁황당	-5818
▁회의	-5819
▁휴학	-5820
▁흐른	-5821
개월차	-5822
건강에	-5823
기간을	-5824
다는걸	-5825
다는데	-5826
되어야	-5827
드리는	-5828
드위치	-5829
들이랑	-5830
렵니다	-5831
마다의	-5832
보려고	-5833
봤는데	-5834
셨나요	-5835
시키는	-5836
야해요	-5837
어가길	-5838
였나요	-5839
왔으면	-5840
으시는	-5841
이니까	-5842
이었어	-5843
졌어요	-5844
줬더니	-5845
칼로리	-5846
하기가	-5847
하기로	-5848
하는건	-5849
하려면	-5850
할까요	-5851
해봐도	-5852
해졌죠	-5853
해줘서	-5854
해지길	-5855
해지네	-5856
했다고	-5857
했다면	-5858
했던거	-5859
했을까	-5860
▁가기로	-5861
▁가끔씩	-5862
▁가네요	-5863
▁가는게	-5864
▁가려고	-5865
▁가볍게	-5866
▁가봐요	-5867
▁가야돼	-5868
▁각질제	-5869
▁간만에	-5870
▁간절히	-5871
▁갈수록	-5872
▁감각이	-5873
▁감정기	-5874
▁갑니다	-5875
▁거겠지	-5876
▁거라면	-5877
▁거울을	-5878
▁건강을	-5879
▁건들지	-5880
▁걸음을	-5881
▁것이죠	-5882
▁겠지만	-5883
▁결과가	-5884
▁결국엔	-5885
▁결혼을	-5886
▁계기가	-5887
▁고시원	-5888
▁곳까지	-5889
▁곳이죠	-5890
▁관계의	-5891
▁괜찮길	-5892
▁괜찮다	-5893
▁구멍이	-5894
▁귀여울	-5895
▁그것도	-5896
▁그녀도	-5897
▁그런가	-5898
▁그런지	-5899
▁그린라	-5900
▁그만둬	-5901
▁글쎄요	-5902
▁기르고	-5903
▁기술이	-5904
▁기억에	-5905
▁기억은	-5906
▁기억해	-5907
▁기울여	-5908
▁기준이	-5909
▁깨달음	-5910
▁꽃길만	-5911
▁끊겼어	-5912
▁나가면	-5913
▁나는데	-5914
▁나오네	-5915
▁나올거	-5916
▁나왔네	-5917
▁나이에	-5918
▁나이테	-5919
▁남겨서	-5920
▁남아있	-5921
▁남이니	-5922
▁남자의	-5923
▁내일을	-5924
▁내일이	-5925
▁노래는	-5926
▁다르게	-5927
▁다르지	-5928
▁다리가	-5929
▁단맛도	-5930
▁달라요	-5931
▁답정녀	-5932
▁대기업	-5933
▁대청소	-5934
▁대화의	-5935
▁더워서	-5936
▁도전은	-5937
▁돌리는	-5938
▁돌아서	-5939
▁동영상	-5940
▁되려고	-5941
▁되려면	-5942
▁되어요	-5943
▁되었길	-5944
▁되었네	-5945
▁되었을	-5946
▁된다고	-5947
▁두세요	-5948
▁뒷감당	-5949
▁드려요	-5950
▁들이대	-5951
▁따듯한	-5952
▁따라가	-5953
▁때로는	-5954
▁때부터	-5955
▁떠나간	-5956
▁떨린다	-5957
▁똑같애	-5958
▁뛰어넘	-5959
▁레시피	-5960
▁마시지	-5961
▁막히는	-5962
▁막힌다	-5963
▁만나요	-5964
▁만남은	-5965
▁만났던	-5966
▁만났든	-5967
▁만들기	-5968
▁만지지	-5969
▁많으시	-5970
▁많은가	-5971
▁말아야	-5972
▁말해서	-5973
▁말해주	-5974
▁맘처럼	-5975
▁맛있다	-5976
▁맛있어	-5977
▁망설여	-5978
▁맞으면	-5979
▁매력을	-5980
▁먹거나	-5981
▁먹는데	-5982
▁먹어도	-5983
▁먹어야	-5984
▁멈추지	-5985
▁메뉴얼	-5986
▁면도기	-5987
▁면역이	-5988
▁명상을	-5989
▁모습도	-5990
▁모자라	-5991
▁몸에는	-5992
▁못했던	-5993
▁무시해	-5994
▁무의식	-5995
▁무조건	-5996
▁문제죠	-5997
▁뭐하나	-5998
▁미래를	-5999
▁미련을	-6000
▁미용실	-6001
▁발전이	-6002
▁방법도	-6003
▁배울까	-6004
▁버리는	-6005
▁버스가	-6006
▁버티고	-6007
▁베트남	-6008
▁베풀고	-6009
▁변해요	-6010
▁변화도	-6011
▁보기로	-6012
▁보냈네	-6013
▁보답을	-6014
▁보름달	-6015
▁보일러	-6016
▁부분을	-6017
▁부족해	-6018
▁불안해	-6019
▁불편한	-6020
▁붙잡는	-6021
▁붙잡아	-6022
▁비밀은	-6023
▁비밀을	-6024
▁비세요	-6025
▁비싸요	-6026
▁빠르면	-6027
▁빠지는	-6028
▁빠지면	-6029
▁뻑뻑해	-6030
▁사과할	-6031
▁사귀어	-6032
▁사람인	-6033
▁사랑니	-6034
▁사이로	-6035
▁산책을	-6036
▁살쪄도	-6037
▁새신발	-6038
▁생각도	-6039
▁생겨서	-6040
▁선택이	-6041
▁설레는	-6042
▁설렘이	-6043
▁성공한	-6044
▁성적이	-6045
▁소리를	-6046
▁소문이	-6047
▁소소한	-6048
▁소액결	-6049
▁소화가	-6050
▁속시원	-6051
▁속이는	-6052
▁손가락	-6053
▁술마시	-6054
▁술한잔	-6055
▁쉽지가	-6056
▁스키장	-6057
▁슬프게	-6058
▁시선을	-6059
▁시작할	-6060
▁식습관	-6061
▁싫어요	-6062
▁싶으면	-6063
▁싸우고	-6064
▁싸웠어	-6065
▁썸녀가	-6066
▁썸타고	-6067
▁쓰려고	-6068
▁쓰면서	-6069
▁쓰이는	-6070
▁아껴뒀	-6071
▁아니길	-6072
▁아니네	-6073
▁아니지	-6074
▁아쉬운	-6075
▁아울렛	-6076
▁아프게	-6077
▁아픔도	-6078
▁안부를	-6079
▁안좋아	-6080
▁안좋은	-6081
▁안타까	-6082
▁않았길	-6083
▁않지요	-6084
▁알겠어	-6085
▁알뜰폰	-6086
▁알바생	-6087
▁알아볼	-6088
▁앞에선	-6089
▁애매한	-6090
▁애틋한	-6091
▁애프터	-6092
▁야경이	-6093
▁어느새	-6094
▁어떡함	-6095
▁어렵다	-6096
▁어리석	-6097
▁어쩌면	-6098
▁어플로	-6099
▁어플을	-6100
▁언니랑	-6101
▁얼굴에	-6102
▁엄마랑	-6103
▁없는지	-6104
▁없지요	-6105
▁여러명	-6106
▁여자로	-6107
▁연락도	-6108
▁연애중	-6109
▁연인과	-6110
▁염색을	-6111
▁영양제	-6112
▁예감은	-6113
▁예민해	-6114
▁예뻐질	-6115
▁예의일	-6116
▁오니까	-6117
▁오디션	-6118
▁오라고	-6119
▁오해가	-6120
▁옷이요	-6121
▁외롭고	-6122
▁욕하고	-6123
▁용기내	-6124
▁우산에	-6125
▁우연이	-6126
▁운동할	-6127
▁월급날	-6128
▁월급은	-6129
▁위로를	-6130
▁위험한	-6131
▁위험해	-6132
▁유부녀	-6133
▁의심해	-6134
▁이기니	-6135
▁이러는	-6136
▁이력서	-6137
▁이름이	-6138
▁이별중	-6139
▁이별할	-6140
▁이어질	-6141
▁이어폰	-6142
▁이유로	-6143
▁이해를	-6144
▁이해못	-6145
▁인내할	-6146
▁인맥이	-6147
▁인생의	-6148
▁인터넷	-6149
▁일요일	-6150
▁일인지	-6151
▁입냄새	-6152
▁잇몸약	-6153
▁있거나	-6154
▁있겠다	-6155
▁있군요	-6156
▁있냐고	-6157
▁있었어	-6158
▁잊지못	-6159
▁잊혀져	-6160
▁자다가	-6161
▁자신은	-6162
▁자야지	-6163
▁자장면	-6164
▁잘생겼	-6165
▁잘지내	-6166
▁잘하면	-6167
▁잡아도	-6168
▁장학금	-6169
▁재밌을	-6170
▁저녁에	-6171
▁전여자	-6172
▁전하지	-6173
▁접는게	-6174
▁접어야	-6175
▁정리해	-6176
▁정신이	-6177
▁정해져	-6178
▁조심히	-6179
▁조절을	-6180
▁존중해	-6181
▁종교의	-6182
▁좋네요	-6183
▁좋대요	-6184
▁좋아서	-6185
▁좋았던	-6186
▁좋은거	-6187
▁좋을거	-6188
▁주저리	-6189
▁준다면	-6190
▁준비할	-6191
▁줄어들	-6192
▁즐거울	-6193
▁즐겁게	-6194
▁즐기는	-6195
▁지극히	-6196
▁지웠어	-6197
▁지저분	-6198
▁지진시	-6199
▁지쳐서	-6200
▁지칠만	-6201
▁진실된	-6202
▁짝녀를	-6203
▁찌질한	-6204
▁참았어	-6205
▁채워질	-6206
▁초기화	-6207
▁최고의	-6208
▁최악의	-6209
▁추천해	-6210
▁커플링	-6211
▁커피가	-6212
▁커피는	-6213
▁케이스	-6214
▁콩깍지	-6215
▁틀리는	-6216
▁파도가	-6217
▁편의점	-6218
▁포기가	-6219
▁풀어야	-6220
▁피하는	-6221
▁피해만	-6222
▁하나죠	-6223
▁하다니	-6224
▁하루는	-6225
▁하지도	-6226
▁한국도	-6227
▁한번더	-6228
▁한번쯤	-6229
▁한심해	-6230
▁할까요	-6231
▁해결될	-6232
▁행동은	-6233
▁허리가	-6234
▁헤아릴	-6235
▁헷갈리	-6236
▁호의를	-6237
▁화장이	-6238
▁후회를	-6239
▁후회만	-6240
▁후회해	-6241
▁휴가를	-6242
▁흐르는	-6243
▁흘러가	-6244
▁희망은	-6245
▁희망이	-6246
▁힘들까	-6247
기만해도	-6248
드시거나	-6249
리겠어요	-6250
받으세요	-6251
보이네요	-6252
뿐이에요	-6253
사람친구	-6254
성이에요	-6255
시나봐요	-6256
실거예요	-6257
어두세요	-6258
있습니다	-6259
적이네요	-6260
지마세요	-6261
체적으로	-6262
하나봐요	-6263
하셨어요	-6264
해야할지	-6265
해졌어요	-6266
▁가리세요	-6267
▁가족한테	-6268
▁간사하죠	-6269
▁감사하는	-6270
▁감으세요	-6271
▁갑작스럽	-6272
▁거짓말은	-6273
▁거짓말을	-6274
▁걱정이야	-6275
▁건강습관	-6276
▁건강하게	-6277
▁견뎌내고	-6278
▁결혼준비	-6279
▁결혼하고	-6280
▁결혼하기	-6281
▁결혼해야	-6282
▁고마움을	-6283
▁고민이죠	-6284
▁공부하면	-6285
▁과식하지	-6286
▁관심사에	-6287
▁괜찮겠지	-6288
▁괜찮을거	-6289
▁교양수업	-6290
▁그렇겠죠	-6291
▁금수저로	-6292
▁기다려도	-6293
▁기다리던	-6294
▁기본으로	-6295
▁기본이죠	-6296
▁깔끔해질	-6297
▁깨닫다니	-6298
▁꼬박꼬박	-6299
▁나겠네요	-6300
▁날이네요	-6301
▁남았네요	-6302
▁남이에요	-6303
▁남자분들	-6304
▁남자에게	-6305
▁남친이랑	-6306
▁너무나도	-6307
▁너무너무	-6308
▁넘어가네	-6309
▁넘었는데	-6310
▁놀이공원	-6311
▁높겠네요	-6312
▁놓으세요	-6313
▁눈높이가	-6314
▁다녀왔어	-6315
▁다릅니다	-6316
▁다하세요	-6317
▁단체생활	-6318
▁단호하게	-6319
▁달라져요	-6320
▁달라지지	-6321
▁당분간은	-6322
▁당신만이	-6323
▁데이트가	-6324
▁동생한테	-6325
▁드립니다	-6326
▁들리려고	-6327
▁들어가서	-6328
▁마셨는데	-6329
▁마음에서	-6330
▁마음이랑	-6331
▁만난다면	-6332
▁만화같은	-6333
▁먹었더니	-6334
▁멀어지면	-6335
▁멈추세요	-6336
▁메모하는	-6337
▁모두에게	-6338
▁모아야할	-6339
▁목표네요	-6340
▁못하는게	-6341
▁무너져요	-6342
▁무한리필	-6343
▁물어봐도	-6344
▁미안하다	-6345
▁미치겠네	-6346
▁바쁜일이	-6347
▁반가워요	-6348
▁받으세요	-6349
▁벗어나는	-6350
▁변화시켜	-6351
▁보내시길	-6352
▁보다보면	-6353
▁보일러가	-6354
▁보험처리	-6355
▁부모님을	-6356
▁분위기를	-6357
▁불공평해	-6358
▁비교하면	-6359
▁비밀연애	-6360
▁비정규직	-6361
▁비행기표	-6362
▁뿌린대로	-6363
▁사람이다	-6364
▁사람이야	-6365
▁사람하고	-6366
▁사랑이죠	-6367
▁사랑인지	-6368
▁사랑할까	-6369
▁사생활이	-6370
▁살아있음	-6371
▁상대방의	-6372
▁샌드위치	-6373
▁생각들을	-6374
▁생각하게	-6375
▁생겼어요	-6376
▁생긴다는	-6377
▁선물하면	-6378
▁선생님께	-6379
▁소유하는	-6380
▁쇼핑하고	-6381
▁수면양말	-6382
▁쉬어가도	-6383
▁스타일이	-6384
▁스테이크	-6385
▁슬퍼하고	-6386
▁습관처럼	-6387
▁시간내서	-6388
▁시기네요	-6389
▁신경쓰고	-6390
▁신경쓰면	-6391
▁신경쓰이	-6392
▁신고하고	-6393
▁심어볼까	-6394
▁심해지는	-6395
▁썸녀한테	-6396
▁쓸데없는	-6397
▁아름답죠	-6398
▁아쉬움이	-6399
▁아침부터	-6400
▁아팠으면	-6401
▁안타깝게	-6402
▁안해먹고	-6403
▁않겠네요	-6404
▁알아보는	-6405
▁어느정도	-6406
▁어둠에서	-6407
▁어떠세요	-6408
▁어떡하죠	-6409
▁어머어머	-6410
▁어찌해야	-6411
▁없는걸까	-6412
▁없답니다	-6413
▁없어졌어	-6414
▁에너지가	-6415
▁에너지를	-6416
▁여자에게	-6417
▁여친에게	-6418
▁연락왔어	-6419
▁연락할까	-6420
▁연애세포	-6421
▁염탐하지	-6422
▁오래오래	-6423
▁올거예요	-6424
▁왜이렇게	-6425
▁외로움을	-6426
▁용서하고	-6427
▁웃으면서	-6428
▁원동력이	-6429
▁원한다면	-6430
▁유효기간	-6431
▁의식하는	-6432
▁이름이랑	-6433
▁이모티콘	-6434
▁이별이란	-6435
▁이별하는	-6436
▁이불밖은	-6437
▁이상적인	-6438
▁이어주는	-6439
▁이왕이면	-6440
▁이제서야	-6441
▁이해하고	-6442
▁이해하기	-6443
▁익숙해져	-6444
▁인생에서	-6445
▁인지시켜	-6446
▁인테리어	-6447
▁일어나면	-6448
▁일하면서	-6449
▁입으세요	-6450
▁있는걸까	-6451
▁있답니다	-6452
▁있으니까	-6453
▁있을게요	-6454
▁잊어가는	-6455
▁잊혀질까	-6456
▁자존감을	-6457
▁잘지내고	-6458
▁잘해주는	-6459
▁잠재력을	-6460
▁재미있어	-6461
▁재밌는거	-6462
▁저마다의	-6463
▁정리하고	-6464
▁정신없이	-6465
▁존중하고	-6466
▁졸업식에	-6467
▁좋아지고	-6468
▁좋아지는	-6469
▁즐기면서	-6470
▁지금부터	-6471
▁지하철에	-6472
▁집에서도	-6473
▁짜증나네	-6474
▁차였는데	-6475
▁찾아가는	-6476
▁찾아봐요	-6477
▁찾아오는	-6478
▁챙겨주면	-6479
▁챙기세요	-6480
▁취미네요	-6481
▁취직하면	-6482
▁친구들을	-6483
▁친구라면	-6484
▁친구인데	-6485
▁친해지는	-6486
▁클럽에서	-6487
▁판단되면	-6488
▁표현하지	-6489
▁피부관리	-6490
▁필요하지	-6491
▁하느냐에	-6492
▁하니까요	-6493
▁하다보니	-6494
▁하셨군요	-6495
▁하지말고	-6496
▁한답니다	-6497
▁합리적인	-6498
▁해결되길	-6499
▁해보려고	-6500
▁해봤는데	-6501
▁해야겠지	-6502
▁핸드폰이	-6503
▁헤어짐은	-6504
▁헬스장에	-6505
▁헷갈리네	-6506
▁확인하는	-6507
▁회사에는	-6508
▁후련하네	-6509
▁후회하는	-6510
▁후회할까	-6511
▁후회해도	-6512
▁힘들겠죠	-6513
▁힘들지만	-6514
원해보세요	-6515
조심하세요	-6516
하셨겠어요	-6517
한가봅니다	-6518
▁가능하다고	-6519
▁가족들이랑	-6520
▁간직하세요	-6521
▁갑작스러운	-6522
▁결혼적령기	-6523
▁고민하느라	-6524
▁고백하는게	-6525
▁고백하세요	-6526
▁공부하세요	-6527
▁공부해야지	-6528
▁괜찮아지고	-6529
▁그린라이트	-6530
▁기다리세요	-6531
▁기다릴게요	-6532
▁끝났습니다	-6533
▁나갈거예요	-6534
▁나눠보는게	-6535
▁나쁜거예요	-6536
▁남자입니다	-6537
▁놀랐겠어요	-6538
▁놀러가세요	-6539
▁다가가세요	-6540
▁다행이네요	-6541
▁대단하네요	-6542
▁대피방법을	-6543
▁덜어보세요	-6544
▁데려가세요	-6545
▁도와달라고	-6546
▁동감입니다	-6547
▁두근거림을	-6548
▁드려보세요	-6549
▁들려주세요	-6550
▁들었겠네요	-6551
▁따뜻해졌죠	-6552
▁로봇이에요	-6553
▁만남이네요	-6554
▁맡겨보세요	-6555
▁바람이라도	-6556
▁받아들여야	-6557
▁병원가세요	-6558
▁보냈습니다	-6559
▁비하하지는	-6560
▁사랑스러운	-6561
▁사랑이에요	-6562
▁사랑하니까	-6563
▁삭제하는게	-6564
▁상관없지만	-6565
▁생각이네요	-6566
▁생각한대로	-6567
▁생각할게요	-6568
▁생각할수록	-6569
▁생겼을지도	-6570
▁선물이네요	-6571
▁선택이었을	-6572
▁성공적으로	-6573
▁세워보세요	-6574
▁소개팅으로	-6575
▁소개팅하고	-6576
▁소중합니다	-6577
▁스타트업에	-6578
▁스트레스를	-6579
▁스트레스야	-6580
▁시간이네요	-6581
▁시켜달라고	-6582
▁아직이라면	-6583
▁알아두세요	-6584
▁알아차려도	-6585
▁알아차리지	-6586
▁애정표현일	-6587
▁없애주세요	-6588
▁없으니까요	-6589
▁여쭤보세요	-6590
▁여행이네요	-6591
▁연락이라도	-6592
▁연락하는게	-6593
▁연락해보는	-6594
▁오늘이에요	-6595
▁운동하세요	-6596
▁움직이세요	-6597
▁위해서예요	-6598
▁응원할게요	-6599
▁이야기하고	-6600
▁이야기하는	-6601
▁이어나가는	-6602
▁일어나세요	-6603
▁있었을지도	-6604
▁자체만으로	-6605
▁잘못입니다	-6606
▁잡아보세요	-6607
▁재밌겠어요	-6608
▁점심시간에	-6609
▁정리하세요	-6610
▁정신건강에	-6611
▁정정기간을	-6612
▁제자리걸음	-6613
▁조급해지면	-6614
▁졸업하는데	-6615
▁좋으시네요	-6616
▁주의하세요	-6617
▁준비하느라	-6618
▁질러보세요	-6619
▁청소하세요	-6620
▁친구들한테	-6621
▁친해지는게	-6622
▁칭찬이네요	-6623
▁칭찬해주고	-6624
▁포장하는게	-6625
▁하고싶었던	-6626
▁하루하루가	-6627
▁하우스웨딩	-6628
▁해드릴게요	-6629
▁행복하세요	-6630
▁행복해보여	-6631
▁흘려보세요	-6632
▁개시해보세요	-6633
▁걱정되겠어요	-6634
▁결정했나봐요	-6635
▁극복해보세요	-6636
▁넓으신가봐요	-6637
▁대단하시군요	-6638
▁되짚어보세요	-6639
▁많았나봅니다	-6640
▁미치겠습니다	-6641
▁부탁드립니다	-6642
▁분담해보세요	-6643
▁사랑하는지는	-6644
▁삭제해보세요	-6645
▁아껴뒀나봐요	-6646
▁연락두절돼서	-6647
▁운동해보세요	-6648
▁위로해드리는	-6649
▁이해해보세요	-6650
▁재미있나봐요	-6651
▁절약되겠네요	-6652
▁정신차리세요	-6653
▁존중해주세요	-6654
▁챙겨드시거나	-6655
▁축하해주세요	-6656
▁포맷해보세요	-6657
▁피곤했나봐요	-6658
▁필요해보여요	-6659
▁힘드시겠어요	-6660
▁걱정하지마세요	-6661
▁결정이었을거라	-6662
▁말씀드려보세요	-6663
▁부담스러워할까	-6664
▁적응해야겠네요	-6665
▁0	-6666
▁갱	-6667
▁겉	-6668
▁곤	-6669
▁깍	-6670
▁깰	-6671
▁껴	-6672
▁꽉	-6673
▁꽝	-6674
▁꿔	-6675
▁꿰	-6676
▁낸	-6677
▁넋	-6678
▁뇌	-6679
▁눌	-6680
▁눕	-6681
▁는	-6682
▁덥	-6683
▁돋	-6684
▁돕	-6685
▁뒀	-6686
▁떴	-6687
▁떼	-6688
▁뜬	-6689
▁묘	-6690
▁박	-6691
▁벅	-6692
▁벤	-6693
▁볶	-6694
▁빛	-6695
▁뻐	-6696
▁뽀	-6697
▁숫	-6698
▁쌍	-6699
▁앱	-6700
▁얽	-6701
▁엊	-6702
▁엿	-6703
▁욜	-6704
▁워	-6705
▁잼	-6706
▁젤	-6707
▁쥐	-6708
▁짰	-6709
▁쪄	-6710
▁쭉	-6711
▁춘	-6712
▁캬	-6713
▁턱	-6714
▁텀	-6715
▁텅	-6716
▁퇴	-6717
▁틈	-6718
▁팁	-6719
▁팩	-6720
▁펴	-6721
▁헐	-6722
▁헥	-6723
▁헹	-6724
▁홈	-6725
▁홧	-6726
가서	-6727
가에	-6728
가한	-6729
간대	-6730
간질	-6731
갔다	-6732
거든	-6733
걸이	-6734
겁한	-6735
게해	-6736
경이	-6737
계절	-6738
고의	-6739
과류	-6740
구로	-6741
그램	-6742
그런	-6743
극이	-6744
근한	-6745
근해	-6746
긋지	-6747
긋한	-6748
기사	-6749
기한	-6750
길래	-6751
꺼풀	-6752
꼈어	-6753
꾸던	-6754
꾸로	-6755
났을	-6756
낭비	-6757
내길	-6758
너덜	-6759
년만	-6760
년반	-6761
년사	-6762
년전	-6763
놓지	-6764
는다	-6765
니깐	-6766
님들	-6767
다운	-6768
닥을	-6769
달래	-6770
답이	-6771
더군	-6772
도라	-6773
독여	-6774
동거	-6775
동물	-6776
동차	-6777
됐네	-6778
된다	-6779
됬네	-6780
두리	-6781
들의	-6782
따로	-6783
때문	-6784
땜에	-6785
떨떨	-6786
란다	-6787
렀어	-6788
려는	-6789
렸다	-6790
로라	-6791
로션	-6792
로잡	-6793
릴있	-6794
마디	-6795
만남	-6796
망이	-6797
먹을	-6798
문득	-6799
물주	-6800
미고	-6801
바구	-6802
받은	-6803
발이	-6804
방비	-6805
버림	-6806
번을	-6807
번의	-6808
베리	-6809
보낼	-6810
보려	-6811
볶이	-6812
봐야	-6813
부르	-6814
부한	-6815
뿐이	-6816
사이	-6817
사자	-6818
사진	-6819
상일	-6820
샜어	-6821
서요	-6822
선배	-6823
설계	-6824
섭섭	-6825
성에	-6826
성을	-6827
셨어	-6828
소짓	-6829
수건	-6830
스레	-6831
시도	-6832
시방	-6833
시에	-6834
시지	-6835
신고	-6836
신청	-6837
실에	-6838
실을	-6839
싶네	-6840
싸움	-6841
썸남	-6842
아빠	-6843
아파	-6844
안나	-6845
안할	-6846
액션	-6847
약이	-6848
었나	-6849
었는	-6850
었지	-6851
여도	-6852
여서	-6853
여주	-6854
연이	-6855
오게	-6856
오지	-6857
올까	-6858
와도	-6859
욕탕	-6860
용품	-6861
워시	-6862
워야	-6863
웠던	-6864
은지	-6865
의별	-6866
의의	-6867
이상	-6868
이신	-6869
이진	-6870
이집	-6871
인공	-6872
일은	-6873
임말	-6874
자가	-6875
잔치	-6876
쟁이	-6877
저히	-6878
적일	-6879
점이	-6880
좋아	-6881
주에	-6882
주의	-6883
주인	-6884
준대	-6885
줘도	-6886
줘서	-6887
즈를	-6888
지마	-6889
지질	-6890
직이	-6891
질때	-6892
짼데	-6893
차게	-6894
찰랑	-6895
찰텐	-6896
채기	-6897
천번	-6898
체가	-6899
쳐서	-6900
쳤다	-6901
초가	-6902
초에	-6903
치료	-6904
커플	-6905
코인	-6906
키기	-6907
타는	-6908
탈까	-6909
탈이	-6910
탔어	-6911
통이	-6912
통제	-6913
트로	-6914
트를	-6915
편이	-6916
평가	-6917
폭발	-6918
피해	-6919
하신	-6920
학원	-6921
한대	-6922
한듯	-6923
할래	-6924
할수	-6925
헤어	-6926
혔어	-6927
활용	-6928
효도	-6929
휴일	-6930
히나	-6931
▁11	-6932
▁ᅮᅮ	-6933
▁가본	-6934
▁가시	-6935
▁가입	-6936
▁가자	-6937
▁간섭	-6938
▁간질	-6939
▁갈궈	-6940
▁갈등	-6941
▁갔나	-6942
▁거도	-6943
▁거둬	-6944
▁거에	-6945
▁거였	-6946
▁건데	-6947
▁걸요	-6948
▁겁나	-6949
▁것에	-6950
▁것일	-6951
▁겠지	-6952
▁격식	-6953
▁견적	-6954
▁계산	-6955
▁계신	-6956
▁계약	-6957
▁고집	-6958
▁곤두	-6959
▁골랐	-6960
▁공간	-6961
▁공복	-6962
▁공황	-6963
▁관찰	-6964
▁구매	-6965
▁구박	-6966
▁굳이	-6967
▁그나	-6968
▁그도	-6969
▁그림	-6970
▁그의	-6971
▁그지	-6972
▁그쪽	-6973
▁근교	-6974
▁기네	-6975
▁기름	-6976
▁기쁨	-6977
▁기침	-6978
▁길면	-6979
▁길을	-6980
▁김에	-6981
▁까아	-6982
▁깨진	-6983
▁깨짐	-6984
▁꾸죠	-6985
▁끊기	-6986
▁끊는	-6987
▁끊어	-6988
▁끌지	-6989
▁끝의	-6990
▁나게	-6991
▁나란	-6992
▁나빴	-6993
▁난감	-6994
▁날짜	-6995
▁남녀	-6996
▁낮술	-6997
▁낳을	-6998
▁내딛	-6999
▁내맘	-7000
▁너덜	-7001
▁너랑	-7002
▁너와	-7003
▁넘게	-7004
▁넘넘	-7005
▁넘은	-7006
▁노잼	-7007
▁놀자	-7008
▁놓는	-7009
▁놓지	-7010
▁놔둬	-7011
▁누워	-7012
▁느꼈	-7013
▁늘어	-7014
▁다듬	-7015
▁답을	-7016
▁대상	-7017
▁대쉬	-7018
▁덥다	-7019
▁데도	-7020
▁데서	-7021
▁돌면	-7022
▁돕는	-7023
▁돼서	-7024
▁돼지	-7025
▁되게	-7026
▁될지	-7027
▁두렵	-7028
▁둘다	-7029
▁드려	-7030
▁듣는	-7031
▁들게	-7032
▁듯한	-7033
▁따끔	-7034
▁따져	-7035
▁딱히	-7036
▁딴짓	-7037
▁때인	-7038
▁떨고	-7039
▁뜨끈	-7040
▁뜨는	-7041
▁라는	-7042
▁마라	-7043
▁만한	-7044
▁말과	-7045
▁말만	-7046
▁말자	-7047
▁망상	-7048
▁망한	-7049
▁맞게	-7050
▁맞을	-7051
▁맞이	-7052
▁맞출	-7053
▁매몰	-7054
▁매운	-7055
▁매정	-7056
▁먹기	-7057
▁먹나	-7058
▁멈출	-7059
▁멋질	-7060
▁메리	-7061
▁모여	-7062
▁몸과	-7063
▁몸살	-7064
▁못난	-7065
▁못생	-7066
▁무지	-7067
▁미운	-7068
▁믿는	-7069
▁믿음	-7070
▁밑바	-7071
▁바꿨	-7072
▁바란	-7073
▁바래	-7074
▁반년	-7075
▁반영	-7076
▁반한	-7077
▁받네	-7078
▁받았	-7079
▁받음	-7080
▁발라	-7081
▁발이	-7082
▁밤만	-7083
▁밤새	-7084
▁밥은	-7085
▁배가	-7086
▁배정	-7087
▁백수	-7088
▁뱃살	-7089
▁버림	-7090
▁번만	-7091
▁벌레	-7092
▁벌면	-7093
▁법을	-7094
▁벗겨	-7095
▁벗어	-7096
▁벤츠	-7097
▁병행	-7098
▁보수	-7099
▁보신	-7100
▁보약	-7101
▁봐주	-7102
▁부케	-7103
▁부팅	-7104
▁분양	-7105
▁불순	-7106
▁불쑥	-7107
▁블랙	-7108
▁비만	-7109
▁비쌈	-7110
▁비오	-7111
▁비와	-7112
▁비용	-7113
▁비친	-7114
▁비트	-7115
▁비해	-7116
▁비혼	-7117
▁빼앗	-7118
▁사무	-7119
▁살려	-7120
▁살죠	-7121
▁삶에	-7122
▁삶은	-7123
▁샀다	-7124
▁서울	-7125
▁서핑	-7126
▁선배	-7127
▁선풍	-7128
▁설계	-7129
▁설렐	-7130
▁설마	-7131
▁세달	-7132
▁세탁	-7133
▁속아	-7134
▁속지	-7135
▁수십	-7136
▁수제	-7137
▁숙제	-7138
▁숙취	-7139
▁숫자	-7140
▁스노	-7141
▁스쳐	-7142
▁스케	-7143
▁슬플	-7144
▁시급	-7145
▁식사	-7146
▁식욕	-7147
▁식은	-7148
▁식혀	-7149
▁실용	-7150
▁심난	-7151
▁심남	-7152
▁심쿵	-7153
▁싸울	-7154
▁쌓인	-7155
▁쏟아	-7156
▁쓰게	-7157
▁쓰면	-7158
▁쓰이	-7159
▁아끼	-7160
▁아날	-7161
▁아냐	-7162
▁아놔	-7163
▁아래	-7164
▁아려	-7165
▁안풀	-7166
▁안한	-7167
▁않기	-7168
▁알긴	-7169
▁애완	-7170
▁야구	-7171
▁야식	-7172
▁약점	-7173
▁양을	-7174
▁양치	-7175
▁어딘	-7176
▁어언	-7177
▁어째	-7178
▁어흥	-7179
▁억울	-7180
▁없앨	-7181
▁엉엉	-7182
▁에이	-7183
▁엮여	-7184
▁연상	-7185
▁연하	-7186
▁열받	-7187
▁영통	-7188
▁예고	-7189
▁예쁠	-7190
▁예정	-7191
▁예측	-7192
▁오죠	-7193
▁옥상	-7194
▁올게	-7195
▁옷은	-7196
▁와요	-7197
▁왜케	-7198
▁요청	-7199
▁욕을	-7200
▁욜로	-7201
▁용량	-7202
▁우습	-7203
▁웃게	-7204
▁웃고	-7205
▁원인	-7206
▁원해	-7207
▁위축	-7208
▁유료	-7209
▁유통	-7210
▁으으	-7211
▁의존	-7212
▁이래	-7213
▁일과	-7214
▁일인	-7215
▁임용	-7216
▁있던	-7217
▁잊자	-7218
▁자다	-7219
▁자요	-7220
▁자제	-7221
▁잘됐	-7222
▁잘한	-7223
▁잠식	-7224
▁장점	-7225
▁저기	-7226
▁저만	-7227
▁저음	-7228
▁저장	-7229
▁저주	-7230
▁저편	-7231
▁적은	-7232
▁적을	-7233
▁전할	-7234
▁절망	-7235
▁접은	-7236
▁접촉	-7237
▁정열	-7238
▁정이	-7239
▁젖은	-7240
▁제습	-7241
▁조별	-7242
▁졸라	-7243
▁종종	-7244
▁종지	-7245
▁좋네	-7246
▁주길	-7247
▁줄도	-7248
▁줄일	-7249
▁중문	-7250
▁줘야	-7251
▁즐길	-7252
▁지날	-7253
▁지수	-7254
▁직전	-7255
▁직후	-7256
▁질긴	-7257
▁쪼금	-7258
▁찔려	-7259
▁찬물	-7260
▁찾은	-7261
▁천국	-7262
▁초라	-7263
▁총회	-7264
▁최저	-7265
▁추가	-7266
▁춥고	-7267
▁취소	-7268
▁치마	-7269
▁친군	-7270
▁카공	-7271
▁크기	-7272
▁타면	-7273
▁탄다	-7274
▁태그	-7275
▁톡을	-7276
▁통장	-7277
▁투잡	-7278
▁페메	-7279
▁편린	-7280
▁편해	-7281
▁평범	-7282
▁표출	-7283
▁풀고	-7284
▁풀리	-7285
▁하객	-7286
▁하니	-7287
▁하필	-7288
▁학기	-7289
▁한결	-7290
▁한눈	-7291
▁한데	-7292
▁할게	-7293
▁할말	-7294
▁할인	-7295
▁핫한	-7296
▁해가	-7297
▁했네	-7298
▁허기	-7299
▁허허	-7300
▁헌신	-7301
▁헛된	-7302
▁헥헥	-7303
▁현관	-7304
▁혼나	-7305
▁혼내	-7306
▁혼밥	-7307
▁혼인	-7308
▁화나	-7309
▁화난	-7310
▁화학	-7311
▁화해	-7312
▁효도	-7313
▁훈훈	-7314
▁휘둘	-7315
▁흐려	-7316
▁힘겨	-7317
▁힘은	-7318
가기도	-7319
가보다	-7320
갔네요	-7321
같네요	-7322
겁니다	-7323
게되네	-7324
겠네여	-7325
기간이	-7326
기한이	-7327
나가는	-7328
난다고	-7329
난다면	-7330
날인데	-7331
년간의	-7332
년동안	-7333
년하고	-7334
는다고	-7335
는다는	-7336
는데는	-7337
는지도	-7338
다는것	-7339
다는게	-7340
다니는	-7341
달라는	-7342
당하는	-7343
당했어	-7344
도라의	-7345
독하고	-7346
드리러	-7347
때문에	-7348
뜨리기	-7349
렸으면	-7350
만나고	-7351
망이지	-7352
바퀴만	-7353
방법이	-7354
버리네	-7355
보려구	-7356
보셔요	-7357
보이나	-7358
빛으로	-7359
사람은	-7360
사진을	-7361
생각이	-7362
소짓게	-7363
속에서	-7364
스러웠	-7365
스럽네	-7366
스타일	-7367
시나요	-7368
싶네요	-7369
았다고	-7370
았더니	-7371
았어요	-7372
야겠어	-7373
야겠지	-7374
어진다	-7375
없어요	-7376
었다면	-7377
었을까	-7378
었지만	-7379
여행이	-7380
였는지	-7381
였을까	-7382
오는날	-7383
옵니다	-7384
왔네요	-7385
으라고	-7386
으셨나	-7387
을때는	-7388
이나마	-7389
이면서	-7390
이야기	-7391
이지요	-7392
인거죠	-7393
인트가	-7394
있어요	-7395
있을까	-7396
자마자	-7397
적이면	-7398
지능에	-7399
지부지	-7400
질까봐	-7401
플라워	-7402
하겠어	-7403
하다는	-7404
하다니	-7405
한거니	-7406
한다고	-7407
해보는	-7408
해져도	-7409
해지고	-7410
했나요	-7411
했다는	-7412
▁100	-7413
▁가거나	-7414
▁가라앉	-7415
▁가리는	-7416
▁가스비	-7417
▁가슴은	-7418
▁가족들	-7419
▁가치가	-7420
▁간절한	-7421
▁감정도	-7422
▁갔는지	-7423
▁갖자는	-7424
▁같다면	-7425
▁같으면	-7426
▁개인의	-7427
▁거꾸로	-7428
▁거라도	-7429
▁거리가	-7430
▁걱정을	-7431
▁건강한	-7432
▁걸렸어	-7433
▁걸었어	-7434
▁것이든	-7435
▁것일까	-7436
▁견과류	-7437
▁견디기	-7438
▁결국은	-7439
▁결혼에	-7440
▁결혼하	-7441
▁경쟁이	-7442
▁고독한	-7443
▁고르는	-7444
▁고민을	-7445
▁고백이	-7446
▁고백한	-7447
▁고양이	-7448
▁고치기	-7449
▁공감이	-7450
▁공부를	-7451
▁공휴일	-7452
▁관계는	-7453
▁관계도	-7454
▁관계에	-7455
▁괜찮지	-7456
▁괴롭다	-7457
▁구남친	-7458
▁구썸남	-7459
▁귀여운	-7460
▁귀엽죠	-7461
▁귀찮다	-7462
▁귀찮은	-7463
▁그것이	-7464
▁그대의	-7465
▁그러지	-7466
▁그런거	-7467
▁그만두	-7468
▁그분도	-7469
▁그분에	-7470
▁그에게	-7471
▁근처로	-7472
▁기대는	-7473
▁기억될	-7474
▁기억만	-7475
▁기운이	-7476
▁길거리	-7477
▁깨끗이	-7478
▁깨졌어	-7479
▁꼼수를	-7480
▁꿈에나	-7481
▁끊는게	-7482
▁끊어야	-7483
▁끝나도	-7484
▁끝나면	-7485
▁끝내는	-7486
▁끝인거	-7487
▁끝일줄	-7488
▁나가는	-7489
▁나가지	-7490
▁나갈까	-7491
▁나니까	-7492
▁나들이	-7493
▁나쁜놈	-7494
▁나약한	-7495
▁나오고	-7496
▁나온다	-7497
▁나이들	-7498
▁나타나	-7499
▁날씨도	-7500
▁남기고	-7501
▁남기는	-7502
▁남는게	-7503
▁낭만이	-7504
▁내리지	-7505
▁내버려	-7506
▁넋두리	-7507
▁노래가	-7508
▁노후는	-7509
▁놓아줄	-7510
▁놓치고	-7511
▁놓치지	-7512
▁누구냐	-7513
▁누구야	-7514
▁누우면	-7515
▁눈꺼풀	-7516
▁느껴지	-7517
▁다갔어	-7518
▁다녀도	-7519
▁다니는	-7520
▁다닐까	-7521
▁다독여	-7522
▁다른데	-7523
▁다시는	-7524
▁다양한	-7525
▁다정한	-7526
▁단순한	-7527
▁단톡방	-7528
▁달달할	-7529
▁달라질	-7530
▁담배를	-7531
▁답장을	-7532
▁당당히	-7533
▁당사자	-7534
▁당신만	-7535
▁대단한	-7536
▁대하는	-7537
▁대학원	-7538
▁더이상	-7539
▁데리러	-7540
▁도와드	-7541
▁도저히	-7542
▁도전이	-7543
▁독하게	-7544
▁돌아갈	-7545
▁돌아와	-7546
▁동생이	-7547
▁되겠죠	-7548
▁되네요	-7549
▁되시길	-7550
▁된다면	-7551
▁두려운	-7552
▁뒤돌아	-7553
▁뒷통수	-7554
▁드레스	-7555
▁든든할	-7556
▁들어맞	-7557
▁들어요	-7558
▁들으며	-7559
▁들텐데	-7560
▁딱이죠	-7561
▁때마다	-7562
▁땡긴다	-7563
▁떡볶이	-7564
▁떨려서	-7565
▁떨어뜨	-7566
▁떨어짐	-7567
▁똑같이	-7568
▁똑똑해	-7569
▁리액션	-7570
▁마시기	-7571
▁마음껏	-7572
▁마주쳤	-7573
▁만나실	-7574
▁만났을	-7575
▁만들면	-7576
▁만들죠	-7577
▁많겠지	-7578
▁많은걸	-7579
▁많지만	-7580
▁말이죠	-7581
▁말투는	-7582
▁말하면	-7583
▁말할까	-7584
▁맘같지	-7585
▁맛난거	-7586
▁머리로	-7587
▁먹기로	-7588
▁먹으러	-7589
▁멘탈이	-7590
▁면접만	-7591
▁모두를	-7592
▁모으는	-7593
▁모처럼	-7594
▁목걸이	-7595
▁목욕탕	-7596
▁몰라서	-7597
▁몰랐어	-7598
▁몸에서	-7599
▁못할까	-7600
▁무거운	-7601
▁무너진	-7602
▁무뎌질	-7603
▁무릎에	-7604
▁무모한	-7605
▁무섭네	-7606
▁문제에	-7607
▁묻어두	-7608
▁물가가	-7609
▁물질이	-7610
▁뭐하냐	-7611
▁뭐하면	-7612
▁뭘까요	-7613
▁미련만	-7614
▁미련한	-7615
▁믿기지	-7616
▁바꾸는	-7617
▁바꿔야	-7618
▁바뀌어	-7619
▁바나나	-7620
▁바람둥	-7621
▁바람피	-7622
▁반대로	-7623
▁반에서	-7624
▁받았던	-7625
▁방법은	-7626
▁방식이	-7627
▁방학에	-7628
▁방학은	-7629
▁방해가	-7630
▁배워도	-7631
▁배터리	-7632
▁벅찰텐	-7633
▁베란다	-7634
▁변덕이	-7635
▁변하고	-7636
▁별로임	-7637
▁별의별	-7638
▁보고만	-7639
▁보고파	-7640
▁보는건	-7641
▁보는데	-7642
▁보니까	-7643
▁보듬어	-7644
▁보시면	-7645
▁보이네	-7646
▁보인다	-7647
▁복잡할	-7648
▁본인이	-7649
▁볼때는	-7650
▁부리면	-7651
▁분명히	-7652
▁분에게	-7653
▁불가능	-7654
▁비겁한	-7655
▁비정상	-7656
▁빈자리	-7657
▁빌릴까	-7658
▁빠르게	-7659
▁빠져나	-7660
▁사겼어	-7661
▁사계절	-7662
▁사귀긴	-7663
▁사귀다	-7664
▁사라진	-7665
▁사람일	-7666
▁사랑만	-7667
▁사로잡	-7668
▁사실에	-7669
▁살거야	-7670
▁살아서	-7671
▁살아온	-7672
▁샀는데	-7673
▁상대는	-7674
▁상대에	-7675
▁상사병	-7676
▁상자를	-7677
▁상태인	-7678
▁상황에	-7679
▁상황일	-7680
▁색다른	-7681
▁생각지	-7682
▁생기길	-7683
▁선물해	-7684
▁선의의	-7685
▁선택의	-7686
▁설레고	-7687
▁성격도	-7688
▁성별을	-7689
▁성장을	-7690
▁세월이	-7691
▁센터에	-7692
▁소름돋	-7693
▁소모가	-7694
▁소비를	-7695
▁속상할	-7696
▁손수건	-7697
▁손으로	-7698
▁쇼핑몰	-7699
▁수천번	-7700
▁쉬면서	-7701
▁스릴있	-7702
▁슬프다	-7703
▁시간과	-7704
▁시작은	-7705
▁시작을	-7706
▁싫은데	-7707
▁심심해	-7708
▁싶다면	-7709
▁싶지만	-7710
▁썸녀랑	-7711
▁썸으로	-7712
▁썸일까	-7713
▁씁니다	-7714
▁아는거	-7715
▁아니니	-7716
▁아니다	-7717
▁아무는	-7718
▁아무런	-7719
▁아무일	-7720
▁아이고	-7721
▁아이디	-7722
▁아파요	-7723
▁아프기	-7724
▁안되나	-7725
▁안받아	-7726
▁안보여	-7727
▁안오지	-7728
▁안하면	-7729
▁안해줘	-7730
▁않았을	-7731
▁알게되	-7732
▁알려면	-7733
▁알아가	-7734
▁알아야	-7735
▁애교가	-7736
▁약간의	-7737
▁얘기해	-7738
▁어디가	-7739
▁어렵지	-7740
▁어색한	-7741
▁어색해	-7742
▁어이가	-7743
▁얼떨떨	-7744
▁없다는	-7745
▁없대요	-7746
▁여기서	-7747
▁여지를	-7748
▁여행지	-7749
▁역시나	-7750
▁연습해	-7751
▁연애도	-7752
▁연애인	-7753
▁연인이	-7754
▁열까지	-7755
▁영원히	-7756
▁영향을	-7757
▁영화가	-7758
▁영화를	-7759
▁예쁘다	-7760
▁예쁜데	-7761
▁예의를	-7762
▁오늘로	-7763
▁오르네	-7764
▁오지랖	-7765
▁온다고	-7766
▁올랐어	-7767
▁왜이리	-7768
▁외국어	-7769
▁외로움	-7770
▁우산을	-7771
▁우울증	-7772
▁우울한	-7773
▁우정이	-7774
▁운동은	-7775
▁운동화	-7776
▁울적한	-7777
▁웃는게	-7778
▁웃으면	-7779
▁원망은	-7780
▁원하지	-7781
▁월급을	-7782
▁유학을	-7783
▁의도는	-7784
▁의심이	-7785
▁이김에	-7786
▁이대로	-7787
▁이러다	-7788
▁이러면	-7789
▁이럴까	-7790
▁이번달	-7791
▁이번엔	-7792
▁이사람	-7793
▁이사를	-7794
▁이상의	-7795
▁이어가	-7796
▁이해는	-7797
▁이혼을	-7798
▁인고의	-7799
▁인연에	-7800
▁일부로	-7801
▁입니다	-7802
▁입을까	-7803
▁입장을	-7804
▁있도록	-7805
▁있었던	-7806
▁있음을	-7807
▁잊기가	-7808
▁잊는게	-7809
▁잊혀진	-7810
▁자극이	-7811
▁자동차	-7812
▁자리가	-7813
▁자유를	-7814
▁자존심	-7815
▁자체를	-7816
▁작아지	-7817
▁잔소리	-7818
▁잘되고	-7819
▁잘못은	-7820
▁잘생겨	-7821
▁잘자요	-7822
▁잘하게	-7823
▁잘하니	-7824
▁잡념을	-7825
▁잡았어	-7826
▁장점을	-7827
▁재미없	-7828
▁재설계	-7829
▁재채기	-7830
▁적어도	-7831
▁적응이	-7832
▁전기가	-7833
▁전까지	-7834
▁전부는	-7835
▁전에는	-7836
▁전으로	-7837
▁전학가	-7838
▁전화는	-7839
▁정답을	-7840
▁정답이	-7841
▁정도에	-7842
▁정리되	-7843
▁정리에	-7844
▁정성이	-7845
▁정신과	-7846
▁정신병	-7847
▁정신적	-7848
▁정하고	-7849
▁정확히	-7850
▁조급해	-7851
▁조언이	-7852
▁조용히	-7853
▁종교를	-7854
▁좋다고	-7855
▁좋더라	-7856
▁좋아져	-7857
▁좋아진	-7858
▁좋으니	-7859
▁좋은지	-7860
▁주려고	-7861
▁주름살	-7862
▁주변의	-7863
▁주인공	-7864
▁죽겠다	-7865
▁죽겠어	-7866
▁죽어도	-7867
▁죽을거	-7868
▁줄임말	-7869
▁중간에	-7870
▁중고로	-7871
▁줬으면	-7872
▁지금의	-7873
▁지긋지	-7874
▁지나고	-7875
▁지내요	-7876
▁지루해	-7877
▁지워질	-7878
▁지쳐요	-7879
▁지쳤어	-7880
▁지치네	-7881
▁직장인	-7882
▁진급할	-7883
▁진통제	-7884
▁질투가	-7885
▁질투를	-7886
▁집까지	-7887
▁짜증남	-7888
▁짝남과	-7889
▁짝남은	-7890
▁짝녀와	-7891
▁짠하고	-7892
▁찍었네	-7893
▁차단도	-7894
▁차별이	-7895
▁차이인	-7896
▁착각이	-7897
▁참겠어	-7898
▁참아야	-7899
▁창피해	-7900
▁책임질	-7901
▁처음엔	-7902
▁처음이	-7903
▁첫이별	-7904
▁청소는	-7905
▁청소를	-7906
▁축복과	-7907
▁축하해	-7908
▁취직할	-7909
▁취해서	-7910
▁친척들	-7911
▁클럽을	-7912
▁키우는	-7913
▁탓하지	-7914
▁티나나	-7915
▁페북을	-7916
▁포근한	-7917
▁풀렸길	-7918
▁피시방	-7919
▁피하고	-7920
▁필요가	-7921
▁필요도	-7922
▁하겠죠	-7923
▁하기로	-7924
▁하는거	-7925
▁하늘이	-7926
▁하라는	-7927
▁하려면	-7928
▁하루일	-7929
▁하시고	-7930
▁하지마	-7931
▁하지요	-7932
▁학교에	-7933
▁한달반	-7934
▁한달째	-7935
▁한번만	-7936
▁한순간	-7937
▁한없이	-7938
▁한켠에	-7939
▁할게요	-7940
▁할수록	-7941
▁함께도	-7942
▁함께면	-7943
▁해내고	-7944
▁해주면	-7945
▁해줄까	-7946
▁했나봐	-7947
▁했네요	-7948
▁했는지	-7949
▁했더니	-7950
▁행동할	-7951
▁행복이	-7952
▁향수가	-7953
▁허상일	-7954
▁허전할	-7955
▁헷갈려	-7956
▁호랑이	-7957
▁혼자를	-7958
▁확률이	-7959
▁후련할	-7960
▁후배가	-7961
▁후회없	-7962
▁휴식도	-7963
▁휴유증	-7964
▁흑역사	-7965
▁흔적이	-7966
▁흘러갈	-7967
▁힘내요	-7968
▁힘들면	-7969
남자친구	-7970
더라구요	-7971
르니까요	-7972
만으로도	-7973
받으면서	-7974
보는것도	-7975
사람에게	-7976
셨겠어요	-7977
시는구나	-7978
이라면요	-7979
이었네요	-7980
이었는데	-7981
적이에요	-7982
중입니다	-7983
질뻔했어	-7984
하니까요	-7985
하면서도	-7986
한다는데	-7987
해야하나	-7988
▁가고싶다	-7989
▁가까워질	-7990
▁가나봐요	-7991
▁가늠하지	-7992
▁가능하죠	-7993
▁가능한가	-7994
▁가벼워질	-7995
▁가져가면	-7996
▁가져왔다	-7997
▁가치관에	-7998
▁간질간질	-7999
▁감성적이	-8000
▁거니까요	-8001
▁거두세요	-8002
▁거짓말이	-8003
▁걱정하면	-8004
▁건가봐요	-8005
▁겨울에는	-8006
▁견뎌봐요	-8007
▁결정하기	-8008
▁결정하는	-8009
▁결혼한지	-8010
▁계산적인	-8011
▁고마워요	-8012
▁고맙다고	-8013
▁고백해야	-8014
▁고백했다	-8015
▁공부하는	-8016
▁공부하러	-8017
▁공부할까	-8018
▁괜찮아지	-8019
▁궁금증을	-8020
▁궁금하면	-8021
▁궁금한게	-8022
▁그것만큼	-8023
▁그러니까	-8024
▁그럴까요	-8025
▁그럴수도	-8026
▁그리움을	-8027
▁그리움이	-8028
▁그분에게	-8029
▁그사람이	-8030
▁기다려야	-8031
▁기다리게	-8032
▁기대치가	-8033
▁길러볼까	-8034
▁까먹었어	-8035
▁깎아야지	-8036
▁깨달음이	-8037
▁끝일지도	-8038
▁나겠어요	-8039
▁나누는게	-8040
▁나아지길	-8041
▁나에게도	-8042
▁나오라고	-8043
▁나오세요	-8044
▁날이에요	-8045
▁남자애랑	-8046
▁낭만적인	-8047
▁내려놓고	-8048
▁내리는게	-8049
▁냉장고에	-8050
▁너덜너덜	-8051
▁노력해도	-8052
▁누구보다	-8053
▁누구한테	-8054
▁느낀다면	-8055
▁늦었어요	-8056
▁다가가도	-8057
▁다가오고	-8058
▁다되가네	-8059
▁달리세요	-8060
▁답답하다	-8061
▁답답해서	-8062
▁당연해요	-8063
▁대리효도	-8064
▁데이트는	-8065
▁데이트할	-8066
▁도와줘야	-8067
▁돌아가는	-8068
▁돌아오길	-8069
▁돌아오는	-8070
▁돌아오지	-8071
▁돌아올까	-8072
▁동생이랑	-8073
▁동생인데	-8074
▁됐습니다	-8075
▁되어가길	-8076
▁되어가네	-8077
▁되었는지	-8078
▁두고두고	-8079
▁드는걸로	-8080
▁들어오면	-8081
▁따끔하게	-8082
▁떨어지는	-8083
▁마음가는	-8084
▁마음에게	-8085
▁마음인지	-8086
▁마주치면	-8087
▁마주치지	-8088
▁마지막을	-8089
▁마지막이	-8090
▁만나자는	-8091
▁말이예요	-8092
▁말하는게	-8093
▁말해보는	-8094
▁말해야지	-8095
▁맞나봐요	-8096
▁맡기세요	-8097
▁머릿속이	-8098
▁멋있네요	-8099
▁멋지네요	-8100
▁모르겠다	-8101
▁모습으로	-8102
▁몰랐어요	-8103
▁못하는데	-8104
▁못했군요	-8105
▁무너졌어	-8106
▁무뎌지는	-8107
▁무섭나요	-8108
▁문득문득	-8109
▁문제네요	-8110
▁물리적인	-8111
▁뭐하냐고	-8112
▁뭐하는지	-8113
▁미련없이	-8114
▁미소짓게	-8115
▁미안하대	-8116
▁미화되기	-8117
▁믿었는데	-8118
▁바꾸세요	-8119
▁바꿔볼까	-8120
▁바꿔야지	-8121
▁바디로션	-8122
▁바디워시	-8123
▁바란다면	-8124
▁바보같이	-8125
▁반대래요	-8126
▁반복되는	-8127
▁방법이죠	-8128
▁배고파서	-8129
▁배려해야	-8130
▁배우세요	-8131
▁배우자가	-8132
▁배워가는	-8133
▁배워보고	-8134
▁배워볼까	-8135
▁버려야지	-8136
▁베터리가	-8137
▁변해가는	-8138
▁별로네요	-8139
▁보내세요	-8140
▁보냈으니	-8141
▁복잡하게	-8142
▁봐보세요	-8143
▁봐주세요	-8144
▁봤습니다	-8145
▁부모님께	-8146
▁부정적인	-8147
▁부족한가	-8148
▁분명하게	-8149
▁분위기가	-8150
▁브랜드가	-8151
▁비슷하죠	-8152
▁비오는날	-8153
▁비트코인	-8154
▁비혼주의	-8155
▁사귀는데	-8156
▁사귀세요	-8157
▁사람만의	-8158
▁사랑받는	-8159
▁사랑보다	-8160
▁사랑에도	-8161
▁사랑하게	-8162
▁사랑해요	-8163
▁사랑해줄	-8164
▁사랑했어	-8165
▁삭제하는	-8166
▁살고싶어	-8167
▁살아가는	-8168
▁살아야죠	-8169
▁살았는데	-8170
▁상관없이	-8171
▁상대방은	-8172
▁상처받게	-8173
▁생각없이	-8174
▁생각일까	-8175
▁생각지도	-8176
▁생각처럼	-8177
▁생각했던	-8178
▁생일선물	-8179
▁선물해도	-8180
▁선택으로	-8181
▁세상이죠	-8182
▁속박에서	-8183
▁손가락이	-8184
▁솔직하고	-8185
▁쉬어가는	-8186
▁스스로를	-8187
▁스타일에	-8188
▁시간낭비	-8189
▁시간인데	-8190
▁시골에서	-8191
▁시끄러워	-8192
▁시어머니	-8193
▁시작하는	-8194
▁시키세요	-8195
▁식단조절	-8196
▁신경쓰인	-8197
▁실망하지	-8198
▁실용적인	-8199
▁심심한데	-8200
▁싶나봐요	-8201
▁싶어하는	-8202
▁썸인가요	-8203
▁아날로그	-8204
▁아니겠지	-8205
▁아니었어	-8206
▁아무말도	-8207
▁아침마다	-8208
▁아파하고	-8209
▁아프지만	-8210
▁안되겠죠	-8211
▁않습니다	-8212
▁않았네요	-8213
▁않았다면	-8214
▁알겠어서	-8215
▁알바생이	-8216
▁알아가는	-8217
▁애완동물	-8218
▁얘기하지	-8219
▁어디가지	-8220
▁어디에서	-8221
▁어린이집	-8222
▁어울릴까	-8223
▁어장인거	-8224
▁언제부터	-8225
▁얼굴보고	-8226
▁엄마아빠	-8227
▁없습니다	-8228
▁없으면서	-8229
▁여우같은	-8230
▁여유롭게	-8231
▁여자인데	-8232
▁여친이랑	-8233
▁여행가고	-8234
▁연락오네	-8235
▁연습하고	-8236
▁연애상담	-8237
▁연애할때	-8238
▁연예인도	-8239
▁영화보고	-8240
▁영화보러	-8241
▁예상하지	-8242
▁오랜연애	-8243
▁외롭다고	-8244
▁원인이죠	-8245
▁웬수네요	-8246
▁웬수예요	-8247
▁의미일까	-8248
▁의심하지	-8249
▁의지해도	-8250
▁이겨내고	-8251
▁이뤄지지	-8252
▁이별이든	-8253
▁이별하면	-8254
▁이사하는	-8255
▁이상한가	-8256
▁이상형을	-8257
▁이야기는	-8258
▁이야기할	-8259
▁이어보고	-8260
▁이용하는	-8261
▁이제부터	-8262
▁이해해요	-8263
▁인기있는	-8264
▁인정하는	-8265
▁일상으로	-8266
▁일어나야	-8267
▁일요일에	-8268
▁일이라도	-8269
▁일주일이	-8270
▁있으세요	-8271
▁자신만의	-8272
▁자야겠다	-8273
▁자존심을	-8274
▁잘되니까	-8275
▁잘해주면	-8276
▁재미있는	-8277
▁쟁취하는	-8278
▁적극적인	-8279
▁전화해도	-8280
▁접촉하는	-8281
▁정리되길	-8282
▁정리하게	-8283
▁정리하길	-8284
▁제정신이	-8285
▁조급하게	-8286
▁종지부를	-8287
▁좋아졌어	-8288
▁좋아한대	-8289
▁좋을지도	-8290
▁주말이네	-8291
▁주말인데	-8292
▁지겨워진	-8293
▁지나가는	-8294
▁지났는데	-8295
▁지났어요	-8296
▁진지하게	-8297
▁집착하게	-8298
▁짝사랑만	-8299
▁차단하고	-8300
▁차례예요	-8301
▁차분하고	-8302
▁찾아오네	-8303
▁척하는게	-8304
▁첫사랑을	-8305
▁첫인상은	-8306
▁추운가요	-8307
▁취직이나	-8308
▁친구들은	-8309
▁친구에게	-8310
▁컴퓨터가	-8311
▁크기만큼	-8312
▁토닥토닥	-8313
▁통보하는	-8314
▁퇴근길에	-8315
▁판도라의	-8316
▁편안하게	-8317
▁편안해질	-8318
▁편하다는	-8319
▁표현하기	-8320
▁피곤해서	-8321
▁한가지만	-8322
▁한달만에	-8323
▁한바퀴만	-8324
▁함께하고	-8325
▁해달라고	-8326
▁해야겠죠	-8327
▁해야하나	-8328
▁해주는게	-8329
▁해주면서	-8330
▁해줬으면	-8331
▁행복하면	-8332
▁허무하네	-8333
▁헤어지네	-8334
▁헤어짐도	-8335
▁형편대로	-8336
▁혼인신고	-8337
▁혼자해도	-8338
▁확실하게	-8339
▁확인하고	-8340
▁후련하니	-8341
▁후회안할	-8342
▁흐지부지	-8343
▁흘리세요	-8344
▁희생양이	-8345
▁힘들거라	-8346
▁힘들어도	-8347
▁힘이드네	-8348
버렸습니다	-8349
었나봅니다	-8350
이었나봐요	-8351
하고싶은데	-8352
하더라고요	-8353
하시겠어요	-8354
해졌나봐요	-8355
▁가능할까요	-8356
▁가져주세요	-8357
▁개강이라니	-8358
▁객관적으로	-8359
▁걱정마세요	-8360
▁것만으로도	-8361
▁고민이네요	-8362
▁고백받았어	-8363
▁고백할까요	-8364
▁괜찮습니다	-8365
▁구체적으로	-8366
▁귀엽겠네요	-8367
▁기대했는데	-8368
▁기도할게요	-8369
▁길러보세요	-8370
▁깊었나봐요	-8371
▁남사친이랑	-8372
▁남편이네요	-8373
▁놀랐나봐요	-8374
▁느껴보세요	-8375
▁다되어가네	-8376
▁다를거예요	-8377
▁달려있겠죠	-8378
▁답답할거라	-8379
▁당신이네요	-8380
▁데이트하고	-8381
▁뒤숭숭하네	-8382
▁따져보세요	-8383
▁때문이겠죠	-8384
▁때문이에요	-8385
▁떨리겠어요	-8386
▁마셔보세요	-8387
▁마음이네요	-8388
▁마음이에요	-8389
▁만들어봐요	-8390
▁만들었어요	-8391
▁망가뜨리기	-8392
▁모르겠지만	-8393
▁무덤덤해질	-8394
▁무시당하는	-8395
▁문제인가요	-8396
▁물어보거나	-8397
▁미안해하지	-8398
▁믿어주세요	-8399
▁밀어보세요	-8400
▁반했나봐요	-8401
▁벅찰텐대요	-8402
▁변덕스럽게	-8403
▁보내보세요	-8404
▁봉사활동도	-8405
▁부담스러울	-8406
▁분인가봐요	-8407
▁불편하겠죠	-8408
▁사람들한테	-8409
▁사람일지도	-8410
▁사랑이라고	-8411
▁사랑이라는	-8412
▁사랑이야기	-8413
▁사랑하는지	-8414
▁사랑하세요	-8415
▁사랑합니다	-8416
▁사랑해주는	-8417
▁생각나네요	-8418
▁생각하면서	-8419
▁서운하다고	-8420
▁쉬어가세요	-8421
▁스트레스의	-8422
▁습관처럼은	-8423
▁시간이었을	-8424
▁시간이에요	-8425
▁신경쓰이는	-8426
▁심리일까요	-8427
▁아껴주세요	-8428
▁아닐거예요	-8429
▁아파하다가	-8430
▁아프겠어요	-8431
▁안되나봐요	-8432
▁안좋아하는	-8433
▁애프터까지	-8434
▁없어졌으면	-8435
▁여사친이랑	-8436
▁연락하라고	-8437
▁연락해봐요	-8438
▁영화관이나	-8439
▁왔나봅니다	-8440
▁유통기한이	-8441
▁유효기간이	-8442
▁의미부여는	-8443
▁이별이에요	-8444
▁이별하려고	-8445
▁이야기해요	-8446
▁익숙해지지	-8447
▁인공지능에	-8448
▁인사드리러	-8449
▁인생이에요	-8450
▁인연이라면	-8451
▁인정하세요	-8452
▁일어났더니	-8453
▁일이니까요	-8454
▁일주일이네	-8455
▁잊어버리는	-8456
▁잘하셨어요	-8457
▁장난스러운	-8458
▁재회했는데	-8459
▁전여친이랑	-8460
▁전여친한테	-8461
▁접어두셔요	-8462
▁정리하는데	-8463
▁정리하려고	-8464
▁제자리여도	-8465
▁조금이나마	-8466
▁존중합니다	-8467
▁좋겠습니다	-8468
▁좋아하니까	-8469
▁좋아할까요	-8470
▁좋았을텐데	-8471
▁주말이네요	-8472
▁준비되어야	-8473
▁준비하기는	-8474
▁준비하는데	-8475
▁중독인가봐	-8476
▁중요하겠죠	-8477
▁지긋지긋한	-8478
▁지저분해요	-8479
▁지켜주세요	-8480
▁직접적으로	-8481
▁진정하세요	-8482
▁질투난다고	-8483
▁짝사랑에서	-8484
▁찍어주세요	-8485
▁차단하세요	-8486
▁채워보세요	-8487
▁채워줄게요	-8488
▁챙겨주세요	-8489
▁최선이었을	-8490
▁추천드려요	-8491
▁치료하세요	-8492
▁크시겠어요	-8493
▁태어났을까	-8494
▁팔아보세요	-8495
▁표현해보는	-8496
▁필요한가요	-8497
▁하셨나봐요	-8498
▁한달이에요	-8499
▁해야겠네여	-8500
▁행복했으면	-8501
▁헤어지자는	-8502
▁헤어진지도	-8503
▁헬스장에서	-8504
▁호랑이보다	-8505
▁혼란스러워	-8506
▁확실해지면	-8507
▁흘렀나봐요	-8508
▁힘드니까요	-8509
▁간절하겠네요	-8510
▁결혼적령기가	-8511
▁고민해보세요	-8512
▁그리운가봐요	-8513
▁기울여보세요	-8514
▁낳을뿐이에요	-8515
▁놔둬야하는데	-8516
▁다독여주세요	-8517
▁대화해보세요	-8518
▁도와드릴게요	-8519
▁도전해보세요	-8520
▁드라이플라워	-8521
▁떨쳐버리세요	-8522
▁무덤덤해지는	-8523
▁받아들이세요	-8524
▁배려해보세요	-8525
▁복잡한가봐요	-8526
▁부딪혔나봐요	-8527
▁부족한가봐요	-8528
▁빠져나오세요	-8529
▁새출발하세요	-8530
▁생각하나봐요	-8531
▁생각해봅니다	-8532
▁서운하겠어요	-8533
▁설득해보세요	-8534
▁신청해보세요	-8535
▁여기까지였을	-8536
▁연락해도될까	-8537
▁연락했습니다	-8538
▁의지해보세요	-8539
▁이야기하세요	-8540
▁이어나가는게	-8541
▁익숙해지지가	-8542
▁있었나봅니다	-8543
▁정리했습니다	-8544
▁제안해보세요	-8545
▁존중해줬으면	-8546
▁좋아하는데도	-8547
▁좋아했나봐요	-8548
▁중요하니까요	-8549
▁착잡하겠어요	-8550
▁표현해주세요	-8551
▁피곤하겠어요	-8552
▁허전하겠어요	-8553
▁허전한가봐요	-8554
▁헛헛한가봐요	-8555
▁헤어지고나서	-8556
▁화이트데이에	-8557
▁확인해달라고	-8558
▁힘들었을텐데	-8559
▁결혼적령기예요	-8560
▁그린라이트일까	-8561
▁당황하셨겠어요	-8562
▁들어맞나봅니다	-8563
▁마음정리하세요	-8564
▁받아들여보세요	-8565
▁사람이었나봐요	-8566
▁사랑이었나봐요	-8567
▁사랑하나봅니다	-8568
▁신경쓰이나봐요	-8569
▁좋아하시는구나	-8570
▁사랑이었으니까요	-8571
▁프로포즈해보세요	-8572
▁40	-8573
▁강림	-8574
▁강추	-8575
▁갚을	-8576
▁개당	-8577
▁갱신	-8578
▁걷기	-8579
▁겁이	-8580
▁겪은	-8581
▁견딜	-8582
▁곱씹	-8583
▁곱창	-8584
▁광탈	-8585
▁광합	-8586
▁교통	-8587
▁권유	-8588
▁근무	-8589
▁근질	-8590
▁금값	-8591
▁긴여	-8592
▁까봐	-8593
▁깍고	-8594
▁꼬르	-8595
▁꽃게	-8596
▁끄고	-8597
▁낙담	-8598
▁난처	-8599
▁갈구	-8600
▁경과	-8601
▁경조	-8602
▁경찰	-8603
▁경향	-8604
▁굴면	-8605
▁났네	-8606
▁났어	-8607
▁낮춰	-8608
▁냉동	-8609
▁넣고	-8610
▁네가	-8611
▁뉴스	-8612
▁닮아	-8613
▁담담	-8614
▁담은	-8615
▁덜어	-8616
▁독특	-8617
▁독학	-8618
▁돋을	-8619
▁둘을	-8620
▁듣지	-8621
▁등이	-8622
▁디자	-8623
▁디저	-8624
▁디져	-8625
▁땅을	-8626
▁땜에	-8627
▁땡기	-8628
▁떴어	-8629
▁뛰는	-8630
▁띄길	-8631
▁라인	-8632
▁로그	-8633
▁로망	-8634
▁롱패	-8635
▁맴찢	-8636
▁맺는	-8637
▁멋을	-8638
▁멍때	-8639
▁메인	-8640
▁메일	-8641
▁명만	-8642
▁명확	-8643
▁목감	-8644
▁목도	-8645
▁몸값	-8646
▁몸도	-8647
▁민망	-8648
▁박도	-8649
▁밟힐	-8650
▁번은	-8651
▁법적	-8652
▁병이	-8653
▁볶는	-8654
▁본다	-8655
▁볼링	-8656
▁볼매	-8657
▁봄방	-8658
▁봄에	-8659
▁봤나	-8660
▁붙는	-8661
▁붙어	-8662
▁브런	-8663
▁블루	-8664
▁빌렸	-8665
▁빚이	-8666
▁빛이	-8667
▁빨라	-8668
▁뽑아	-8669
▁뿌얘	-8670
▁삐져	-8671
▁산다	-8672
▁삶도	-8673
▁삶이	-8674
▁삼재	-8675
▁색감	-8676
▁샜어	-8677
▁손을	-8678
▁손이	-8679
▁솔솔	-8680
▁숙면	-8681
▁숨쉬	-8682
▁숨한	-8683
▁쉴만	-8684
▁식도	-8685
▁쌓는	-8686
▁쌓아	-8687
▁써야	-8688
▁쓸모	-8689
▁씨앗	-8690
▁씹어	-8691
▁양배	-8692
▁얘는	-8693
▁엊그	-8694
▁역류	-8695
▁옥죄	-8696
▁온수	-8697
▁온천	-8698
▁욕함	-8699
▁깨는	-8700
▁깨서	-8701
▁깨질	-8702
▁늦기	-8703
▁단지	-8704
▁듯이	-8705
▁뜬금	-8706
▁막상	-8707
▁민감	-8708
▁별별	-8709
▁복이	-8710
▁순진	-8711
▁씨씨	-8712
▁와라	-8713
▁와우	-8714
▁울면	-8715
▁움츠	-8716
▁유기	-8717
▁유세	-8718
▁읽을	-8719
▁잃을	-8720
▁잔잔	-8721
▁쟁여	-8722
▁젖어	-8723
▁졌어	-8724
▁존경	-8725
▁존댓	-8726
▁졸리	-8727
▁종료	-8728
▁종목	-8729
▁종이	-8730
▁죄송	-8731
▁죽지	-8732
▁질척	-8733
▁짐작	-8734
▁짜지	-8735
▁짰어	-8736
▁쪄서	-8737
▁쪼잔	-8738
▁쫄면	-8739
▁찌는	-8740
▁찌뿌	-8741
▁찌푸	-8742
▁착용	-8743
▁채널	-8744
▁채우	-8745
▁책만	-8746
▁책장	-8747
▁처량	-8748
▁처방	-8749
▁천일	-8750
▁천지	-8751
▁천하	-8752
▁철은	-8753
▁첫키	-8754
▁청강	-8755
▁청구	-8756
▁청약	-8757
▁체인	-8758
▁체조	-8759
▁초록	-8760
▁초초	-8761
▁촬영	-8762
▁출국	-8763
▁출발	-8764
▁춥냐	-8765
▁침해	-8766
▁캬아	-8767
▁컨설	-8768
▁컴백	-8769
▁컴터	-8770
▁코골	-8771
▁코코	-8772
▁콜록	-8773
▁탄생	-8774
▁탔다	-8775
▁탔던	-8776
▁태몽	-8777
▁텀블	-8778
▁	-8779
.	-8780
요	-8781
이	-8782
어	-8783
는	-8784
하	-8785
아	-8786
가	-8787
지	-8788
다	-8789
해	-8790
고	-8791
세	-8792
을	-8793
나	-8794
사	-8795
보	-8796
도	-8797
거	-8798
게	-8799
좋	-8800
에	-8801
자	-8802
있	-8803
은	-8804
기	-8805
면	-8806
한	-8807
까	-8808
네	-8809
?	-8810
만	-8811
니	-8812
데	-8813
마	-8814
예	-8815
랑	-8816
서	-8817
그	-8818
겠	-8819
로	-8820
시	-8821
리	-8822
람	-8823
들	-8824
생	-8825
인	-8826
무	-8827
라	-8828
일	-8829
수	-8830
야	-8831
같	-8832
남	-8833
안	-8834
할	-8835
친	-8836
정	-8837
연	-8838
으	-8839
구	-8840
를	-8841
말	-8842
여	-8843
주	-8844
내	-8845
봐	-8846
의	-8847
죠	-8848
음	-8849
없	-8850
싶	-8851
각	-8852
제	-8853
것	-8854
신	-8855
려	-8856
오	-8857
잘	-8858
대	-8859
너	-8860
힘	-8861
상	-8862
많	-8863
간	-8864
별	-8865
더	-8866
바	-8867
않	-8868
했	-8869
스	-8870
진	-8871
되	-8872
부	-8873
애	-8874
전	-8875
드	-8876
락	-8877
건	-8878
었	-8879
저	-8880
모	-8881
헤	-8882
때	-8883
금	-8884
짝	-8885
중	-8886
심	-8887
운	-8888
화	-8889
길	-8890
썸	-8891
못	-8892
워	-8893
비	-8894
러	-8895
물	-8896
장	-8897
미	-8898
혼	-8899
적	-8900
분	-8901
먹	-8902
알	-8903
감	-8904
걸	-8905
히	-8906
습	-8907
당	-8908
래	-8909
받	-8910
우	-8911
테	-8912
행	-8913
소	-8914
결	-8915
선	-8916
날	-8917
달	-8918
르	-8919
직	-8920
좀	-8921
살	-8922
조	-8923
후	-8924
관	-8925
았	-8926
늘	-8927
방	-8928
!	-8929
든	-8930
타	-8931
회	-8932
돼	-8933
될	-8934
녀	-8935
동	-8936
복	-8937
차	-8938
실	-8939
질	-8940
과	-8941
뭐	-8942
른	-8943
찮	-8944
와	-8945
공	-8946
트	-8947
끝	-8948
괜	-8949
속	-8950
원	-8951
처	-8952
계	-8953
필	-8954
치	-8955
두	-8956
잊	-8957
집	-8958
문	-8959
귀	-8960
유	-8961
난	-8962
편	-8963
런	-8964
경	-8965
재	-8966
졌	-8967
답	-8968
던	-8969
준	-8970
성	-8971
줄	-8972
피	-8973
울	-8974
렇	-8975
년	-8976
왜	-8977
식	-8978
떻	-8979
느	-8980
볼	-8981
개	-8982
꾸	-8983
버	-8984
위	-8985
져	-8986
왔	-8987
입	-8988
떨	-8989
작	-8990
새	-8991
노	-8992
맞	-8993
배	-8994
현	-8995
눈	-8996
번	-8997
추	-8998
언	-8999
났	-9000
법	-9001
짜	-9002
잠	-9003
단	-9004
또	-9005
민	-9006
프	-9007
올	-9008
참	-9009
쓰	-9010
학	-9011
따	-9012
함	-9013
디	-9014
싫	-9015
력	-9016
변	-9017
줘	-9018
담	-9019
잡	-9020
겨	-9021
반	-9022
찾	-9023
억	-9024
확	-9025
점	-9026
카	-9027
쉬	-9028
먼	-9029
능	-9030
얼	-9031
터	-9032
합	-9033
갈	-9034
근	-9035
매	-9036
용	-9037
천	-9038
표	-9039
통	-9040
놀	-9041
술	-9042
백	-9043
절	-9044
련	-9045
레	-9046
누	-9047
럴	-9048
머	-9049
돌	-9050
맛	-9051
루	-9052
긴	-9053
발	-9054
릴	-9055
불	-9056
몰	-9057
움	-9058
듯	-9059
봅	-9060
꿈	-9061
랄	-9062
충	-9063
호	-9064
막	-9065
교	-9066
톡	-9067
약	-9068
청	-9069
파	-9070
증	-9071
영	-9072
1	-9073
군	-9074
돈	-9075
됐	-9076
취	-9077
접	-9078
월	-9079
젠	-9080
강	-9081
놓	-9082
명	-9083
싸	-9084
큼	-9085
닌	-9086
빠	-9087
째	-9088
곳	-9089
된	-9090
떠	-9091
랍	-9092
망	-9093
쁜	-9094
외	-9095
택	-9096
쉽	-9097
크	-9098
걱	-9099
겼	-9100
순	-9101
믿	-9102
갑	-9103
국	-9104
름	-9105
임	-9106
커	-9107
께	-9108
맘	-9109
씩	-9110
2	-9111
셨	-9112
앞	-9113
축	-9114
럽	-9115
업	-9116
키	-9117
였	-9118
,	-9119
온	-9120
황	-9121
열	-9122
짐	-9123
침	-9124
폰	-9125
냥	-9126
슨	-9127
텐	-9128
떤	-9129
3	-9130
님	-9131
럼	-9132
쁘	-9133
설	-9134
슬	-9135
휴	-9136
렸	-9137
엄	-9138
궁	-9139
최	-9140
켜	-9141
허	-9142
혀	-9143
뭘	-9144
태	-9145
출	-9146
쳐	-9147
양	-9148
착	-9149
급	-9150
잔	-9151
족	-9152
험	-9153
록	-9154
격	-9155
깨	-9156
린	-9157
포	-9158
픈	-9159
ᅲ	-9160
갔	-9161
늦	-9162
몸	-9163
존	-9164
죽	-9165
형	-9166
환	-9167
본	-9168
체	-9169
떡	-9170
즐	-9171
극	-9172
책	-9173
냐	-9174
덜	-9175
벌	-9176
종	-9177
써	-9178
챙	-9179
목	-9180
산	-9181
풀	-9182
첫	-9183
플	-9184
항	-9185
넘	-9186
란	-9187
완	-9188
찍	-9189
낌	-9190
멋	-9191
티	-9192
팅	-9193
향	-9194
밥	-9195
붙	-9196
뿐	-9197
셔	-9198
웃	-9199
활	-9200
견	-9201
손	-9202
응	-9203
초	-9204
글	-9205
끔	-9206
평	-9207
맨	-9208
폭	-9209
흘	-9210
꼭	-9211
즘	-9212
탈	-9213
뜻	-9214
숙	-9215
씨	-9216
줬	-9217
큰	-9218
투	-9219
0	-9220
굴	-9221
욕	-9222
짓	-9223
닐	-9224
색	-9225
씀	-9226
낼	-9227
봤	-9228
곤	-9229
둘	-9230
빨	-9231
뻐	-9232
솔	-9233
5	-9234
뭔	-9235
슴	-9236
페	-9237
메	-9238
코	-9239
풍	-9240
꽃	-9241
병	-9242
척	-9243
냈	-9244
똑	-9245
몇	-9246
밀	-9247
껴	-9248
밤	-9249
졸	-9250
딱	-9251
4	-9252
며	-9253
벽	-9254
핸	-9255
독	-9256
쳤	-9257
픔	-9258
갖	-9259
듣	-9260
림	-9261
옷	-9262
덤	-9263
밌	-9264
찬	-9265
랐	-9266
랜	-9267
짧	-9268
퇴	-9269
괴	-9270
끊	-9271
밖	-9272
역	-9273
핑	-9274
뒤	-9275
빼	-9276
승	-9277
쓸	-9278
익	-9279
칭	-9280
펴	-9281
흐	-9282
박	-9283
베	-9284
봄	-9285
빌	-9286
숨	-9287
악	-9288
칠	-9289
6	-9290
꺼	-9291
료	-9292
엇	-9293
웠	-9294
흔	-9295
깐	-9296
끼	-9297
녕	-9298
얘	-9299
득	-9300
렵	-9301
롭	-9302
멀	-9303
깊	-9304
뎌	-9305
렀	-9306
춰	-9307
케	-9308
곧	-9309
골	-9310
낫	-9311
석	-9312
삶	-9313
읽	-9314
찌	-9315
채	-9316
념	-9317
높	-9318
등	-9319
숭	-9320
염	-9321
잖	-9322
킨	-9323
퍼	-9324
헷	-9325
꼬	-9326
냉	-9327
멍	-9328
철	-9329
겁	-9330
벗	-9331
창	-9332
탁	-9333
꿨	-9334
끄	-9335
맥	-9336
쇼	-9337
쩌	-9338
판	-9339
꿀	-9340
덧	-9341
뜨	-9342
션	-9343
십	-9344
쯤	-9345
클	-9346
특	-9347
ᄒ	-9348
덕	-9349
북	-9350
섭	-9351
옆	-9352
팔	-9353
효	-9354
랬	-9355
례	-9356
립	-9357
센	-9358
엔	-9359
쟁	-9360
쩔	-9361
틱	-9362
품	-9363
헛	-9364
ᅮ	-9365
김	-9366
꿔	-9367
놈	-9368
류	-9369
밍	-9370
뻔	-9371
삼	-9372
콩	-9373
틀	-9374
패	-9375
희	-9376
권	-9377
깝	-9378
냄	-9379
딩	-9380
멈	-9381
싱	-9382
쌓	-9383
육	-9384
땐	-9385
론	-9386
릿	-9387
삭	-9388
샀	-9389
엽	-9390
죄	-9391
걷	-9392
눠	-9393
됩	-9394
즈	-9395
턴	-9396
텨	-9397
토	-9398
획	-9399
귄	-9400
낭	-9401
놔	-9402
됨	-9403
량	-9404
브	-9405
뿌	-9406
셀	-9407
액	-9408
7	-9409
깍	-9410
깔	-9411
뀌	-9412
녁	-9413
닥	-9414
벼	-9415
봇	-9416
푸	-9417
8	-9418
뀔	-9419
끈	-9420
뒷	-9421
쐬	-9422
웨	-9423
혹	-9424
흡	-9425
귈	-9426
긍	-9427
농	-9428
뉴	-9429
듭	-9430
딸	-9431
슷	-9432
썼	-9433
옴	-9434
잤	-9435
컨	-9436
갚	-9437
깜	-9438
꼼	-9439
끌	-9440
닫	-9441
둬	-9442
렌	-9443
블	-9444
쓴	-9445
씹	-9446
왕	-9447
춥	-9448
콜	-9449
푹	-9450
ᄏ	-9451
걔	-9452
곰	-9453
규	-9454
낮	-9455
넌	-9456
넣	-9457
딴	-9458
뛰	-9459
링	-9460
뽑	-9461
씻	-9462
춘	-9463
칼	-9464
흥	-9465
9	-9466
값	-9467
깎	-9468
끗	-9469
낸	-9470
널	-9471
듬	-9472
맙	-9473
몽	-9474
밝	-9475
봉	-9476
빛	-9477
빡	-9478
옥	-9479
잃	-9480
쪽	-9481
찰	-9482
첩	-9483
콘	-9484
콤	-9485
탄	-9486
탔	-9487
헬	-9488
겹	-9489
곁	-9490
꾹	-9491
닉	-9492
랫	-9493
렘	-9494
룩	-9495
뤄	-9496
벚	-9497
빈	-9498
샤	-9499
앉	-9500
잇	-9501
컴	-9502
탕	-9503
털	-9504
혔	-9505
힌	-9506
검	-9507
껏	-9508
낀	-9509
납	-9510
넓	-9511
녹	-9512
닮	-9513
둔	-9514
딪	-9515
땀	-9516
띄	-9517
롱	-9518
벤	-9519
엉	-9520
잼	-9521
찔	-9522
콕	-9523
툰	-9524
팍	-9525
낄	-9526
늙	-9527
땅	-9528
땡	-9529
뚝	-9530
렬	-9531
령	-9532
맡	-9533
볶	-9534
빵	-9535
뻑	-9536
뽀	-9537
쁠	-9538
섬	-9539
씁	-9540
압	-9541
얻	-9542
왤	-9543
웬	-9544
젖	-9545
짠	-9546
짱	-9547
킁	-9548
템	-9549
푼	-9550
햇	-9551
훈	-9552
객	-9553
곡	-9554
긋	-9555
꼈	-9556
꽤	-9557
끓	-9558
낙	-9559
뒀	-9560
뜰	-9561
뱃	-9562
송	-9563
싼	-9564
쌩	-9565
앗	-9566
징	-9567
쩍	-9568
쪄	-9569
쪼	-9570
춤	-9571
층	-9572
켠	-9573
탐	-9574
툴	-9575
휘	-9576
곱	-9577
광	-9578
궈	-9579
낚	-9580
낳	-9581
눅	-9582
늠	-9583
닝	-9584
돋	-9585
둠	-9586
둥	-9587
뒹	-9588
똥	-9589
롤	-9590
뢰	-9591
릎	-9592
묻	-9593
밑	-9594
밟	-9595
범	-9596
쉴	-9597
슈	-9598
쌍	-9599
쑥	-9600
옳	-9601
욱	-9602
젯	-9603
찜	-9604
찢	-9605
찼	-9606
첨	-9607
톱	-9608
툼	-9609
틋	-9610
팩	-9611
팸	-9612
헥	-9613
흑	-9614
겟	-9615
긁	-9616
꾼	-9617
닿	-9618
댈	-9619
렛	-9620
률	-9621
릅	-9622
묵	-9623
벅	-9624
볍	-9625
빚	-9626
쁨	-9627
삐	-9628
쌈	-9629
썹	-9630
쎄	-9631
쏟	-9632
쏠	-9633
씌	-9634
엮	-9635
왠	-9636
윗	-9637
쫄	-9638
쫌	-9639
찐	-9640
촉	-9641
츠	-9642
켰	-9643
쿨	-9644
퀴	-9645
탓	-9646
틈	-9647
팀	-9648
팠	-9649
폼	-9650
퓨	-9651
헌	-9652
홀	-9653
힐	-9654
갠	-9655
겪	-9656
굳	-9657
껄	-9658
꼰	-9659
넷	-9660
놨	-9661
댓	-9662
덥	-9663
딘	-9664
딛	-9665
떼	-9666
뚫	-9667
램	-9668
렜	-9669
릇	-9670
맴	-9671
맷	-9672
맺	-9673
멘	-9674
몫	-9675
밉	-9676
빙	-9677
빴	-9678
샌	-9679
싹	-9680
앨	-9681
엠	-9682
욜	-9683
웹	-9684
율	-9685
좌	-9686
줌	-9687
쥐	-9688
짚	-9689
짰	-9690
쭉	-9691
쭤	-9692
총	-9693
촬	-9694
컥	-9695
컷	-9696
컸	-9697
텁	-9698
텔	-9699
팁	-9700
팬	-9701
펑	-9702
풋	-9703
핫	-9704
갱	-9705
겉	-9706
겐	-9707
깰	-9708
꽉	-9709
꽝	-9710
꿰	-9711
넋	-9712
뇌	-9713
눌	-9714
눕	-9715
닷	-9716
댄	-9717
돕	-9718
됬	-9719
딜	-9720
땜	-9721
떴	-9722
뜬	-9723
띠	-9724
랖	-9725
랙	-9726
렐	-9727
렴	-9728
륵	-9729
묘	-9730
샜	-9731
숫	-9732
썩	-9733
앱	-9734
얽	-9735
엊	-9736
엿	-9737
옵	-9738
왓	-9739
젤	-9740
졋	-9741
짼	-9742
측	-9743
캬	-9744
쿠	-9745
쿵	-9746
킬	-9747
턱	-9748
텀	-9749
텅	-9750
툭	-9751
헐	-9752
헹	-9753
홈	-9754
홧	-9755
흠	-9756
걍	-9757
겜	-9758
괘	-9759
균	-9760
귤	-9761
깃	-9762
깅	-9763
깬	-9764
깼	-9765
꼴	-9766
꽂	-9767
꿩	-9768
넛	-9769
넥	-9770
넹	-9771
녔	-9772
논	-9773
뇨	-9774
눴	-9775
닦	-9776
닭	-9777
댔	-9778
덩	-9779
덮	-9780
뚱	-9781
띰	-9782
띵	-9783
랭	-9784
렉	-9785
룰	-9786
룸	-9787
룽	-9788
륜	-9789
릭	-9790
맹	-9791
몬	-9792
뮤	-9793
밭	-9794
벨	-9795
볕	-9796
붓	-9797
뷔	-9798
빽	-9799
뺏	-9800
뻤	-9801
뽕	-9802
뿅	-9803
삔	-9804
샐	-9805
샘	-9806
섞	-9807
섣	-9808
섯	-9809
섰	-9810
섹	-9811
솜	-9812
쇠	-9813
숏	-9814
썰	-9815
쑤	-9816
씰	-9817
씸	-9818
얇	-9819
옛	-9820
옮	-9821
왼	-9822
웁	-9823
웽	-9824
윙	-9825
젊	-9826
젝	-9827
줍	-9828
쥬	-9829
즙	-9830
짤	-9831
짬	-9832
쨌	-9833
쪘	-9834
찡	-9835
찹	-9836
챘	-9837
쳇	-9838
칩	-9839
캄	-9840
캐	-9841
캔	-9842
켓	-9843
콧	-9844
쿼	-9845
킥	-9846
킹	-9847
텼	-9848
톤	-9849
퉁	-9850
튀	-9851
튜	-9852
펭	-9853
픽	-9854
핀	-9855
혈	-9856
혐	-9857
훅	-9858
훌	-9859
훔	-9860
휙	-9861
흰	-9862
ᄎ	-9863
갇	-9864
갯	-9865
곗	-9866
굶	-9867
굽	-9868
굿	-9869
궜	-9870
귐	-9871
깠	-9872
깡	-9873
꺽	-9874
껀	-9875
꼿	-9876
꽁	-9877
꽈	-9878
꿎	-9879
꿧	-9880
뀐	-9881
냅	-9882
놉	-9883
뇽	-9884
늪	-9885
닙	-9886
닳	-9887
댜	-9888
덴	-9889
델	-9890
뎠	-9891
둑	-9892
듀	-9893
듦	-9894
딧	-9895
딨	-9896
땠	-9897
떄	-9898
뗄	-9899
뛴	-9900
뜁	-9901
뜩	-9902
뜸	-9903
랠	-9904
랩	-9905
럿	-9906
렁	-9907
렷	-9908
롯	-9909
멤	-9910
몹	-9911
뭇	-9912
뭉	-9913
뭣	-9914
밸	-9915
뱄	-9916
뱉	-9917
벋	-9918
벴	-9919
뵈	-9920
붕	-9921
빔	-9922
빗	-9923
뺄	-9924
뺴	-9925
뻘	-9926
뻣	-9927
뻥	-9928
뿍	-9929
삽	-9930
삿	-9931
셥	-9932
숍	-9933
쉼	-9934
쌀	-9935
쌤	-9936
쎈	-9937
쎌	-9938
쏘	-9939
쏜	-9940
씬	-9941
씽	-9942
앙	-9943
얄	-9944
엘	-9945
엣	-9946
옇	-9947
욌	-9948
윤	-9949
잌	-9950
잦	-9951
잿	-9952
젔	-9953
젹	-9954
좁	-9955
즉	-9956
쩐	-9957
쩝	-9958
쩡	-9959
쫙	-9960
쭈	-9961
찝	-9962
챔	-9963
챗	-9964
촌	-9965
췄	-9966
츄	-9967
츤	-9968
칙	-9969
칫	-9970
컹	-9971
쾌	-9972
큐	-9973
킴	-9974
탑	-9975
탱	-9976
텄	-9977
텍	-9978
텻	-9979
퉜	-9980
펜	-9981
펨	-9982
펼	-9983
폐	-9984
퐈	-9985
픕	-9986
핍	-9987
핏	-9988
햐	-9989
헉	-9990
협	-9991
혜	-9992
훨	-9993
휨	-9994
힙	-9995
